{"id_to_word":{"0":"<PAD>","1":"<UNK>","10":")","100":"α","1000":"сно","1001":"через","1002":"большин","1003":"вита","1004":"доста","1005":"компьюте","1006":"ствуют","1007":"чные","1008":"щен","1009":"an","101":"β","1010":"голо","1011":"которой","1012":"мле","1013":"нци","1014":"стре","1015":"фер","1016":"чей","1017":"ями","1018":"каче","1019":"лли","102":"γ","1020":"уда","1021":"гви","1022":"ев","1023":"имеют","1024":"мент","1025":"шь","1026":"щих","1027":"ющий","1028":"do","1029":"чет","103":"δ","1030":"эволюции","1031":"энерги","1032":"этой","1033":"важ","1034":"всего","1035":"дву","1036":"расстоя","1037":"бора","1038":"мости","1039":"пингви","104":"ε","1040":"рения","1041":"сооб","1042":"хран","1043":"чень","1044":"ками","1045":"компи","1046":"несколько","1047":"обходи","1048":"реали","1049":"сут","105":"η","1050":"чного","1051":"груженно","1052":"жиз","1053":"очень","1054":"посколь","1055":"получи","1056":"пользова","1057":"поскольку","1058":"рование","1059":"согла","106":"θ","1060":"взаимодействи","1061":"манен","1062":"одной","1063":"помощ","1064":"сом","1065":"фото","1066":"щая","1067":"et","1068":"on","1069":"долж","107":"ι","1070":"самы","1071":"фай","1072":"ющей","1073":"кие","1074":"ман","1075":"мар","1076":"магнит","1077":"помощью","1078":"пробле","1079":"сла","108":"κ","1080":"теля","1081":"гром","1082":"другие","1083":"щение","1084":"больше","1085":"грани","1086":"кий","1087":"необходи","1088":"нологи","1089":"тек","109":"λ","1090":"возможно","1091":"всех","1092":"меркурия","1093":"области","1094":"существует","1095":"уз","1096":"мл","1097":"одно","1098":"вал","1099":"свой","11":"*","110":"μ","1100":"ством","1101":"форми","1102":"циаль","1103":"виде","1104":"ещ","1105":"ещё","1106":"объя","1107":"памя","1108":"тие","1109":"типа","111":"ν","1110":"этот","1111":"один","1112":"поэтому","1113":"ради","1114":"современ","1115":"технологи","1116":"хожд","1117":"хотя","1118":"гравита","1119":"интернет","112":"ξ","1120":"него","1121":"размер","1122":"созна","1123":"усло","1124":"-за","1125":"нение","1126":"шек","1127":"бла","1128":"влен","1129":"вез","113":"ο","1130":"вели","1131":"кое","1132":"лягуш","1133":"оби","1134":"теория","1135":"win","1136":"вое","1137":"зон","1138":"информации","1139":"коне","114":"π","1140":"напра","1141":"результате","1142":"содержа","1143":"термо","1144":"цеп","1145":"леку","1146":"сты","1147":"шая","1148":"компиля","1149":"крип","115":"ρ","1150":"разде","1151":"генов","1152":"дыры","1153":"используется","1154":"комет","1155":"льные","1156":"начи","1157":"особенно","1158":"поля","1159":"пряден","116":"ς","1160":"чёт","1161":"al","1162":"вида","1163":"два","1164":"кар","1165":"кроме","1166":"луны","1167":"приня","1168":"работы","1169":"спи","117":"σ","1170":"ского","1171":"телей","1172":"яд","1173":"анали","1174":"енного","1175":"компьютер","1176":"кую","1177":"мене","1178":"молеку","1179":"протоко","118":"τ","1180":"ток","1181":"щие","1182":"дж","1183":"доступ","1184":"первые","1185":"раст","1186":"термодинами","1187":"эле","1188":"me","1189":"глу","119":"υ","1190":"находи","1191":"ники","1192":"организмов","1193":"пру","1194":"программы","1195":"станов","1196":"сур","1197":"даже","1198":"кт","1199":"обнару","12":"+","120":"φ","1200":"поле","1201":"рами","1202":"скорость","1203":"os","1204":"вании","1205":"воло","1206":"дь","1207":"из-за","1208":"изу","1209":"лия","121":"χ","1210":"некоторых","1211":"википедии","1212":"позволяет","1213":"соста","1214":"теории","1215":"lin","1216":"доб","1217":"кле","1218":"кор","1219":"описа","122":"ψ","1220":"отдель","1221":"пов","1222":"практи","1223":"представля","1224":"призна","1225":"форму","1226":"диа","1227":"интеллекта","1228":"искусственного","1229":"круг","123":"ω","1230":"лась","1231":"нных","1232":"ресур","1233":"теле","1234":"ческая","1235":"воро","1236":"выде","1237":"операцион","1238":"подоб","1239":"разработ","124":"ό","1240":"рован","1241":"учё","1242":"услови","1243":"ших","1244":"генети","1245":"заря","1246":"любо","1247":"определя","1248":"пор","1249":"рой","125":"ύ","1250":"собой","1251":"ваний","1252":"дова","1253":"рода","1254":"сс","1255":"солне","1256":"существо","1257":"уже","1258":"веро","1259":"казыва","126":"ώ","1260":"количество","1261":"происходит","1262":"рои","1263":"стать","1264":"тела","1265":"плот","1266":"последова","1267":"проек","1268":"семей","1269":"ской","127":"ϕ","1270":"ственный","1271":"жда","1272":"личие","1273":"льной","1274":"лягушек","1275":"модели","1276":"составляет","1277":"терми","1278":"тон","1279":"урав","128":"ϵ","1280":"dow","1281":"window","1282":"выми","1283":"выра","1284":"земли","1285":"кэ","1286":"милли","1287":"мир","1288":"нем","1289":"ошиб","129":"а","1290":"ских","1291":"солнца","1292":"s-","1293":"бер","1294":"кло","1295":"каждо","1296":"которого","1297":"множе","1298":"синте","1299":"199","13":",","130":"б","1300":"de","1301":"голов","1302":"животных","1303":"лага","1304":"лишь","1305":"нные","1306":"отнош","1307":"приме","1308":"принци","1309":"рам","131":"в","1310":"рот","1311":"упра","1312":"er-","1313":"внут","1314":"вычисли","1315":"жизни","1316":"запро","1317":"значения","1318":"кто","1319":"математи","132":"г","1320":"ограни","1321":"след","1322":"изобра","1323":"лся","1324":"ленной","1325":"маненно","1326":"пада","1327":"парамет","1328":"процесс","1329":"шиф","133":"д","1330":"unix","1331":"енное","1332":"ит","1333":"кан","1334":"нови","1335":"ок","1336":"участ","1337":"windows","1338":"асте","1339":"астерои","134":"е","1340":"дво","1341":"мини","1342":"перед","1343":"пути","1344":"ш-","1345":"-х","1346":"te","1347":"ux","1348":"блок","1349":"вают","135":"ж","1350":"ино","1351":"км","1352":"кая","1353":"матри","1354":"многие","1355":"объяс","1356":"органи","1357":"сеть","1358":"стандарт","1359":"тельность","136":"з","1360":"ванием","1361":"жений","1362":"зе","1363":"наблюд","1364":"разных","1365":"росси","1366":"соеди","1367":"чего","1368":"алле","1369":"вме","137":"и","1370":"внутрен","1371":"возможность","1372":"вым","1373":"выше","1374":"жит","1375":"менее","1376":"образования","1377":"располо","1378":"стой","1379":"человека","138":"й","1380":"чёрной","1381":"linux","1382":"вероят","1383":"жить","1384":"значение","1385":"многих","1386":"обучения","1387":"поко","1388":"рё","1389":"вход","139":"к","1390":"внеш","1391":"вокруг","1392":"качестве","1393":"котором","1394":"масси","1395":"назад","1396":"образу","1397":"публи","1398":"согласно","1399":"среди","14":"-","140":"л","1400":"ственных","1401":"ям","1402":"par","1403":"put","1404":"веще","1405":"выполня","1406":"ено","1407":"относительно","1408":"поте","1409":"равно","141":"м","1410":"различных","1411":"тых","1412":"языка","1413":"ап","1414":"враща","1415":"копи","1416":"крипто","1417":"луч","1418":"писа","1419":"поверхности","142":"н","1420":"приро","1421":"тём","1422":"тью","1423":"вле","1424":"види","1425":"жден","1426":"жу","1427":"квантовой","1428":"функция","1429":"гово","143":"о","1430":"зрения","1431":"несколь","1432":"орби","1433":"основе","1434":"отсут","1435":"рем","1436":"срав","1437":"связи","1438":"стоит","1439":"число","144":"п","1440":"буду","1441":"пряд","1442":"рет","1443":"см","1444":"света","1445":"степ","1446":"тей","1447":"чает","1448":"дости","1449":"иногда","145":"р","1450":"кажды","1451":"кисло","1452":"код","1453":"полага","1454":"постоя","1455":"щем","1456":"повед","1457":"стри","1458":"функци","1459":"характер","146":"с","1460":"щее","1461":"ic","1462":"ts-","1463":"водо","1464":"двух","1465":"енном","1466":"ментов","1467":"нный","1468":"настоя","1469":"называется","147":"т","1470":"номи","1471":"поня","1472":"прило","1473":"процессо","1474":"серве","1475":"состояния","1476":"тет","1477":"требу","1478":"шую","1479":"большой","148":"у","1480":"гравитацион","1481":"емых","1482":"которое","1483":"мость","1484":"новых","1485":"окру","1486":"памяти","1487":"сми","1488":"станови","1489":"хеш-","149":"ф","1490":"цов","1491":"0-х","1492":"алгоритм","1493":"вести","1494":"кода","1495":"ляр","1496":"механиз","1497":"название","1498":"обита","1499":"уровня","15":".","150":"х","1500":"хро","1501":"ческое","1502":"шие","1503":"гре","1504":"галактик","1505":"лений","1506":"одним","1507":"показа","1508":"строй","1509":"тво","151":"ц","1510":"тели","1511":"указа","1512":"цу","1513":"черкав","1514":"en","1515":"вари","1516":"одного","1517":"применя","1518":"случай","1519":"смот","152":"ч","1520":"частности","1521":"ip","1522":"out","1523":"аппара","1524":"бай","1525":"благода","1526":"благодаря","1527":"затем","1528":"исход","1529":"мени","153":"ш","1530":"мая","1531":"нга","1532":"полни","1533":"решения","1534":"сами","1535":"ствие","1536":"существ","1537":"экспе","1538":"энергии","1539":"ser-","154":"щ","1540":"астро","1541":"достаточно","1542":"изменения","1543":"моло","1544":"мута","1545":"ом","1546":"отбор","1547":"планеты","1548":"представи","1549":"программи","155":"ъ","1550":"рь","1551":"спу","1552":"ющая","1553":"196","1554":"биологи","1555":"льное","1556":"матери","1557":"оцен","1558":"пас","1559":"посред","156":"ы","1560":"рд","1561":"счёт","1562":"тигра","1563":"202","1564":"бя","1565":"горизон","1566":"дея","1567":"енному","1568":"задач","1569":"клет","157":"ь","1570":"кам","1571":"находится","1572":"ному","1573":"постоян","1574":"сен","1575":"сматри","1576":"связ","1577":"mw","1578":"mw-","1579":"ада","158":"э","1580":"большинство","1581":"ведер","1582":"звез","1583":"значительно","1584":"инди","1585":"реше","1586":"системе","1587":"тери","1588":"тигров","1589":"тыся","159":"ю","1590":"функций","1591":"хво","1592":"ii","1593":"output","1594":"актив","1595":"вом","1596":"исследования","1597":"мета","1598":"находя","1599":"отде","16":"/","160":"я","1600":"перату","1601":"приводи","1602":"температу","1603":"тип","1604":"ётся","1605":"-либо","1606":"вно","1607":"виды","1608":"емые","1609":"енною","161":"ё","1610":"используются","1611":"источ","1612":"кило","1613":"понима","1614":"потен","1615":"популяции","1616":"появи","1617":"тому","1618":"увеличи","1619":"чь","162":"ў","1620":"числе","1621":"шем","1622":"экспери","1623":"197","1624":"ht","1625":"близ","1626":"другой","1627":"ент","1628":"ким","1629":"лягушки","163":"ѳ","1630":"потом","1631":"программ","1632":"своей","1633":"себя","1634":"скоп","1635":"труд","1636":"упо","1637":"хло","1638":"чается","1639":"шта","164":"ү","1640":"mw-par","1641":"mw-parser-","1642":"mw-parser-output","1643":"вычислитель","1644":"именно","1645":"клинен","1646":"компо","1647":"лла","1648":"лле","1649":"метод","165":"ב","1650":"мозга","1651":"нд","1652":"ников","1653":"разработа","1654":"сохран","1655":"такой","1656":"тиво","1657":"ческим","1658":"гна","1659":"новые","166":"ה","1660":"нутри","1661":"окружа","1662":"правило","1663":"предо","1664":"сдела","1665":"сервер","1666":"состоит","1667":"ути","1668":"ion","1669":"ат","167":"ו","1670":"влия","1671":"группы","1672":"две","1673":"движения","1674":"друг","1675":"запу","1676":"концеп","1677":"масса","1678":"начала","1679":"облада","168":"ח","1680":"поис","1681":"пространства","1682":"рито","1683":"сят","1684":"террито","1685":"тол","1686":"эко","1687":"госу","1688":"даль","1689":"ень","169":"כ","1690":"нуть","1691":"обработ","1692":"объеди","1693":"отли","1694":"почти","1695":"различные","1696":"транс","1697":"воды","1698":"всемир","1699":"доказа","17":"0","170":"מ","1700":"компа","1701":"момент","1702":"отбора","1703":"пли","1704":"размно","1705":"ходе","1706":"эволюцион","1707":"яр","1708":"ap","1709":"ch","171":"ः","1710":"ванию","1711":"века","1712":"гля","1713":"государ","1714":"данным","1715":"использовать","1716":"мор","1717":"развития","1718":"соответству","1719":"тело","172":"ध","1720":"тера","1721":"точки","1722":"бак","1723":"внутри","1724":"ключ","1725":"косми","1726":"ними","1727":"осуществ","1728":"организма","1729":"поли","173":"ब","1730":"поддерж","1731":"распреде","1732":"расши","1733":"роль","1734":"ские","1735":"ствии","1736":"ствовать","1737":"стороны","1738":"тельный","1739":"фек","174":"ु","1740":"хими","1741":"чным","1742":"шли","1743":"ян","1744":"50","1745":"бина","1746":"бит","1747":"газа","1748":"клад","1749":"конечно","175":"ḗ","1750":"лё","1751":"мена","1752":"нескольких","1753":"образование","1754":"парсе","1755":"рассматри","1756":"расположен","1757":"хоро","1758":"чиво","1759":"ia","176":"ἀ","1760":"бре","1761":"большого","1762":"вопро","1763":"глав","1764":"изда","1765":"подтвер","1766":"предло","1767":"сказа","1768":"собы","1769":"стар","177":"ἐ","1770":"там","1771":"туаль","1772":"фикации","1773":"чаются","1774":"быстро","1775":"взаимодействия","1776":"видо","1777":"глубо","1778":"компилято","1779":"мест","178":"ἑ","1780":"млн","1781":"мого","1782":"настоящее","1783":"опти","1784":"обеспечи","1785":"обрат","1786":"сигна","1787":"установ","1788":"фектив","1789":"хищ","179":"ἶ","1790":"эффектив","1791":"re","1792":"si","1793":"зако","1794":"измер","1795":"каждый","1796":"криптографи","1797":"лег","1798":"нию","1799":"описы","18":"1","180":"ᾰ","1800":"период","1801":"рез","1802":"ск","1803":"тий","1804":"циях","1805":"шу","1806":"язык","1807":"аб","1808":"адре","1809":"дополни","181":"ῆ","1810":"должны","1811":"лий","1812":"лить","1813":"массы","1814":"модель","1815":"мыш","1816":"нь","1817":"называют","1818":"независи","1819":"перемен","182":"ῶ","1820":"поддержи","1821":"разу","1822":"сфе","1823":"спор","1824":"тепло","1825":"фило","1826":"цией","1827":"бри","1828":"вселенной","1829":"дро","183":"–","1830":"ера","1831":"ква","1832":"менты","1833":"насе","1834":"начина","1835":"нить","1836":"плен","1837":"плат","1838":"полностью","1839":"противо","184":"—","1840":"радиу","1841":"распространён","1842":"реги","1843":"роди","1844":"руется","1845":"све","1846":"слова","1847":"течение","1848":"типов","1849":"тьюри","185":"―","1850":"уг","1851":"успе","1852":"утвер","1853":"фици","1854":"бес","1855":"влении","1856":"всё","1857":"добы","1858":"дыр","1859":"контро","186":"’","1860":"лых","1861":"метода","1862":"най","1863":"нах","1864":"область","1865":"одна","1866":"ошибки","1867":"пингвинов","1868":"продол","1869":"программа","187":"ℏ","1870":"пыт","1871":"свою","1872":"систему","1873":"ском","1874":"стол","1875":"эффек","1876":"ph","1877":"ur","1878":"блокчей","1879":"больших","188":"→","1880":"встре","1881":"википедия","1882":"вычисления","1883":"иде","1884":"использование","1885":"мое","1886":"нами","1887":"преду","1888":"причи","1889":"ред","189":"−","1890":"спира","1891":"сыпа","1892":"тысяч","1893":"числа","1894":"чёрных","1895":"шло","1896":"электри","1897":"баты","1898":"доба","1899":"женный","19":"2","190":"⋅","1900":"защи","1901":"зависимости","1902":"кни","1903":"кнов","1904":"корот","1905":"мери","1906":"множество","1907":"приспособ","1908":"рение","1909":"структуры","191":"一","1910":"существуют","1911":"теоре","1912":"фотосинте","1913":"хода","1914":"частиц","1915":"эй","1916":"_{","1917":"ft","1918":"ro","1919":"алгоритма","192":"星","1920":"библи","1921":"библио","1922":"вращения","1923":"гер","1924":"другими","1925":"жил","1926":"задачи","1927":"излу","1928":"лока","1929":"оно","193":"水","1930":"ошибо","1931":"передачи","1932":"писи","1933":"позна","1934":"позд","1935":"принима","1936":"произо","1937":"рамках","1938":"смы","1939":"создания","194":"源","1940":"тах","1941":"ходят","1942":"ce","1943":"вода","1944":"годов","1945":"док","1946":"ждения","1947":"иму","1948":"имуще","1949":"любой","195":"荒","1950":"млрд","1951":"оказа","1952":"постро","1953":"рус","1954":"скорости","1955":"среды","1956":"стях","1957":"стала","1958":"ятся","1959":"cp","196":"貴","1960":"th","1961":"архи","1962":"бря","1963":"впервые","1964":"вместе","1965":"выз","1966":"гипоте","1967":"годах","1968":"данный","1969":"зме","197":"辰","1970":"используют","1971":"комплек","1972":"макси","1973":"наблюдения","1974":"ори","1975":"ото","1976":"особей","1977":"прибли","1978":"примерно","1979":"происхожд","198":"ꞌ","1980":"процесса","1981":"состояние","1982":"считается","1983":"теори","1984":"характери","1985":"18","1986":"198","1987":"автомати","1988":"выход","1989":"зация","199":"ст","1990":"ленность","1991":"макро","1992":"массо","1993":"меня","1994":"меть","1995":"нка","1996":"начально","1997":"няя","1998":"поряд","1999":"преимуще","2":"<START>","20":"3","200":"ен","2000":"предполо","2001":"рнк","2002":"рах","2003":"свобо","2004":"сильно","2005":"следует","2006":"сообщения","2007":"хлоро","2008":"четы","2009":"-то","201":"но","2010":"али","2011":"включая","2012":"возник","2013":"гено","2014":"диска","2015":"женной","2016":"зя","2017":"запис","2018":"клиненно","2019":"конк","202":"ра","2020":"конкрет","2021":"льная","2022":"ляется","2023":"масшта","2024":"начале","2025":"нуж","2026":"пода","2027":"пока","2028":"поро","2029":"рёх","203":"на","2030":"сай","2031":"слово","2032":"содержи","2033":"страни","2034":"треть","2035":"цев","2036":"чаще","2037":"черкавши","2038":"элемента","2039":"16","204":"по","2040":"ами","2041":"бакте","2042":"ваются","2043":"емой","2044":"жении","2045":"женная","2046":"зм","2047":"иметь","2048":"информацию","2049":"машин","205":"ко","2050":"мощ","2051":"нашей","2052":"ниже","2053":"онов","2054":"отдельных","2055":"относительности","2056":"пя","2057":"получен","2058":"популяр","2059":"процессе","206":"ро","2060":"реша","2061":"россии","2062":"свойства","2063":"симво","2064":"соврем","2065":"сознание","2066":"требо","2067":"уровень","2068":"формы","2069":"ation","207":"то","2070":"tp","2071":"бро","2072":"вали","2073":"естественного","2074":"женных","2075":"занима","2076":"ключи","2077":"комбина","2078":"лены","2079":"меньше","208":"ны","2080":"мети","2081":"паути","2082":"получа","2083":"практически","2084":"проду","2085":"сетей","2086":"совер","2087":"стов","2088":"тигр","2089":"указыва","209":"ре","2090":"устрой","2091":"учи","2092":"фра","2093":"щую","2094":"аналоги","2095":"вольно","2096":"возра","2097":"возможности","2098":"гор","2099":"женные","21":"4","210":"ет","2100":"женными","2101":"игра","2102":"иско","2103":"исследова","2104":"коор","2105":"компонен","2106":"координа","2107":"метри","2108":"основном","2109":"пингвины","211":"ни","2110":"равнове","2111":"размера","2112":"реализации","2113":"сша","2114":"север","2115":"сей","2116":"смотря","2117":"стати","2118":"тами","2119":"тогда","212":"го","2120":"уменьш","2121":"циона","2122":",5","2123":"ho","2124":"библиоте","2125":"вариан","2126":"вещества","2127":"волков","2128":"емый","2129":"зависит","213":"во","2130":"кции","2131":"лах","2132":"массив","2133":"машины","2134":"нению","2135":"нием","2136":"нукле","2137":"очере","2138":"обеспечения","2139":"отво","214":"ва","2140":"отличие","2141":"переход","2142":"предоставля","2143":"просто","2144":"программирования","2145":"производи","2146":"рей","2147":"рует","2148":"термин","2149":"тые","215":"ли","2150":"тьюринга","2151":"универси","2152":"хромо","2153":"ющим","2154":"com","2155":"dn","2156":"no","2157":"xt","2158":"архите","2159":"архитекту","216":"ри","2160":"весе","2161":"взры","2162":"возника","2163":"вымира","2164":"звёзды","2165":"использования","2166":"лые","2167":"льность","2168":"механи","2169":"несмотря","217":"ль","2170":"пта","2171":"ранее","2172":"разно","2173":"самых","2174":"ственной","2175":"щей","2176":"эн","2177":"tcp","2178":"выша","2179":"ему","218":"ка","2180":"кими","2181":"мел","2182":"мом","2183":"новрем","2184":"обнаружен","2185":"объектов","2186":"одноврем","2187":"пом","2188":"поста","2189":"предполага","219":"те","2190":"расстояние","2191":"роваться","2192":"рую","2193":"сить","2194":"специаль","2195":"стом","2196":"столкнов","2197":"сум","2198":"считать","2199":"транспор","22":"5","220":"ени","2200":"широко","2201":"li","2202":"виду","2203":"голова","2204":"гради","2205":"един","2206":"изменя","2207":"кита","2208":"клас","2209":"мед","221":"не","2210":"прав","2211":"солнечной","2212":"специа","2213":"тить","2214":"удо","2215":"уровне","2216":"хорошо","2217":"электромагнит","2218":"этим","2219":"ющего","222":"ло","2220":"ющее","2221":"ядра","2222":"ma","2223":"ver","2224":"аппарат","2225":"баг","2226":"возду","2227":"всегда","2228":"второй","2229":"двоен","223":"об","2230":"жать","2231":"лами","2232":"ленных","2233":"материи","2234":"меркурий","2235":"нда","2236":"наслед","2237":"насторо","2238":"пад","2239":"посту","224":"да","2240":"представляет","2241":"процессы","2242":"рай","2243":"растений","2244":"регу","2245":"семейства","2246":"стали","2247":"технологии","2248":"тигры","2249":"требуется","225":"ки","2250":"факто","2251":"формули","2252":"хра","2253":"языке","2254":"30","2255":"ath","2256":"ec","2257":"ed","2258":"аллелей","2259":"волки","226":"мо","2260":"группа","2261":"дере","2262":"друга","2263":"земле","2264":"кг","2265":"льным","2266":"людей","2267":"микро","2268":"мира","2269":"опубли","227":"та","2270":"объекты","2271":"опублико","2272":"основан","2273":"погло","2274":"свои","2275":"событий","2276":"стями","2277":"тради","2278":"фри","2279":"12","228":"ер","2280":"http","2281":"ran","2282":"алгоритмов","2283":"алгоритмы","2284":"бел","2285":"веб","2286":"выпу","2287":"данной","2288":"женным","2289":"знач","229":"ле","2290":"копита","2291":"мести","2292":"мина","2293":"млекопита","2294":"одновременно","2295":"осве","2296":"пленно","2297":"путём","2298":"распозна","2299":"связан","23":"6","230":"ся","2300":"сив","2301":"случаях","2302":"соро","2303":"состав","2304":"спек","2305":"такого","2306":"уменьшен","2307":"шее","2308":"шел","2309":"щего","231":"за","2310":"эксперимента","2311":"100","2312":"ing","2313":"int","2314":"адапта","2315":"большая","2316":"большие","2317":"будут","2318":"вок","2319":"волк","232":"ла","2320":"гало","2321":"гать","2322":"галактика","2323":"долго","2324":"женного","2325":"зву","2326":"исследований","2327":"компьютеров","2328":"кур","2329":"озна","233":"со","2330":"определения","2331":"определяется","2332":"основной","2333":"паралле","2334":"первый","2335":"позже","2336":"приводит","2337":"процессов","2338":"путь","2339":"пыта","234":"ть","2340":"разные","2341":"реда","2342":"решение","2343":"руют","2344":"сни","2345":"средства","2346":"туа","2347":"университет","2348":"цвет","2349":"ье","235":"ля","2350":".mw-parser-output","2351":"ent","2352":"ti","2353":"ав","2354":"амери","2355":"вла","2356":"волочен","2357":"гео","2358":"движу","2359":"древ","236":"ми","2360":"евро","2361":"женную","2362":"женное","2363":"ию","2364":"изо","2365":"лат","2366":"методы","2367":"млечного","2368":"нений","2369":"ню","237":"ти","2370":"набор","2371":"новой","2372":"относя","2373":"расстояния","2374":"руются","2375":"свобод","2376":"связь","2377":"сознания","2378":"специ","2379":"традицион","238":"ма","2380":"филосо","2381":"хла","2382":"частицы","2383":"юж","2384":"net","2385":"pa","2386":"ари","2387":"вир","2388":"возникнов","2389":"волка","239":"ви","2390":"вую","2391":"вший","2392":"вычислений","2393":"заголо","2394":"известно","2395":"интеллект","2396":"клиен","2397":"кости","2398":"которую","2399":"лин","24":"7","240":"ци","2400":"луна","2401":"меся","2402":"механики","2403":"напо","2404":"основа","2405":"посредством","2406":"приве","2407":"разре","2408":"современных","2409":"соответственно","241":"до","2410":"ственным","2411":"стики","2412":"фей","2413":"цепоч","2414":"циф","2415":"чными","2416":"эволюция","2417":"lo","2418":"ам","2419":"безо","242":"от","2420":"вен","2421":"вероятно","2422":"вёр","2423":"гола","2424":"дальней","2425":"данного","2426":"женном","2427":"женному","2428":"женною","2429":"инстру","243":"про","2430":"интернета","2431":"испол","2432":"кс","2433":"конце","2434":"которым","2435":"лях","2436":"миллиар","2437":"нам","2438":"окон","2439":"оти","244":"си","2440":"обоб","2441":"окружающей","2442":"организмы","2443":"ошибок","2444":"пари","2445":"пото","2446":"позволи","2447":"ресурсов","2448":"решечен","2449":"рос","245":"че","2450":"сообщение","2451":"сорока","2452":"ственные","2453":"струнен","2454":"тельство","2455":"транза","2456":"успеш","2457":"чная","2458":"шего","2459":"em","246":"ру","2460":"xx","2461":"виртуаль","2462":"всей","2463":"делить","2464":"довольно","2465":"животные","2466":"змеи","2467":"интерфей","2468":"использует","2469":"квантовая","247":"при","2470":"кометы","2471":"ленные","2472":"наря","2473":"оку","2474":"обре","2475":"очередь","2476":"пита","2477":"пользователь","2478":"представления","2479":"сфер","248":"ис","2480":"сете","2481":"системах","2482":"состоянии","2483":"структур","2484":"существование","2485":"тельной","2486":"тельные","2487":"территории","2488":"тора","2489":"ферен","249":"вы","2490":"хлорофи","2491":"чать","2492":"чены","2493":"чивость","2494":"шения","2495":"ший","2496":"шим","2497":"ющими","2498":"bs","2499":"text","25":"8","250":"де","2500":"блоков","2501":"веб-","2502":"гом","2503":"даёт","2504":"диск","2505":"должна","2506":"змей","2507":"знамен","2508":"зывать","2509":"ид","251":"ме","2510":"кет","2511":"каждой","2512":"лено","2513":"привести","2514":"присут","2515":"просты","2516":"пространство","2517":"работу","2518":"сем","2519":"сме","252":"ди","2520":"скопи","2521":"способность","2522":"стади","2523":"статьи","2524":"трёх","2525":"тики","2526":"угло","2527":"цело","2528":"эту","2529":"api","253":"бо","2530":"dns","2531":"math","2532":"атмо","2533":"бере","2534":"большое","2535":"внима","2536":"видет","2537":"вороб","2538":"выжи","2539":"выделя","254":"ве","2540":"глоба","2541":"дыра","2542":"искусственный","2543":"лый","2544":"метал","2545":"метров","2546":"нём","2547":"наличие","2548":"окуне","2549":"определить","255":"из","2550":"пле","2551":"перь","2552":"подход","2553":"получить","2554":"приложения","2555":"пространстве","2556":"развити","2557":"развитие","2558":"результаты","2559":"самцов","256":"ных","2560":"содержит","2561":"спут","2562":"стран","2563":"туман","2564":"цент","2565":"циально","2566":"ческом","2567":"штей","2568":"ющихся","2569":"195","257":"раз","2570":"ment","2571":"us","2572":"ак","2573":"безвесе","2574":"большинства","2575":"вдо","2576":"веду","2577":"ведён","2578":"всемирной","2579":"гене","258":"енно","2580":"гов","2581":"голавле","2582":"горизонта","2583":"диамет","2584":"доку","2585":"дома","2586":"другим","2587":"европе","2588":"естественный","2589":"ими","259":"ча","2590":"крас","2591":"клопеди","2592":"крупных","2593":"лан","2594":"ленная","2595":"место","2596":"методов","2597":"млечный","2598":"моду","2599":"молекуляр","26":"9","260":"пе","2600":"надле","2601":"названия","2602":"находятся","2603":"начало","2604":"нциклопеди","2605":"обучение","2606":"объё","2607":"объясня","2608":"перено","2609":"перио","261":"ения","2610":"писать","2611":"планер","2612":"поведение","2613":"полуведер","2614":"принадле","2615":"приту","2616":"примером","2617":"сверх","2618":"ситуа","2619":"сорокаведер","262":"ста","2620":"средств","2621":"стры","2622":"становится","2623":"тка","2624":"тан","2625":"тел","2626":"фунда","2627":"хранения","2628":"чка","2629":"щён","263":"сти","2630":"энциклопеди","2631":"ядро","2632":"15","2633":"анализа","2634":"ближа","2635":"ближай","2636":"большую","2637":"версии","2638":"взаимодействие","2639":"влением","264":"ры","2640":"восто","2641":"гена","2642":"др","2643":"дарви","2644":"двига","2645":"денти","2646":"ждение","2647":"иденти","2648":"информацион","2649":"какой","265":"ем","2650":"каждого","2651":"левой","2652":"легко","2653":"ляции","2654":"миллионов","2655":"мых","2656":"нной","2657":"неё","2658":"одном","2659":"операционной","266":"ют","2660":"относится","2661":"относятся","2662":"птен","2663":"падает","2664":"программного","2665":"пуль","2666":"рованы","2667":"скую","2668":"сравни","2669":"табли","267":"сто","2670":"функциони","2671":"час","2672":"it","2673":"астероидов","2674":"вей","2675":"вить","2676":"гли","2677":"газо","2678":"доро","2679":"заголов","268":"ные","2680":"зоне","2681":"информация","2682":"использова","2683":"использованием","2684":"классической","2685":"коль","2686":"комбай","2687":"лена","2688":"ленный","2689":"логии","269":"пре","2690":"мере","2691":"моди","2692":"мый","2693":"нная","2694":"пси","2695":"потре","2696":"провер","2697":"против","2698":"рных","2699":"результат","27":":","270":"мен","2700":"сервера","2701":"сит","2702":"сия","2703":"сокра","2704":"составляют","2705":"среде","2706":"стал","2707":"стало","2708":"тельных","2709":"транспорт","271":"сть","2710":"фон","2711":"филь","2712":"цами","2713":"челю","2714":"четыре","2715":"000","2716":"32","2717":"безопас","2718":"вь","2719":"весь","272":"хо","2720":"вов","2721":"вывод","2722":"двой","2723":"движение","2724":"зировать","2725":"избе","2726":"излучения","2727":"импуль","2728":"клетки","2729":"ковых","273":"чи","2730":"коди","2731":"мозг","2732":"наличи","2733":"недоста","2734":"независимо","2735":"нок","2736":"перво","2737":"по-","2738":"поверхность","2739":"подви","274":"ско","2740":"пользователей","2741":"превыша","2742":"самым","2743":"сохраня","2744":"тки","2745":"твор","2746":"теорети","2747":"фундамента","2748":"экономи","2749":"25","275":"га","2750":"бактерий","2751":"влений","2752":"гро","2753":"должен","2754":"записи","2755":"задача","2756":"известных","2757":"кер","2758":"килопарсе","2759":"ковой","276":"ный","2760":"край","2761":"лению","2762":"льными","2763":"мало","2764":"материа","2765":"машина","2766":"нштей","2767":"народ","2768":"огром","2769":"объём","277":"се","2770":"организации","2771":"первой","2772":"первым","2773":"плоско","2774":"повто","2775":"пой","2776":"посе","2777":"подвер","2778":"природе","2779":"рать","278":"ется","2780":"разработки","2781":"ссо","2782":"слоны","2783":"соответствии","2784":"средо","2785":"структура","2786":"сыпать","2787":"тар","2788":"таксо","2789":"теорию","279":"па","2790":"тополе","2791":"тот","2792":"точен","2793":"увели","2794":"уравнение","2795":"условиях","2796":"факти","2797":"файла","2798":"чай","2799":"ченного","28":";","280":"ной","2800":"ческими","2801":"чёрная","2802":"эйнштей","2803":"bo","2804":"el","2805":"go","2806":"англий","2807":"взрыва","2808":"вих","2809":"вместо","281":"ду","2810":"вших","2811":"глаза","2812":"губ","2813":"двумя","2814":"действовать","2815":"деятельности","2816":"длина","2817":"жением","2818":"желе","2819":"закон","282":"лу","2820":"исче","2821":"кция","2822":"комму","2823":"корре","2824":"крат","2825":"лью","2826":"максима","2827":"молоды","2828":"ница","2829":"нюю","283":"ги","2830":"обитания","2831":"оборот","2832":"отра","2833":"понятие","2834":"последние","2835":"предсказа","2836":"приложений","2837":"применения","2838":"проблем","2839":"производ","284":"кото","2840":"раство","2841":"радио","2842":"речи","2843":"редко","2844":"решений","2845":"россий","2846":"сформи","2847":"самой","2848":"своего","2849":"совет","285":"ши","2850":"сок","2851":"сообще","2852":"соотнош","2853":"собственно","2854":"современной","2855":"современные","2856":"стен","2857":"существу","2858":"такое","2859":"функцию","286":"ение","2860":"функциона","2861":"ченной","2862":"чём","2863":"явления","2864":"/ip","2865":"tcp/ip","2866":"астрономи","2867":"влению","2868":"воробь","2869":"дней","287":"ств","2870":"допу","2871":"дрей","2872":"дыду","2873":"источника","2874":"кций","2875":"лень","2876":"линей","2877":"литера","2878":"места","2879":"моде","288":"вани","2880":"направлении","2881":"недо","2882":"необходимо","2883":"нуклеоти","2884":"описание","2885":"оптими","2886":"орбиты","2887":"пакет","2888":"параметров","2889":"плани","289":"бы","2890":"похо","2891":"помощи","2892":"последовательности","2893":"последовательность","2894":"правила","2895":"предыду","2896":"предубе","2897":"природы","2898":"проекта","2899":"раза","29":"<","290":"же","2900":"работе","2901":"разнообраз","2902":"спари","2903":"сход","2904":"своих","2905":"сейчас","2906":"скопления","2907":"скоростью","2908":"служить","2909":"создание","291":"са","2910":"специали","2911":"ствия","2912":"строго","2913":"струненно","2914":"стью","2915":"тропи","2916":"тября","2917":"устой","2918":"утвержда","2919":"фран","292":"ски","2920":"физики","2921":"частью","2922":"человек","2923":"шифрования","2924":"as","2925":"gn","2926":"ix-","2927":"ts-переход","2928":"анализ","2929":"веден","293":"лю","2930":"вес","2931":"включает","2932":"воде","2933":"воду","2934":"возвраща","2935":"воздействи","2936":"выгля","2937":"гены","2938":"говоря","2939":"дая","294":"ку","2940":"данном","2941":"дыха","2942":"жде","2943":"жё","2944":"заключа","2945":"зован","2946":"изображений","2947":"кана","2948":"кари","2949":"клады","295":"ну","2950":"количества","2951":"коммер","2952":"концепции","2953":"крате","2954":"лл","2955":"лягушка","2956":"мец","2957":"мимо","2958":"написа","2959":"новый","296":"щи","2960":"ностей","2961":"оболо","2962":"обработки","2963":"особи","2964":"особенности","2965":"плотность","2966":"повы","2967":"пози","2968":"попыт","2969":"подвиж","297":"му","2970":"представлен","2971":"применение","2972":"растения","2973":"смысле","2974":"спект","2975":"типы","2976":"управления","2977":"учёных","2978":"фено","2979":"ходить","298":"льно","2980":"целом","2981":"цепи","2982":"частот","2983":"экс","2984":"13","2985":"fo","2986":"gle","2987":"wi","2988":"ази","2989":"абсол","299":"для","2990":"абсолют","2991":"астероида","2992":"выполнения","2993":"гри","2994":"джер","2995":"диапа","2996":"домаш","2997":"зде","2998":"ии","2999":"изначально","3":"<END>","30":"=","300":"ще","3000":"известны","3001":"изменение","3002":"измерения","3003":"изображения","3004":"имени","3005":"ктор","3006":"коро","3007":"компьютера","3008":"меди","3009":"международ","301":"ор","3010":"мире","3011":"молекулы","3012":"нан","3013":"невозможно","3014":"нему","3015":"непосред","3016":"нейронов","3017":"ником","3018":"охот","3019":"общей","302":"ции","3020":"одну","3021":"означает","3022":"пет","3023":"поток","3024":"позволяют","3025":"полови","3026":"получения","3027":"пользователя","3028":"популяция","3029":"право","303":"что","3030":"произве","3031":"проблема","3032":"проблемы","3033":"произво","3034":"протокол","3035":"протоколов","3036":"размеры","3037":"рее","3038":"режи","3039":"скре","304":"это","3040":"сажен","3041":"самки","3042":"свето","3043":"слой","3044":"строки","3045":"текста","3046":"термодинамики","3047":"техни","3048":"трансля","3049":"ум","305":"су","3050":"уско","3051":"уменьша","3052":"управля","3053":"фикация","3054":"хле","3055":"хромосом","3056":"чек","3057":"шелко","3058":"щений","3059":"ющую","306":"ин","3060":":n","3061":"comment","3062":"psi","3063":"syst","3064":"xv","3065":"аген","3066":"большим","3067":"вли","3068":"вар","3069":"величина","307":"мож","3070":"вызыва","3071":"далее","3072":"данными","3073":"дистри","3074":"дистрибу","3075":"дови","3076":"другом","3077":"ел","3078":"емого","3079":"жён","308":"вля","3080":"жид","3081":"заключается","3082":"звезды","3083":"используя","3084":"истори","3085":"кров","3086":"кать","3087":"клеток","3088":"кому","3089":"кош","309":"ря","3090":"коммуника","3091":"креп","3092":"крупные","3093":"лив","3094":"льности","3095":"межзвёзд","3096":"найден","3097":"нея","3098":"нейтра","3099":"операционных","31":">","310":"жи","3100":"отвер","3101":"отличается","3102":"пры","3103":"пь","3104":"паль","3105":"первых","3106":"позднее","3107":"порядка","3108":"приклад","3109":"примени","311":"ком","3110":"прохожд","3111":"продук","3112":"проект","3113":"рабаты","3114":"расстоянии","3115":"сне","3116":"себе","3117":"серверов","3118":"сих","3119":"телеско","312":"сле","3120":"тельного","3121":"форме","3122":"цифро","3123":"ческую","3124":"ченное","3125":"черты","3126":"чное","3127":"ющем","3128":"янва","3129":"2010","313":"как","3130":"40","3131":"ac","3132":"fix-","3133":"ne","3134":"to","3135":"the","3136":"ts-fix-","3137":"бело","3138":"блокчейн","3139":"веке","314":"ного","3140":"включают","3141":"вопрос","3142":"градиент","3143":"дра","3144":"день","3145":"емая","3146":"жает","3147":"жена","3148":"живу","3149":"запрос","315":"мер","3150":"ие","3151":"кали","3152":"коман","3153":"коми","3154":"кость","3155":"кошен","3156":"компании","3157":"логия","3158":"май","3159":"мала","316":"вер","3160":"млекопитающих","3161":"морфо","3162":"мую","3163":"мутации","3164":"начиная","3165":"нель","3166":"нейронных","3167":"обя","3168":"образуют","3169":"общего","317":"пере","3170":"обяза","3171":"отворен","3172":"пан","3173":"память","3174":"первая","3175":"первого","3176":"плотности","3177":"повез","3178":"постеп","3179":"поведения","318":"под","3180":"полож","3181":"предна","3182":"представляют","3183":"привод","3184":"проводи","3185":"работать","3186":"различи","3187":"разнен","3188":"распределён","3189":"сначала","319":"ты","3190":"ссы","3191":"самостоя","3192":"сечен","3193":"солнцу","3194":"сравнению","3195":"стандартной","3196":"такая","3197":"творен","3198":"тым","3199":"хва","32":"?","320":"це","3200":"циал","3201":"чном","3202":"чёрные","3203":"шить","3204":"щена","3205":"щим","3206":"17","3207":"oft","3208":"ros","3209":"}.mw-parser-output","321":"гра","3210":"биологии","3211":"второ","3212":"выбор","3213":"выс","3214":"высокой","3215":"газ","3216":"галактике","3217":"етво","3218":"замет","3219":"запа","322":"сте","3220":"измени","3221":"изменчивость","3222":"имя","3223":"использовал","3224":"истории","3225":"каждая","3226":"коэф","3227":"конца","3228":"коэффици","3229":"куль","323":"ос","3230":"льном","3231":"механизм","3232":"момента","3233":"навли","3234":"напис","3235":"назван","3236":"направления","3237":"нор","3238":"опас","3239":"обладают","324":"ды","3240":"объекта","3241":"одинако","3242":"осво","3243":"основным","3244":"пят","3245":"покры","3246":"потому","3247":"приблизи","3248":"разрабаты","3249":"связанных","325":"зо","3250":"силы","3251":"слабо","3252":"совмести","3253":"ссии","3254":"стовер","3255":"сторон","3256":"ступа","3257":"телем","3258":"туре","3259":"усу","326":"ше","3260":"угле","3261":"чением","3262":"шла","3263":"щается","3264":"2008","3265":"60","3266":"bsd","3267":"for","3268":"system","3269":"{b","327":"так","3270":"автома","3271":"адреса","3272":"аллели","3273":"американ","3274":"бах","3275":"байт","3276":"брауз","3277":"вклю","3278":"вах","3279":"видообразования","328":"ная","3280":"внимание","3281":"вымер","3282":"гибри","3283":"государства","3284":"громленно","3285":"действий","3286":"деревь","3287":"дить","3288":"запер","3289":"звездо","329":"вать","3290":"интен","3291":"индий","3292":"кации","3293":"китай","3294":"классификации","3295":"комбинации","3296":"комета","3297":"комплекс","3298":"крест","3299":"лки","33":"@","330":"которы","3300":"линии","3301":"лицен","3302":"лицензи","3303":"локо","3304":"масс","3305":"множества","3306":"нки","3307":"нё","3308":"нельзя","3309":"ниж","331":"чески","3310":"нужно","3311":"остро","3312":"охо","3313":"обрам","3314":"организа","3315":"осведом","3316":"осуществляется","3317":"отве","3318":"полей","3319":"помимо","332":"рас","3320":"подре","3321":"подобные","3322":"полный","3323":"положение","3324":"присе","3325":"признаков","3326":"применяется","3327":"произвед","3328":"произошли","3329":"расто","333":"ным","3330":"разря","3331":"размером","3332":"расчё","3333":"ряда","3334":"сформули","3335":"счи","3336":"сере","3337":"системой","3338":"скрещи","3339":"следующие","334":"зна","3340":"сор","3341":"совмест","3342":"среднем","3343":"статей","3344":"структуру","3345":"стый","3346":"считы","3347":"тельное","3348":"товую","3349":"увеличивает","335":"гу","3350":"уравнения","3351":"форм","3352":"цели","3353":"чении","3354":"чат","3355":"-времени","3356":".1","3357":"11","3358":"193","3359":"dia","336":"од","3360":"gnu","3361":"hover","3362":"lt","3363":"one","3364":"ассо","3365":"ато","3366":"адапти","3367":"адаптация","3368":"альтер","3369":"альтерна","337":"пу","3370":"бога","3371":"вся","3372":"ведения","3373":"вероятность","3374":"взгля","3375":"вообще","3376":"вшие","3377":"гно","3378":"годы","3379":"гораз","338":"ство","3380":"говори","3381":"гораздо","3382":"гравитации","3383":"дать","3384":"дают","3385":"дера","3386":"деся","3387":"дин","3388":"домен","3389":"другу","339":"ту","3390":"едини","3391":"жается","3392":"закры","3393":"земных","3394":"зирован","3395":"значений","3396":"зом","3397":"ить","3398":"леннее","3399":"лёг","34":"\\","340":"нов","3400":"малень","3401":"мутаций","3402":"ныне","3403":"оон","3404":"оц","3405":"общем","3406":"областях","3407":"обуча","3408":"обыд","3409":"ограничен","341":"мы","3410":"описания","3411":"осуществля","3412":"отдельные","3413":"отсутствие","3414":"оцени","3415":"оценки","3416":"паутины","3417":"первое","3418":"перен","3419":"переме","342":"жен","3420":"плане","3421":"поиска","3422":"полно","3423":"понятия","3424":"последу","3425":"появлению","3426":"причём","3427":"принято","3428":"равен","3429":"рес","343":"зы","3430":"результатом","3431":"скры","3432":"семейство","3433":"символ","3434":"следующий","3435":"случаев","3436":"сона","3437":"социаль","3438":"способности","3439":"ственная","344":"поль","3440":"существенно","3441":"теку","3442":"телю","3443":"тельства","3444":"температуры","3445":"технологий","3446":"точные","3447":"тыс","3448":"тёмной","3449":"услу","345":"ран","3450":"участи","3451":"университета","3452":"учёные","3453":"фактически","3454":"фраг","3455":"центре","3456":"чению","3457":"эволюцию","3458":"эффект","3459":"яй","346":"пи","3460":"языков","3461":"24","3462":"and","3463":"f-","3464":"icros","3465":"icrosoft","3466":"k_{","3467":"microsoft","3468":"wor","3469":"атмосфер","347":"кти","3470":"близи","3471":"большей","3472":"вблизи","3473":"вкра","3474":"вало","3475":"версия","3476":"взвих","3477":"влетво","3478":"вскру","3479":"годня","348":"зу","3480":"дно","3481":"данная","3482":"диф","3483":"добычу","3484":"должно","3485":"ете","3486":"живых","3487":"закру","3488":"залу","3489":"запру","349":"ров","3490":"засне","3491":"затвер","3492":"захла","3493":"зачерка","3494":"здесь","3495":"известен","3496":"иссу","3497":"исчерка","3498":"кате","3499":"категори","35":"^","350":"или","3500":"компиляции","3501":"ленными","3502":"луне","3503":"льда","3504":"минима","3505":"многочис","3506":"мур","3507":"напру","3508":"напря","3509":"натру","351":"бе","3510":"национа","3511":"начерка","3512":"найти","3513":"новоро","3514":"оказыва","3515":"опоро","3516":"облоко","3517":"обозна","3518":"обусло","3519":"объект","352":"дан","3520":"оконча","3521":"описывает","3522":"опорож","3523":"основания","3524":"оту","3525":"пары","3526":"перезаря","3527":"перепру","3528":"перечерка","3529":"периге","353":"вре","3530":"положи","3531":"получила","3532":"популяций","3533":"появления","3534":"приспособленность","3535":"проре","3536":"рю","3537":"раско","3538":"равна","3539":"распространения","354":"тер","3540":"роб","3541":"спис","3542":"самцы","3543":"своё","3544":"сегодня","3545":"середи","3546":"симметри","3547":"солнечного","3548":"соответствует","3549":"способны","355":"сло","3550":"стя","3551":"старте","3552":"статисти","3553":"супер","3554":"сформирова","3555":"таркти","3556":"транскрип","3557":"тяну","3558":"удалён","3559":"удовлетво","356":"нк","3560":"усугуб","3561":"физических","3562":"фотосинтеза","3563":"частично","3564":"ченном","3565":"чик","3566":"чивости","3567":"чув","3568":"ширование","3569":"энтропи","357":"он","3570":"2006","3571":"2017","3572":"con","3573":"font","3574":"font-","3575":"gro","3576":"ub","3577":"ад","3578":"анти","3579":"аргу","358":"ются","3580":"беско","3581":"бесконе","3582":"бира","3583":"библиотеки","3584":"большинстве","3585":"бук","3586":"впослед","3587":"верса","3588":"взрос","3589":"взя","359":"пра","3590":"впоследствии","3591":"встречаются","3592":"вызывает","3593":"гну","3594":"гает","3595":"гали","3596":"головного","3597":"груз","3598":"дека","3599":"десят","36":"_","360":"фор","3600":"доступа","3601":"жены","3602":"запре","3603":"изменений","3604":"интерпре","3605":"кислорода","3606":"км/","3607":"коры","3608":"космо","3609":"компонентов","361":"боль","3610":"конку","3611":"конкурен","3612":"куп","3613":"лаз","3614":"лировать","3615":"лог","3616":"массу","3617":"массой","3618":"межу","3619":"миро","362":"лен","3620":"мон","3621":"нахожд","3622":"называются","3623":"научных","3624":"нево","3625":"необходимости","3626":"нового","3627":"оси","3628":"обмен","3629":"основных","363":"фи","3630":"первоначально","3631":"переменные","3632":"позвоно","3633":"пользу","3634":"постоянно","3635":"потенциал","3636":"появление","3637":"права","3638":"предназна","3639":"промежу","364":"воз","3640":"программно","3641":"продолжи","3642":"происхождение","3643":"процессора","3644":"радиус","3645":"руко","3646":"сро","3647":"самого","3648":"сделать","3649":"следствие","365":"пер","3650":"слонов","3651":"стям","3652":"стары","3653":"ственном","3654":"стую","3655":"тика","3656":"требует","3657":"универса","3658":"условий","3659":"файлов","366":"ющи","3660":"федера","3661":"целью","3662":"частей","3663":"шение","3664":"щиеся","3665":"щихся","3666":"80","3667":"bm","3668":"cal","3669":"da","367":"пред","3670":"op","3671":"pos","3672":"so","3673":"tran","3674":"автор","3675":"архитектуры","3676":"бал","3677":"бар","3678":"багря","3679":"битко","368":"явля","3680":"блока","3681":"боле","3682":"вернут","3683":"влена","3684":"воль","3685":"выдви","3686":"выполнять","3687":"гне","3688":"ган","3689":"гера","369":"все","3690":"гиб","3691":"горя","3692":"дале","3693":"деле","3694":"действу","3695":"делает","3696":"ены","3697":"жер","3698":"жат","3699":"ждений","37":"a","370":"исполь","3700":"жили","3701":"затра","3702":"заголово","3703":"имена","3704":"известные","3705":"инсти","3706":"индивиду","3707":"исчез","3708":"каз","3709":"карти","371":"дру","3710":"квантовые","3711":"ключе","3712":"ковые","3713":"крет","3714":"лением","3715":"метать","3716":"называемые","3717":"направление","3718":"нец","3719":"нейронные","372":"соб","3720":"ноги","3721":"обрет","3722":"обыден","3723":"определяет","3724":"оптимизации","3725":"отс","3726":"плоскости","3727":"поддержка","3728":"подобных","3729":"позволило","373":"ность","3730":"постепенно","3731":"преобразования","3732":"преимущественно","3733":"привле","3734":"пространства-времени","3735":"противополож","3736":"рань","3737":"реаль","3738":"рука","3739":"схо","374":"ней","3740":"самые","3741":"секу","3742":"солнце","3743":"стату","3744":"сыпаться","3745":"тения","3746":"такими","3747":"теорий","3748":"тировать","3749":"уча","375":"ба","3750":"хвост","3751":"чник","3752":"ченному","3753":"ченною","3754":"чета","3755":"шед","3756":"щу","3757":"элементов","3758":"явление","3759":"2009","376":"тельно","3760":":none","3761":"can","3762":"ell","3763":"inter","3764":"media","3765":"um","3766":"xix","3767":"авгу","3768":"астроно","3769":"бов","377":"ня","3770":"вызо","3771":"вымирания","3772":"гравитационного","3773":"груженное","3774":"гуляр","3775":"дами","3776":"дельфи","3777":"достовер","3778":"доступны","3779":"европей","378":"вой","3780":"идеи","3781":"интеллектуаль","3782":"исклю","3783":"коле","3784":"комы","3785":"концепция","3786":"ленным","3787":"магнитного","3788":"медици","3789":"механика","379":"стоя","3790":"миниму","3791":"молекул","3792":"мые","3793":"мым","3794":"нью","3795":"наблюдается","3796":"нены","3797":"новая","3798":"объяснения","3799":"описан","38":"b","380":"ция","3800":"оснований","3801":"основные","3802":"пале","3803":"параметры","3804":"переменных","3805":"площа","3806":"попа","3807":"пора","3808":"полного","3809":"полной","381":"образ","3810":"правил","3811":"представители","3812":"приблизительно","3813":"привело","3814":"принцип","3815":"простей","3816":"процессор","3817":"регистри","3818":"регули","3819":"слы","382":"ными","3820":"сан","3821":"самок","3822":"своим","3823":"сингуляр","3824":"ским","3825":"скоростей","3826":"степени","3827":"теперь","3828":"текст","3829":"типи","383":"бу","3830":"точных","3831":"удоб","3832":"фак","3833":"фик","3834":"финан","3835":"философ","3836":"холо","3837":"хом","3838":"храни","3839":"чную","384":"жа","3840":"чаться","3841":"частица","3842":"щими","3843":"-b","3844":"-бит","3845":"2007","3846":"90","3847":"goo","3848":"google","3849":"ibm","385":"би","3850":"iv","3851":"up","3852":"акси","3853":"абстра","3854":"азии","3855":"альтернатив","3856":"бен","3857":"бл","3858":"бран","3859":"вери","386":"вания","3860":"величины","3861":"видеть","3862":"влияние","3863":"входных","3864":"высокого","3865":"генера","3866":"гипер","3867":"главным","3868":"груженная","3869":"груженную","387":"вет","3870":"груженные","3871":"груженный","3872":"груженным","3873":"груженными","3874":"груженных","3875":"груженного","3876":"груженной","3877":"груженном","3878":"груженному","3879":"груженною","388":"мет","3880":"дной","3881":"дарен","3882":"действия","3883":"деятельность","3884":"дит","3885":"ерар","3886":"ерархи","3887":"жар","3888":"живать","3889":"животное","389":"le","3890":"знаний","3891":"золо","3892":"иерархи","3893":"изм","3894":"исключ","3895":"исключением","3896":"ископа","3897":"использоваться","3898":"кариот","3899":"квантовую","39":"c","390":"сист","3900":"керра","3901":"клиент","3902":"ключом","3903":"кожи","3904":"которыми","3905":"лении","3906":"лиц","3907":"машинного","3908":"науки","3909":"начинают","391":"систем","3910":"небольшой","3911":"нео","3912":"ноя","3913":"новую","3914":"окра","3915":"обозначения","3916":"обрабаты","3917":"обращения","3918":"образова","3919":"образованием","392":"тель","3920":"определение","3921":"ответа","3922":"отвор","3923":"первую","3924":"поме","3925":"поря","3926":"подроб","3927":"поддержива","3928":"полиме","3929":"популяциях","393":"st","3930":"появились","3931":"прежде","3932":"преры","3933":"представителей","3934":"предубежден","3935":"приводить","3936":"произошло","3937":"происхождения","3938":"птиц","3939":"рф","394":"стро","3940":"расту","3941":"работает","3942":"равновесия","3943":"разненно","3944":"рассе","3945":"рели","3946":"ровки","3947":"ску","3948":"сразу","3949":"свойств","395":"вание","3950":"сигналов","3951":"сово","3952":"совы","3953":"соединения","3954":"сохранения","3955":"спектра","3956":"специфи","3957":"список","3958":"станавли","3959":"стадии","396":"также","3960":"страи","3961":"строен","3962":"существования","3963":"тети","3964":"тексто","3965":"теорией","3966":"тории","3967":"толщи","3968":"транзакций","3969":"тура","397":"гру","3970":"уника","3971":"уси","3972":"уравнений","3973":"условия","3974":"фотосинтез","3975":"хаб","3976":"характеристи","3977":"цепо","3978":"чисел","3979":"шрё","398":"врем","3980":"эр","3981":"явлений","3982":"pan","3983":"po","3984":"pha","3985":"posix","3986":"und","3987":"wik","3988":"xvii","3989":"антаркти","399":"чно","3990":"бный","3991":"безопасности","3992":"бой","3993":"вро","3994":"входит","3995":"варц","3996":"варцши","3997":"ведёт","3998":"видообразование","3999":"возникновения","4":"\"","40":"d","400":"20","4000":"волны","4001":"втори","4002":"выделения","4003":"вычислительной","4004":"гомо","4005":"головасти","4006":"диапазоне","4007":"диске","4008":"длины","4009":"ель","401":"la","4010":"еры","4011":"естественных","4012":"ждён","4013":"жей","4014":"зрение","4015":"зача","4016":"зачастую","4017":"земля","4018":"зиру","4019":"изучения","402":"чис","4020":"имость","4021":"институ","4022":"интенсив","4023":"интерфейс","4024":"исполня","4025":"класс","4026":"клетках","4027":"компиляторы","4028":"компьютерного","4029":"конечности","403":"is","4030":"которому","4031":"крайне","4032":"кэш","4033":"ленную","4034":"лета","4035":"лизм","4036":"лун","4037":"льную","4038":"любы","4039":"мак","404":"лее","4040":"массива","4041":"метрии","4042":"механизмы","4043":"моделей","4044":"набо","4045":"насто","4046":"надё","4047":"надёж","4048":"названием","4049":"насекомы","405":"ние","4050":"небе","4051":"непосредственно","4052":"никогда","4053":"областей","4054":"обнаружено","4055":"объединя","4056":"объяснить","4057":"ограничения","4058":"окрас","4059":"онто","406":"ход","4060":"операции","4061":"орбита","4062":"освобо","4063":"основании","4064":"отне","4065":"плю","4066":"перви","4067":"перенос","4068":"показали","4069":"поколения","407":"пол","4070":"понимание","4071":"практике","4072":"превышает","4073":"пределах","4074":"равни","4075":"разделение","4076":"различными","4077":"размножения","4078":"сложные","4079":"служит","408":"чё","4080":"спектр","4081":"страниц","4082":"ступ","4083":"суб","4084":"тая","4085":"фигу","4086":"фикси","4087":"ху","4088":"ченный","4089":"шварцши","409":"ческо","4090":"щаться","4091":"эйнштейна","4092":"энергия","4093":"ющиеся","4094":"ясь","4095":"2011","4096":"2021","4097":"es","4098":"ord","4099":"osi","41":"e","410":"ха","4100":"trans","4101":"амур","4102":"афри","4103":"арте","4104":"базе","4105":"вклад","4106":"вана","4107":"вил","4108":"внед","4109":"водой","411":"сре","4110":"восстанови","4111":"выдвину","4112":"высокий","4113":"говой","4114":"головастики","4115":"диску","4116":"дрен","4117":"действие","4118":"дета","4119":"домини","412":"сь","4120":"дрейф","4121":"ента","4122":"енность","4123":"жим","4124":"завер","4125":"заро","4126":"запросы","4127":"землю","4128":"ил","4129":"импера","413":"ша","4130":"император","4131":"клон","4132":"ключей","4133":"колла","4134":"коллап","4135":"компьютеры","4136":"концентра","4137":"конечностей","4138":"кэша","4139":"лка","414":"ван","4140":"литературе","4141":"мана","4142":"марке","4143":"нков","4144":"наследо","4145":"наблюдать","4146":"невер","4147":"неопределён","4148":"непреры","4149":"офи","415":"ную","4150":"оче","4151":"обору","4152":"оборудо","4153":"образований","4154":"онах","4155":"очевид","4156":"персона","4157":"пищи","4158":"показыва","4159":"поддержки","416":"том","4160":"получает","4161":"последовательно","4162":"постоянная","4163":"построения","4164":"потенциаль","4165":"принципа","4166":"прямо","4167":"расти","4168":"раньше","4169":"расположены","417":"ства","4170":"рекур","4171":"реализу","4172":"ровании","4173":"рованный","4174":"сной","4175":"сама","4176":"связанные","4177":"сил","4178":"сила","4179":"системами","418":"может","4180":"сотруд","4181":"сочета","4182":"соба","4183":"совокуп","4184":"создан","4185":"состояний","4186":"ственными","4187":"ствием","4188":"сфере","4189":"твёр","419":"ке","4190":"тных","4191":"таком","4192":"тельную","4193":"температура","4194":"термодинамика","4195":"уби","4196":"устройства","4197":"ходы","4198":"хозя","4199":"хромосо","42":"f","420":"ков","4200":"человеком","4201":"чности","4202":"шрёдин","4203":"щийся","4204":"эу","4205":"экологи","4206":"энергию","4207":"-1","4208":"/2","4209":"1,","421":"чен","4210":"1990-х","4211":"am","4212":"canis","4213":"cont","4214":"fc","4215":"htm","4216":"html","4217":"m:","4218":"phi","4219":"rfc","422":"более","4220":"ts-переход-","4221":"́ль","4222":"апре","4223":"бры","4224":"бо́ль","4225":"будь","4226":"бур","4227":"вный","4228":"вшая","4229":"важную","423":"лек","4230":"весьма","4231":"внешних","4232":"внутренней","4233":"возвра","4234":"всю","4235":"выбра","4236":"вытяну","4237":"вызван","4238":"вымирание","4239":"высоко","424":"вл","4240":"вычислительных","4241":"гнут","4242":"генома","4243":"джа","4244":"дарвин","4245":"доля","4246":"ена","4247":"жерт","4248":"заголовок","4249":"имен","425":"кон","4250":"иной","4251":"изображение","4252":"имеется","4253":"интерес","4254":"интернете","4255":"исключи","4256":"использовании","4257":"исследователи","4258":"клиента","4259":"км/с","426":"ния","4260":"кожа","4261":"контроля","4262":"лай","4263":"ленности","4264":"лии","4265":"лять","4266":"масштабах","4267":"машине","4268":"мем","4269":"металли","427":"ству","4270":"механике","4271":"мяг","4272":"нг","4273":"нс","4274":"набора","4275":"наблюдателя","4276":"небольших","4277":"оз","4278":"окрест","4279":"оба","428":"тся","4280":"образует","4281":"операций","4282":"определённых","4283":"особы","4284":"остальные","4285":"полю","4286":"поиск","4287":"полез","4288":"положения","4289":"потреби","429":"преде","4290":"предмет","4291":"предложил","4292":"представление","4293":"приобре","4294":"прия","4295":"прода","4296":"прыж","4297":"рабочи","4298":"разделить","4299":"размеров","43":"g","430":"ности","4300":"разработка","4301":"результатов","4302":"религи","4303":"рица","4304":"рять","4305":"сбор","4306":"сжа","4307":"самое","4308":"связей","4309":"связано","431":"ал","4310":"ское","4311":"слабы","4312":"следующем","4313":"сложных","4314":"смотрен","4315":"содержится","4316":"создавать","4317":"сообщений","4318":"средней","4319":"стер","432":"дер","4320":"становятся","4321":"ственное","4322":"столкновения","4323":"сторону","4324":"страте","4325":"стратеги","4326":"типом","4327":"тоже","4328":"указывает","4329":"учиты","433":"yst","4330":"философи","4331":"цар","4332":"центр","4333":"чки","4334":"член","4335":"человеческого","4336":"черт","4337":"шварцшильда","4338":"шифрова","4339":"щенный","434":"пример","4340":"энциклопедии","4341":"этапе","4342":"япо","4343":"ённых","4344":"0,","4345":"2019","4346":"2015","4347":":hover","4348":"arpan","4349":"arpanet","435":"спе","4350":"bi","4351":"char","4352":"err","4353":"ris","4354":"se","4355":"tel","4356":"unix-","4357":"vec","4358":"активность","4359":"ариф","436":"ться","4360":"арифмети","4361":"атмосферы","4362":"бая","4363":"бече","4364":"бечев","4365":"блоки","4366":"бул","4367":"бултых","4368":"вной","4369":"вален","437":"ений","4370":"варь","4371":"варьи","4372":"видео","4373":"влияния","4374":"вому","4375":"волновой","4376":"вращается","4377":"вред","4378":"вторая","4379":"выделяют","438":"зи","4380":"выполняется","4381":"гры","4382":"гря","4383":"генетической","4384":"гипотеза","4385":"дня","4386":"давать","4387":"дело","4388":"действуют","4389":"делать","439":"ходи","4390":"держа","4391":"десяти","4392":"джо","4393":"дифферен","4394":"длин","4395":"доказательство","4396":"ешь","4397":"жёст","4398":"зра","4399":"знаменщи","44":"h","440":"ром","4400":"зубы","4401":"икри","4402":"идёт","4403":"инф","4404":"интерпрета","4405":"исследование","4406":"исследователь","4407":"кл","4408":"какого","4409":"километров","441":"ген","4410":"класса","4411":"классификация","4412":"книге","4413":"комбайне","4414":"комбайнер","4415":"компилятор","4416":"констан","4417":"констру","4418":"кратеров","4419":"криптографических","442":"стви","4420":"лок","4421":"малых","4422":"макроскопи","4423":"мера","4424":"месте","4425":"меркури","4426":"нский","4427":"находиться","4428":"начинается","4429":"небес","443":"ственно","4430":"ору","4431":"обос","4432":"общая","4433":"обоих","4434":"обосну","4435":"операционные","4436":"основы","4437":"основу","4438":"отверсти","4439":"отдел","444":"спо","4440":"отсутствует","4441":"патри","4442":"планета","4443":"плес","4444":"плеснут","4445":"подсистемы","4446":"порядок","4447":"появился","4448":"предполагает","4449":"природ","445":"pla","4450":"примерами","4451":"притупленно","4452":"провод","4453":"прогно","4454":"происходят","4455":"противоречи","4456":"процессоров","4457":"птенцов","4458":"рные","4459":"рный","446":"ей","4460":"радиусом","4461":"раздвоен","4462":"размножа","4463":"разработчи","4464":"располага","4465":"распространение","4466":"рассматривать","4467":"режиме","4468":"сверхмассив","4469":"середине","447":"слу","4470":"сигнал","4471":"слия","4472":"совых","4473":"сон","4474":"сосен","4475":"содержимое","4476":"соединя","4477":"составе","4478":"состоянию","4479":"среда","448":"фу","4480":"средой","4481":"статье","4482":"странах","4483":"сфери","4484":"считал","4485":"такую","4486":"телом","4487":"термодинамических","4488":"тику","4489":"типу","449":"dis","4490":"торов","4491":"точке","4492":"точностью","4493":"точный","4494":"транзи","4495":"требования","4496":"увер","4497":"учётом","4498":"факт","4499":"хеширование","45":"i","450":"года","4500":"хищников","4501":"хоки","4502":"чность","4503":"чают","4504":"черк","4505":"черкавшем","4506":"шком","4507":"шё","4508":"щать","4509":"электромагнитное","451":"displa","4510":"юр","4511":"января","4512":"-s","4513":"-ни","4514":"-нибудь","4515":"2000","4516":"64","4517":"70","4518":"99","4519":"_t","452":"таки","4520":"alpha","4521":"commented","4522":"content","4523":"delt","4524":"delta","4525":"e:","4526":"os/2","4527":"ser","4528":"siz","4529":"активно","453":"которые","4530":"активности","4531":"алге","4532":"бель","4533":"берт","4534":"боже","4535":"буква","4536":"быстре","4537":"быстрее","4538":"вала","4539":"вариантов","454":"yle","4540":"вдоль","4541":"векто","4542":"видетель","4543":"википедию","4544":"влять","4545":"волн","4546":"волок","4547":"воробьи","4548":"восхи","4549":"временем","455":"ью","4550":"вывода","4551":"выя","4552":"гаран","4553":"глуби","4554":"горизонт","4555":"дав","4556":"дальнейшем","4557":"движ","4558":"демон","4559":"действием","456":"displayst","4560":"добро","4561":"добычи","4562":"древней","4563":"дыру","4564":"емое","4565":"зис","4566":"заня","4567":"зая","4568":"запись","4569":"запроса","457":"displaystyle","4570":"значительное","4571":"ия","4572":"известной","4573":"известный","4574":"изучение","4575":"импульса","4576":"инфра","4577":"индии","4578":"испар","4579":"йти","458":"после","4580":"килопарсеков","4581":"книги","4582":"ког","4583":"компания","4584":"компонов","4585":"компьютерных","4586":"конкретной","4587":"коэффициен","4588":"кратно","4589":"лев","459":"ён","4590":"лой","4591":"лым","4592":"ляются","4593":"магнет","4594":"математических","4595":"мембра","4596":"ментом","4597":"меньшей","4598":"меркурии","4599":"местах","46":"j","460":"тов","4600":"мин","4601":"миллиардов","4602":"могли","4603":"молодых","4604":"наоборот","4605":"некоторого","4606":"нередко","4607":"обеспечивает","4608":"облачных","4609":"общее","461":"19","4610":"оказывается","4611":"основой","4612":"основная","4613":"откло","4614":"отличаются","4615":"отношения","4616":"отобра","4617":"первом","4618":"пить","4619":"плохо","462":"их","4620":"посы","4621":"поглощения","4622":"полуша","4623":"получили","4624":"порядке","4625":"потреб","4626":"похожи","4627":"предка","4628":"предполагается","4629":"прилив","463":"суще","4630":"проте","4631":"проходит","4632":"протокола","4633":"протоколы","4634":"разным","4635":"развитии","4636":"раздел","4637":"распределение","4638":"рассматривается","4639":"расширения","464":"является","4640":"репли","4641":"рецеп","4642":"ресурса","4643":"родов","4644":"свидетель","4645":"сможет","4646":"ср","4647":"самец","4648":"саха","4649":"самом","465":"клю","4650":"связана","4651":"серва","4652":"серд","4653":"сина","4654":"скорее","4655":"слоя","4656":"содержать","4657":"спирали","4658":"способа","4659":"сравнительно","466":"ан","4660":"стек","4661":"стить","4662":"тести","4663":"тельным","4664":"транскрипции","4665":"умер","4666":"установи","4667":"утили","4668":"участки","4669":"участников","467":"объ","4670":"фотографи","4671":"худо","4672":"хвоста","4673":"ходящих","4674":"цах","4675":"цепочки","4676":"чему","4677":"четвёр","4678":"шка","4679":"шки","468":"нен","4680":"шаро","4681":"эпо","4682":"электрона","4683":"южной","4684":"являть","4685":"ёв","4686":"2013","4687":"2014","4688":"2016","4689":"2018","469":"пла","4690":"gen","4691":"get","4692":"intel","4693":"ip-","4694":"mathcal","4695":"order-","4696":"sc","4697":"ud","4698":"yp","4699":"алфа","47":"k","470":"дей","4700":"андро","4701":"андроме","4702":"андромеды","4703":"байт-","4704":"бей","4705":"белков","4706":"близких","4707":"большом","4708":"буд","4709":"впол","471":"сет","4710":"вследствие","4711":"вай","4712":"вектор","4713":"влено","4714":"возни","4715":"возраст","4716":"возможным","4717":"возникает","4718":"возникают","4719":"возрасте","472":"лько","4720":"возрастом","4721":"вполне","4722":"встречается","4723":"входные","4724":"выну","4725":"выхода","4726":"галь","4727":"генери","4728":"гипотезы","4729":"голу","473":"году","4730":"гото","4731":"горизонтом","4732":"групп","4733":"гряз","4734":"дка","4735":"дне","4736":"действует","4737":"детё","4738":"детёны","4739":"документа","474":"мно","4740":"допуска","4741":"дроб","4742":"емте","4743":"животным","4744":"зви","4745":"зма","4746":"зре","4747":"замети","4748":"запуска","4749":"ини","475":"нет","4750":"исти","4751":"излучение","4752":"инициа","4753":"информационных","4754":"исходя","4755":"источником","4756":"исходного","4757":"июня","4758":"ката","4759":"квантового","476":"пис","4760":"квантовых","4761":"кодом","4762":"колли","4763":"коллизи","4764":"консор","4765":"конф","4766":"консорци","4767":"конфли","4768":"координат","4769":"крите","477":"функ","4770":"криптографии","4771":"кэши","4772":"лучше","4773":"лыми","4774":"лье","4775":"мнению","4776":"маненная","4777":"маненную","4778":"маненные","4779":"маненный","478":"ца","4780":"маненным","4781":"маненными","4782":"маненных","4783":"маненного","4784":"маненное","4785":"маненной","4786":"маненном","4787":"маненному","4788":"маненною","4789":"месяцев","479":"логи","4790":"методом","4791":"микроскопи","4792":"миллиарда","4793":"моря","4794":"наконец","4795":"написан","4796":"некоторое","4797":"неволе","4798":"никами","4799":"номер","48":"l","480":"бли","4800":"обеспечение","4801":"обратного","4802":"объясняется","4803":"ограничи","4804":"однозна","4805":"однород","4806":"октября","4807":"оператив","4808":"оператор","4809":"опубликовал","481":"чер","4810":"основанные","4811":"остаётся","4812":"отклады","4813":"открытым","4814":"парсеков","4815":"перечис","4816":"погром","4817":"потеря","4818":"потенциа","4819":"появилась","482":"кру","4820":"превра","4821":"предоставляет","4822":"проблему","4823":"программу","4824":"пусты","4825":"разгром","4826":"разделения","4827":"различия","4828":"разработке","4829":"разработан","483":"образо","4830":"растворен","4831":"рекомбинации","4832":"редакти","4833":"ресурсы","4834":"рису","4835":"российской","4836":"рядом","4837":"сх","4838":"сах","4839":"сделал","484":"грам","4840":"сентября","4841":"силь","4842":"скоплений","4843":"слишком","4844":"сложно","4845":"сопро","4846":"согласо","4847":"содержат","4848":"создать","4849":"соответствующих","485":"можно","4850":"способен","4851":"ственную","4852":"страницы","4853":"суток","4854":"считают","4855":"теря","4856":"тес","4857":"тенден","4858":"тим","4859":"торы","486":"женно","4860":"трудно","4861":"убе","4862":"уго","4863":"улуч","4864":"ут","4865":"удалось","4866":"упомина","4867":"утверждает","4868":"фос","4869":"физической","487":"гала","4870":"характеристики","4871":"хлест","4872":"целях","4873":"ционный","4874":"чар","4875":"чайно","4876":"ченная","4877":"чёта","4878":"чёрную","4879":"шими","488":"in","4880":"шёл","4881":"щены","4882":"электродинами","4883":"ядер","4884":"языком","4885":"14","4886":"1960-х","4887":"1969","4888":"86","4889":":no","489":"ден","4890":"@media","4891":"cor","4892":"her","4893":"if","4894":"ld","4895":"loc","4896":"of","4897":"ple","4898":"pro","4899":"uri","49":"m","490":"сси","4900":"we","4901":"work","4902":"}@media","4903":"ального","4904":"автоном","4905":"агент","4906":"адрес","4907":"аккре","4908":"аналогично","4909":"аристо","491":"низ","4910":"ассоциа","4911":"астероид","4912":"базо","4913":"бан","4914":"ближе","4915":"близо","4916":"боро","4917":"большими","4918":"боты","4919":"быстры","492":"дов","4920":"ваемых","4921":"велико","4922":"веществ","4923":"виру","4924":"водорода","4925":"возбу","4926":"возможностей","4927":"восприя","4928":"всем","4929":"второе","493":"проце","4930":"выходные","4931":"гают","4932":"геометри","4933":"гировать","4934":"говорят","4935":"годно","4936":"грун","4937":"группе","4938":"группой","4939":"дри","494":"цен","4940":"давление","4941":"демонстри","4942":"джон","4943":"диаметр","4944":"еже","4945":"емость","4946":"енью","4947":"жению","4948":"желу","4949":"живание","495":"зыва","4950":"жизнь","4951":"зака","4952":"заме","4953":"заранее","4954":"зарегистри","4955":"завися","4956":"зависят","4957":"звезда","4958":"знания","4959":"знать","496":"програм","4960":"зоо","4961":"идея","4962":"ина","4963":"играет","4964":"изоли","4965":"имён","4966":"имеющих","4967":"инду","4968":"исполни","4969":"исключительно","497":"галакти","4970":"источник","4971":"какой-либо","4972":"карли","4973":"кито","4974":"кислород","4975":"комен","4976":"кора","4977":"компилятора","4978":"компьютере","4979":"компьютерной","498":"лы","4980":"конферен","4981":"координаты","4982":"коррект","4983":"крови","4984":"культу","4985":"курс","4986":"люди","4987":"любое","4988":"моби","4989":"максиму","499":"его","4990":"материала","4991":"машинный","4992":"месс","4993":"медленно","4994":"мессен","4995":"мол","4996":"мому","4997":"молекула","4998":"музы","4999":"мышц","5":"#","50":"n","500":"например","5000":"напомина","5001":"напрямую","5002":"наряду","5003":"неизмен","5004":"некоторым","5005":"неправи","5006":"нейроны","5007":"нуле","5008":"оны","5009":"обмена","501":"сы","5010":"обсерва","5011":"общий","5012":"общих","5013":"обладает","5014":"объёма","5015":"одному","5016":"определённым","5017":"органов","5018":"остатки","5019":"остаются","502":"кла","5020":"отправи","5021":"отряда","5022":"оценкам","5023":"падения","5024":"палеонто","5025":"пей","5026":"передвига","5027":"передаче","5028":"периоди","5029":"платформа","503":"могу","5030":"подо","5031":"подобно","5032":"понимания","5033":"последний","5034":"предме","5035":"принадлежит","5036":"простой","5037":"прочи","5038":"простых","5039":"прохождения","504":"процес","5040":"пять","5041":"рна","5042":"рассу","5043":"распознавание","5044":"рассея","5045":"рекомен","5046":"реализова","5047":"рованию","5048":"рост","5049":"ровал","505":"полу","5050":"рье","5051":"с-","5052":"св","5053":"сви","5054":"самый","5055":"сег","5056":"слов","5057":"слон","5058":"сложности","5059":"сложность","506":"други","5060":"соби","5061":"совпадает","5062":"соверша","5063":"современный","5064":"способствует","5065":"спуска","5066":"средствами","5067":"ссср","5068":"стандартов","5069":"ственности","507":"опреде","5070":"стоха","5071":"стохасти","5072":"суше","5073":"существующих","5074":"тила","5075":"тивный","5076":"тивных","5077":"тое","5078":"увидеть","5079":"угро","508":"могут","5080":"узлов","5081":"униженно","5082":"упоен","5083":"устройств","5084":"участков","5085":"файл","5086":"файло","5087":"февра","5088":"федерации","5089":"фир","509":"рав","5090":"физике","5091":"формирование","5092":"характеризу","5093":"хвосты","5094":"хов","5095":"ходов","5096":"цена","5097":"частота","5098":"честь","5099":"шифровать","51":"o","510":"фа","5100":"шрёдингера","5101":"эм","5102":"эпи","5103":"эйл","5104":"элементарных","5105":"этапа","5106":"эффективно","5107":"ющейся","5108":"ющийся","5109":"яйца","511":"сво","5110":"-c","5111":"0.1","5112":"194","5113":"1990","5114":"2012","5115":"500","5116":"ack","5117":"ackgro","5118":"ackground","5119":"ct","512":"меж","5120":"col","5121":"ge","5122":"ium","5123":"internet","5124":"open","5125":"ts-fix-text","5126":"var","5127":"xviii","5128":"асимметри","5129":"аспек","513":"чения","5130":"автоматически","5131":"аксио","5132":"альный","5133":"альных","5134":"аналити","5135":"аппарата","5136":"брю","5137":"большее","5138":"вклинен","5139":"впло","514":"поло","5140":"впряден","5141":"вательно","5142":"важно","5143":"вее","5144":"ведут","5145":"величин","5146":"верну","5147":"ветра","5148":"вздвоен","5149":"взаимодействий","515":"цион","5150":"взвихрен","5151":"вила","5152":"вили","5153":"вин","5154":"вкраплен","5155":"водород","5156":"возникновение","5157":"воспринима","5158":"восхищен","5159":"вплоть","516":"вя","5160":"вселенная","5161":"входят","5162":"выне","5163":"выси","5164":"вычислить","5165":"гами","5166":"географи","5167":"глад","5168":"глаз","5169":"гомологи","517":"име","5170":"дэ","5171":"дя","5172":"далё","5173":"далеко","5174":"дальше","5175":"двойной","5176":"детали","5177":"детер","5178":"длину","5179":"допряден","518":"рен","5180":"домашних","5181":"дополнительные","5182":"другое","5183":"дут","5184":"жный","5185":"женнее","5186":"женней","5187":"заклинен","5188":"зарешечен","5189":"засечен","519":"обла","5190":"затворен","5191":"заточен","5192":"задразнен","5193":"занимает","5194":"захламо","5195":"земно","5196":"земновод","5197":"изрешечен","5198":"изменении","5199":"изменениям","52":"p","520":"лет","5200":"имеются","5201":"инде","5202":"испряден","5203":"искошен","5204":"используемых","5205":"иссушен","5206":"каких","5207":"классическая","5208":"колле","5209":"команд","521":"орга","5210":"конец","5211":"корми","5212":"кровь","5213":"крыль","5214":"лени","5215":"ленней","5216":"луну","5217":"ляция","5218":"мать","5219":"магнитное","522":"гда","5220":"мелких","5221":"механизма","5222":"морфологи","5223":"нением","5224":"нении","5225":"наволочен","5226":"намного","5227":"напряден","5228":"наблюдение","5229":"наблюдений","523":"ек","5230":"напоен","5231":"настороженно","5232":"начинен","5233":"недостаточно","5234":"немец","5235":"немного","5236":"нера","5237":"нейронной","5238":"нена","5239":"никаких","524":"форма","5240":"новое","5241":"новым","5242":"носит","5243":"норма","5244":"опыт","5245":"общие","5246":"обнаружил","5247":"обнаружить","5248":"обобь","5249":"обработка","525":"каза","5250":"образуется","5251":"образуются","5252":"обязательно","5253":"одино","5254":"опорожнен","5255":"отправ","5256":"отпряден","5257":"отрас","5258":"отношение","5259":"отношению","526":"бот","5260":"отуплен","5261":"плы","5262":"пать","5263":"падают","5264":"переклинен","5265":"перекошен","5266":"перепряден","5267":"передразнен","5268":"питаются","5269":"попере","527":"обра","5270":"подволочен","5271":"подклинен","5272":"подавля","5273":"подарен","5274":"поддержа","5275":"позвоночных","5276":"показал","5277":"покошен","5278":"полнен","5279":"получил","528":"тра","5280":"пользователи","5281":"последних","5282":"потомство","5283":"преуменьшен","5284":"представлены","5285":"приобрет","5286":"приотворен","5287":"припряден","5288":"приструнен","5289":"притворен","529":"тео","5290":"притя","5291":"приуменьшен","5292":"применяются","5293":"примеры","5294":"присутствует","5295":"притуплен","5296":"пропор","5297":"пропряден","5298":"прогнози","5299":"продолжительность","53":"q","530":"ставля","5300":"пряденного","5301":"пряденное","5302":"пряденной","5303":"пряденном","5304":"пряденному","5305":"пряденною","5306":"птицы","5307":"рной","5308":"развива","5309":"разновид","531":"три","5310":"разнообразие","5311":"расклинен","5312":"раскошен","5313":"релье","5314":"реак","5315":"реального","5316":"реализован","5317":"робо","5318":"ровка","5319":"родителей","532":"способ","5320":"сдвоен","5321":"сайт","5322":"свойство","5323":"связаны","5324":"семан","5325":"сетевых","5326":"силу","5327":"следовательно","5328":"следующим","5329":"служат","533":"использу","5330":"случаи","5331":"совой","5332":"сосредо","5333":"сострунен","5334":"сот","5335":"сохрани","5336":"собственные","5337":"собственных","5338":"совсем","5339":"совершен","534":"гори","5340":"современная","5341":"содержимого","5342":"спустя","5343":"став","5344":"створен","5345":"стегнут","5346":"стиму","5347":"столет","5348":"строения","5349":"строк","535":"отно","5350":"субъ","5351":"сфера","5352":"тельная","5353":"телями","5354":"техники","5355":"технология","5356":"тором","5357":"тонкий","5358":"точное","5359":"тую","536":"ном","5360":"тыми","5361":"умно","5362":"упро","5363":"уя","5364":"угловой","5365":"устойчивости","5366":"учёными","5367":"уязви","5368":"фин","5369":"факторов","537":"ное","5370":"физио","5371":"формирования","5372":"функцией","5373":"хеш-функция","5374":"химических","5375":"хлоропла","5376":"хлорофил","5377":"хлорофилла","5378":"хозяй","5379":"цо","538":"ствен","5380":"целей","5381":"циони","5382":"чью","5383":"челюсти","5384":"четырёх","5385":"чий","5386":"чинен","5387":"численность","5388":"шею","5389":"эв","539":"поз","5390":"эволюционных","5391":"эффекты","5392":"ядови","5393":"ячей","5394":"-commented","5395":"-de","5396":"-commentedtext","5397":"-decor","5398":"-decoration","5399":".е","54":"r","540":"ща","5400":"2020","5401":"2022","5402":":0","5403":"alg","5404":"algor","5405":"ding","5406":"font-siz","5407":"font-size:","5408":"gp","5409":"mal","541":"сли","5410":"mathr","5411":"mathrm","5412":"pc","5413":"ss","5414":"win32","5415":"ака","5416":"ара","5417":"аре","5418":"автоматов","5419":"альные","542":"вых","5420":"английский","5421":"атф","5422":"били","5423":"банк","5424":"белки","5425":"бив","5426":"борь","5427":"браузер","5428":"будущем","5429":"вающих","543":"обы","5430":"вернуть","5431":"версий","5432":"виртуальной","5433":"влияет","5434":"внутренних","5435":"во-","5436":"водоё","5437":"воздуш","5438":"возможных","5439":"восстанавли","544":"прост","5440":"восточной","5441":"всемирная","5442":"вшийся","5443":"выбран","5444":"выступа","5445":"гети","5446":"галиле","5447":"гаранти","5448":"генетический","5449":"генетического","545":"системы","5450":"глубокого","5451":"глубокое","5452":"градиентного","5453":"давно","5454":"движении","5455":"действительно","5456":"деревьев","5457":"деть","5458":"дивер","5459":"длиной","546":"гла","5460":"достигать","5461":"другого","5462":"жность","5463":"жительно","5464":"живого","5465":"зло","5466":"зам","5467":"задачу","5468":"законы","5469":"записы","547":"кой","5470":"защиты","5471":"звёздные","5472":"звёздных","5473":"значит","5474":"зовать","5475":"избежать","5476":"инфрак","5477":"инфракрас","5478":"иска","5479":"кну","548":"тро","5480":"кажется","5481":"каждое","5482":"качества","5483":"квадра","5484":"китообраз","5485":"кового","5486":"костей","5487":"коллапса","5488":"космических","5489":"крупней","549":"личи","5490":"кэше","5491":"лля","5492":"ланд","5493":"лежит","5494":"линь","5495":"листь","5496":"лон","5497":"лунных","5498":"льд","5499":"любого","55":"s","550":"свя","5500":"лярно","5501":"мм","5502":"массе","5503":"медиа","5504":"меняется","5505":"мессенджер","5506":"месяца","5507":"методами","5508":"мудрен","5509":"муль","551":"аль","5510":"мыми","5511":"насчиты","5512":"население","5513":"некоторой","5514":"несколькими","5515":"нил","5516":"ничего","5517":"низкой","5518":"ново","5519":"носи","552":"ении","5520":"новорожден","5521":"нуклеотидов","5522":"окси","5523":"обслу","5524":"обеспечить","5525":"обозначение","5526":"обратной","5527":"обыденно","5528":"операционная","5529":"описывается","553":"соз","5530":"открытый","5531":"отсутствуют","5532":"пных","5533":"паутина","5534":"перео","5535":"перигелия","5536":"периода","5537":"пище","5538":"пищу","5539":"плюс","554":"стру","5540":"повыша","5541":"поки","5542":"потребо","5543":"подписи","5544":"получают","5545":"популяциями","5546":"потенциально","5547":"преобразований","5548":"предприня","5549":"предска","555":"эти","5550":"предположение","5551":"предположительно","5552":"приведён","5553":"примере","5554":"принятия","5555":"причиной","5556":"проведён","5557":"прозра","5558":"продуктив","5559":"простые","556":"использо","5560":"протека","5561":"процеду","5562":"психи","5563":"психо","5564":"радиуса","5565":"развитием","5566":"разум","5567":"расположенные","5568":"распространя","5569":"распространённым","557":"которо","5570":"расшир","5571":"реже","5572":"реф","5573":"реакции","5574":"рекурсив","5575":"религиоз","5576":"рефлек","5577":"рибо","5578":"родитель","5579":"ряде","558":"нача","5580":"ске","5581":"сл","5582":"схе","5583":"съ","5584":"секрет","5585":"сель","5586":"синтети","5587":"синхро","5588":"синтеза","5589":"скими","559":"случа","5590":"слои","5591":"снова","5592":"сочи","5593":"собаки","5594":"совместимость","5595":"совокупность","5596":"содержание","5597":"создана","5598":"соответствуют","5599":"соотношения","56":"t","560":"вё","5600":"спаривание","5601":"способы","5602":"среду","5603":"средне","5604":"среднее","5605":"ссия","5606":"стаи","5607":"статус","5608":"статья","5609":"стека","561":"рия","5610":"столкновение","5611":"тный","5612":"таксонов","5613":"телескоп","5614":"термодинамического","5615":"территори","5616":"титься","5617":"тун","5618":"уме","5619":"углекисло","562":"вые","5620":"управление","5621":"уровнях","5622":"установлено","5623":"файле","5624":"франц","5625":"хеш-функции","5626":"цепей","5627":"цито","5628":"ционных","5629":"цифровой","563":"вол","5630":"чена","5631":"чить","5632":"широкое","5633":"щает","5634":"ый","5635":"ым","5636":"эволюционной","5637":"экспо","5638":"элементы","5639":"электрон","564":"вто","5640":"энергети","5641":"явно","5642":"языках","5643":".h","5644":"/или","5645":"1973","5646":"22","5647":"28","5648":"2003","5649":"2005","565":"рии","5650":"2023","5651":"2025","5652":":none}.mw-parser-output","5653":"bell","5654":"bot","5655":"botto","5656":"bottom:","5657":"ee","5658":"errno","5659":"hi","566":"пло","5660":"icon","5661":"iet","5662":"ig","5663":"labs","5664":"lan","5665":"left","5666":"order-bottom:","5667":"rt","5668":"ru","5669":"sa","567":"им","5670":"sq","5671":"ts-переход-icon","5672":"{border-bottom:","5673":"адели","5674":"ано","5675":"ареа","5676":"асс","5677":"австра","5678":"админи","5679":"ализм","568":"время","5680":"аллель","5681":"ареала","5682":"ассем","5683":"базы","5684":"багрен","5685":"багрянен","5686":"бактерии","5687":"биткои","5688":"боли","5689":"брыз","569":"ленно","5690":"ввода","5691":"валось","5692":"важней","5693":"важным","5694":"вариант","5695":"вере","5696":"видом","5697":"визу","5698":"вина","5699":"воздуха","57":"u","570":"между","5700":"возможен","5701":"возможные","5702":"возникла","5703":"второго","5704":"выбора","5705":"вывать","5706":"выделить","5707":"вычайно","5708":"выглядит","5709":"вызвать","571":"систе","5710":"выполняет","5711":"выражение","5712":"гар","5713":"галактиках","5714":"галактикой","5715":"генами","5716":"генетики","5717":"гина","5718":"глобальные","5719":"глуб","572":"тре","5720":"готения","5721":"головастиков","5722":"горта","5723":"греч","5724":"дёт","5725":"дали","5726":"дат","5727":"дата","5728":"деля","5729":"декабре","573":"дет","5730":"дистрибути","5731":"допусти","5732":"достижения","5733":"другая","5734":"жаться","5735":"живания","5736":"животного","5737":"журна","5738":"зная","5739":"загла","574":"пера","5740":"запад","5741":"заряд","5742":"засе","5743":"зачеркав","5744":"зависимость","5745":"зароды","5746":"захламощен","5747":"звездообразования","5748":"звуки","5749":"знам","575":"сту","5750":"зонд","5751":"и/или","5752":"играют","5753":"идентификации","5754":"издают","5755":"изолирован","5756":"исчеркав","5757":"исполнения","5758":"июле","5759":"какие","576":"лей","5760":"каждые","5761":"качество","5762":"ключить","5763":"ковый","5764":"количеством","5765":"коллектив","5766":"комбинация","5767":"компьютерное","5768":"ктива","5769":"кэш-","577":"комп","5770":"лар","5771":"лати","5772":"лая","5773":"лейсто","5774":"леней","5775":"ленного","5776":"ленное","5777":"ляют","5778":"мани","5779":"магнитных","578":"мас","5780":"математической","5781":"медицине","5782":"метили","5783":"метр","5784":"минут","5785":"миром","5786":"миллиона","5787":"миними","5788":"минимум","5789":"мог","579":"жд","5790":"модифика","5791":"молодые","5792":"мысли","5793":"наволо","5794":"нагре","5795":"наса","5796":"насы","5797":"начеркав","5798":"наблюдаемой","5799":"надф","58":"v","580":"сред","5800":"называемый","5801":"наилуч","5802":"наличии","5803":"наличия","5804":"населения","5805":"небольшие","5806":"неподвиж","5807":"неров","5808":"ненной","5809":"нулю","581":"черка","5810":"нупеди","5811":"одо","5812":"оки","5813":"охотя","5814":"обнаружены","5815":"объединения","5816":"объектами","5817":"окраска","5818":"определи","5819":"определённого","582":"лов","5820":"определённой","5821":"оригина","5822":"ось","5823":"основана","5824":"отме","5825":"отсле","5826":"открытие","5827":"открытых","5828":"охотятся","5829":"пен","583":"er","5830":"плейсто","5831":"псе","5832":"парт","5833":"партнё","5834":"перепо","5835":"переста","5836":"перечеркав","5837":"передаётся","5838":"переноса","5839":"пингвин","584":"чение","5840":"планка","5841":"планков","5842":"планете","5843":"платформы","5844":"площадь","5845":"погру","5846":"поса","5847":"подхода","5848":"полосы","5849":"попытки","585":"нако","5850":"преми","5851":"препят","5852":"предот","5853":"предположил","5854":"представлениям","5855":"представляется","5856":"присоединя","5857":"приводя","5858":"приводят","5859":"примеров","586":"ответ","5860":"примеру","5861":"принимает","5862":"причин","5863":"просмо","5864":"прошло","5865":"программное","5866":"продолжает","5867":"произой","5868":"происходя","5869":"пропорциона","587":"дар","5870":"процессах","5871":"псевдо","5872":"пыты","5873":"пяти","5874":"работают","5875":"раздво","5876":"раздроб","5877":"различие","5878":"разры","5879":"различаются","588":"пы","5880":"различным","5881":"разработана","5882":"ранних","5883":"рассмо","5884":"распознавания","5885":"раствор","5886":"резвычайно","5887":"рить","5888":"руб","5889":"сбо","589":"ления","5890":"самая","5891":"сайта","5892":"самка","5893":"самостоятельно","5894":"серти","5895":"серверу","5896":"системати","5897":"ситуациях","5898":"следующих","5899":"слона","59":"w","590":"пря","5900":"случайно","5901":"собственной","5902":"соверш","5903":"соединение","5904":"созданию","5905":"создаёт","5906":"соответствие","5907":"соответствующей","5908":"соотношение","5909":"состоят","591":"сов","5910":"спаривания","5911":"способов","5912":"способом","5913":"средний","5914":"станция","5915":"стандарта","5916":"ственность","5917":"стороне","5918":"стреми","5919":"строка","592":"осно","5920":"сумма","5921":"суммар","5922":"тные","5923":"таблице","5924":"теплен","5925":"телескопа","5926":"това","5927":"тока","5928":"тость","5929":"тонченно","593":"ческих","5930":"точка","5931":"точку","5932":"туманности","5933":"тяготения","5934":"утонченно","5935":"уэйл","5936":"увеличивается","5937":"уменьши","5938":"уничто","5939":"уровней","594":"простран","5940":"уровнем","5941":"услуг","5942":"устройство","5943":"участники","5944":"учителя","5945":"фактов","5946":"формируются","5947":"функциями","5948":"хеш-код","5949":"хлестнут","595":"волю","5950":"хор","5951":"целевой","5952":"центральной","5953":"циано","5954":"чок","5955":"чрезвычайно","5956":"человеческой","5957":"черкнут","5958":"широком","5959":"шифровальных","596":"сол","5960":"шофе","5961":"эволюционные","5962":"эква","5963":"элемент","5964":"электрических","5965":"электростарте","5966":"энтропии","5967":"этап","5968":"юда","5969":"являться","597":"состоя","5970":"){","5971":"-й","5972":"-полиме","5973":".0","5974":"150","5975":"1p","5976":"1970-х","5977":"1px","5978":"2001","5979":"ame","598":"хи","5980":"av","5981":"ativ","5982":"ative","5983":"cur","5984":"const","5985":"ep","5986":"edia","5987":"ipedia","5988":"lup","5989":"lupus","599":"нее","5990":"ri","5991":"sp","5992":"uni","5993":"web","5994":"wikipedia","5995":"x86","5996":"{\\","5997":"алек","5998":"ации","5999":"абсолютно","6":"%","60":"x","600":"ска","6000":"акаде","6001":"академи","6002":"амурского","6003":"ареал","6004":"архитектура","6005":"астроном","6006":"атома","6007":"атомов","6008":"балдж","6009":"белые","601":"еди","6010":"беспо","6011":"благо","6012":"божи","6013":"боре","6014":"вверх","6015":"ввод","6016":"вниз","6017":"вных","6018":"ваемые","6019":"ваны","602":"рабо","6020":"ведение","6021":"ведено","6022":"вероятности","6023":"верхней","6024":"вещество","6025":"влены","6026":"внешние","6027":"внутреннего","6028":"внутренняя","6029":"возраста","603":"язы","6030":"вопросы","6031":"воробей","6032":"вращение","6033":"всему","6034":"вшихся","6035":"вылу","6036":"вят","6037":"вёл","6038":"греш","6039":"газов","604":"ровать","6040":"генетические","6041":"гиба","6042":"гиль","6043":"главный","6044":"гравитационное","6045":"гравитационных","6046":"графический","6047":"графия","6048":"грузки","6049":"грунта","605":"тем","6050":"группу","6051":"движется","6052":"деление","6053":"держи","6054":"дия","6055":"диспер","6056":"доли","6057":"доказательства","6058":"дорого","6059":"единственным","606":"точ","6060":"емую","6061":"ждает","6062":"железа","6063":"живущих","6064":"зво","6065":"зри","6066":"замен","6067":"зависеть","6068":"заголовочного","6069":"задаётся","607":"больши","6070":"закона","6071":"земной","6072":"зиден","6073":"зированных","6074":"зубов","6075":"зываться","6076":"иль","6077":"идентифика","6078":"излуч","6079":"измери","608":"ву","6080":"иначе","6081":"ископаемые","6082":"испарения","6083":"использованию","6084":"кта","6085":"какую","6086":"калифор","6087":"квантовое","6088":"клеточных","6089":"клима","609":"дол","6090":"книгу","6091":"колонии","6092":"контен","6093":"контроли","6094":"космического","6095":"крупнее","6096":"лазей","6097":"летать","6098":"логический","6099":"любая","61":"y","610":"которых","6100":"лёгких","6101":"магнито","6102":"математики","6103":"материал","6104":"медленнее","6105":"мелкие","6106":"метаморфо","6107":"механику","6108":"мито","6109":"мифо","611":"эволю","6110":"множи","6111":"могла","6112":"модуль","6113":"нённых","6114":"называть","6115":"начал","6116":"начали","6117":"ненного","6118":"необходимость","6119":"низм","612":"части","6120":"носить","6121":"носят","6122":"ноября","6123":"ньюто","6124":"нять","6125":"ожи","6126":"опер","6127":"ост","6128":"остры","6129":"охра","613":"данных","6130":"обнов","6131":"облака","6132":"оборудования","6133":"объектом","6134":"объёме","6135":"одни","6136":"одних","6137":"оказалось","6138":"описать","6139":"орбите","614":"изве","6140":"организаций","6141":"организмами","6142":"основаны","6143":"остров","6144":"отдельно","6145":"отношении","6146":"отсчёта","6147":"оценить","6148":"очевидно","6149":"ошибка","615":"ющих","6150":"пал","6151":"пала","6152":"пакета","6153":"параметр","6154":"передача","6155":"планету","6156":"повторя","6157":"поддерживает","6158":"показано","6159":"поколение","616":"жения","6160":"половой","6161":"половины","6162":"полученных","6163":"помогает","6164":"постули","6165":"поступа","6166":"потока","6167":"президен","6168":"преобразование","6169":"предков","617":"них","6170":"пределы","6171":"предметом","6172":"предоставляют","6173":"природа","6174":"признак","6175":"признаки","6176":"применяться","6177":"принципе","6178":"принципу","6179":"провай","618":"работ","6180":"промыш","6181":"проходят","6182":"проявляется","6183":"проверки","6184":"проекты","6185":"птенцы","6186":"рается","6187":"равновеси","6188":"разными","6189":"разделов","619":"быть","6190":"размеру","6191":"районах","6192":"ранние","6193":"распределённых","6194":"репродуктив","6195":"реализа","6196":"результата","6197":"родо","6198":"руковод","6199":"рыбы","62":"z","620":"действи","6200":"своему","6201":"своём","6202":"свободного","6203":"сед","6204":"секунд","6205":"серви","6206":"сино","6207":"синтак","6208":"синтакси","6209":"сказать","621":"шо","6210":"словом","6211":"случайных","6212":"смысл","6213":"сотен","6214":"специальная","6215":"средних","6216":"стаби","6217":"стабили","6218":"стая","6219":"старые","622":"вёз","6220":"столь","6221":"строении","6222":"структуре","6223":"считалось","6224":"текстов","6225":"телескопов","6226":"тельств","6227":"теорема","6228":"территория","6229":"тони","623":"звёз","6230":"точность","6231":"туманностей","6232":"тяже","6233":"уиль","6234":"уль","6235":"уро","6236":"углекислого","6237":"указывают","6238":"уменьшается","6239":"употре","624":"только","6240":"участие","6241":"физика","6242":"фикса","6243":"философии","6244":"фонд","6245":"хри","6246":"химические","6247":"хлорофилл","6248":"целочис","6249":"централи","625":"зем","6250":"цепоче","6251":"цикл","6252":"цикли","6253":"частях","6254":"ченным","6255":"черепа","6256":"числом","6257":"числу","6258":"читать","6259":"шку","626":"кро","6260":"шаг","6261":"широкий","6262":"эри","6263":"экспериментально","6264":"экспонен","6265":"электромагнитного","6266":"энергией","6267":"эукариот","6268":"языковых","6269":"ярко","627":"дви","6270":"-греч","6271":"-битных","6272":".-греч","6273":"120","6274":"1991","6275":"1995","6276":"2,","6277":"2,5","6278":"26","6279":"27","628":"кры","6280":"2002","6281":"2004","6282":"700","6283":":#","6284":":hover{b","6285":":hover{background","6286":":hover{background:#","6287":"ate","6288":"dns-","6289":"hat","629":"кли","6290":"ics","6291":"ietf","6292":"inlin","6293":"inline","6294":"mu","6295":"network","6296":"ob","6297":"pre","6298":"reen","6299":"screen","63":"{","630":"они","6300":"st-","6301":"typ","6302":"ts-fix-text:hover{background:#","6303":"utf-","6304":"а.е","6305":"альное","6306":"ата","6307":"абстракт","6308":"августа","6309":"администра","631":"созда","6310":"алгоритмом","6311":"алфави","6312":"ампли","6313":"амплиту","6314":"антибио","6315":"апреля","6316":"аргументов","6317":"балан","6318":"багр","6319":"бактери","632":"ника","6320":"бед","6321":"безвесель","6322":"бернер","6323":"биологических","6324":"биткоин","6325":"бом","6326":"бух","6327":"вв","6328":"введён","6329":"вводи","633":"ят","6330":"вклиненно","6331":"вначале","6332":"вная","6333":"внов","6334":"встраи","6335":"вшей","6336":"ввп","6337":"венеры","6338":"вздво","6339":"взвихр","634":"ненно","6340":"взрослых","6341":"взрыв","6342":"вивален","6343":"видны","6344":"видят","6345":"включать","6346":"вновь","6347":"возвращает","6348":"воздух","6349":"восхищ","635":"пара","6350":"вторы","6351":"вшиеся","6352":"выби","6353":"выбира","6354":"выда","6355":"выравни","6356":"выражением","6357":"высокую","6358":"вычислительные","6359":"гг","636":"ению","6360":"геном","6361":"герше","6362":"гивать","6363":"гравитационный","6364":"данному","6365":"деления","6366":"дем","6367":"действительности","6368":"дельфинов","6369":"десятков","637":"она","6370":"детермини","6371":"дире","6372":"диаметром","6373":"дистрибутивы","6374":"доминиру","6375":"достигает","6376":"др.-греч","6377":"другую","6378":"екти","6379":"ета","638":"есть","6380":"жды","6381":"ждать","6382":"жденнее","6383":"жденней","6384":"жено","6385":"живой","6386":"зр","6387":"зав","6388":"зает","6389":"зай","639":"называ","6390":"заклиненно","6391":"зареше","6392":"затвор","6393":"заточ","6394":"затруд","6395":"зачеркавши","6396":"задразненно","6397":"заметно","6398":"занимается","6399":"зарядов","64":"|","640":"измен","6400":"захламощ","6401":"звездообразование","6402":"звук","6403":"земноводных","6404":"зия","6405":"знамени","6406":"зов","6407":"зой","6408":"зона","6409":"игры","641":"льта","6410":"ится","6411":"иц","6412":"изреше","6413":"изменчивости","6414":"изменяется","6415":"изучении","6416":"имел","6417":"имеющие","6418":"импульс","6419":"инжен","642":"част","6420":"инициали","6421":"инструментов","6422":"интеллектом","6423":"иск","6424":"исчеркавши","6425":"ись","6426":"исключения","6427":"искош","6428":"искусственным","6429":"использовался","643":"зульта","6430":"исследованиям","6431":"иссуш","6432":"история","6433":"исходный","6434":"исчезнов","6435":"кен","6436":"какое","6437":"кажу","6438":"канди","6439":"категории","644":"кра","6440":"китов","6441":"китае","6442":"классифици","6443":"классического","6444":"копыт","6445":"коре","6446":"кот","6447":"количеству","6448":"коллизий","6449":"конфигу","645":"результа","6450":"консорциум","6451":"конференции","6452":"конфигура","6453":"корпора","6454":"короткие","6455":"коэффициент","6456":"лабора","6457":"латин","6458":"лит","6459":"ллипти","646":"разви","6460":"лови","6461":"локальных","6462":"лями","6463":"маге","6464":"мами","6465":"межзвёздной","6466":"мерных","6467":"метра","6468":"млечном","6469":"море","647":"ций","6470":"молот","6471":"мутация","6472":"мыс","6473":"нно","6474":"начеркавши","6475":"назвал","6476":"называемых","6477":"накоп","6478":"наук","6479":"научной","648":"нима","6480":"нахождения","6481":"нега","6482":"необы","6483":"нейрон","6484":"ниться","6485":"ниях","6486":"оке","6487":"опыта","6488":"обитают","6489":"оболочка","649":"разли","6490":"образов","6491":"образовании","6492":"образованию","6493":"обсерватории","6494":"оказалась","6495":"окончательно","6496":"опубликован","6497":"органы","6498":"особями","6499":"остальных","65":"}","650":"информа","6500":"отмети","6501":"ответов","6502":"ответы","6503":"отдельности","6504":"отдельный","6505":"открытия","6506":"отличаться","6507":"отнести","6508":"относят","6509":"относиться","651":"нер","6510":"отсутствия","6511":"официаль","6512":"охоты","6513":"падать","6514":"памятью","6515":"параметрами","6516":"патрическое","6517":"перцеп","6518":"перевод","6519":"переклиненно","652":"алгори","6520":"перекош","6521":"переходит","6522":"перечеркавши","6523":"передразненно","6524":"передать","6525":"передачу","6526":"перцептро","6527":"пил","6528":"пись","6529":"плыв","653":"если","6530":"повре","6531":"подар","6532":"попадает","6533":"пород","6534":"поу","6535":"почита","6536":"по-раз","6537":"по-разному","6538":"подволо","6539":"подклиненно","654":"того","6540":"подверга","6541":"поддержку","6542":"позиции","6543":"покош","6544":"полная","6545":"полученные","6546":"понять","6547":"последнее","6548":"постула","6549":"потери","655":"наб","6550":"правительства","6551":"правилам","6552":"превраща","6553":"преуменьш","6554":"предлага","6555":"предпочита","6556":"предупре","6557":"предубежд","6558":"преимущества","6559":"приотвор","656":"кван","6560":"приструненно","6561":"притвор","6562":"приуменьш","6563":"признаками","6564":"примера","6565":"принципов","6566":"причина","6567":"прокси","6568":"проница","6569":"проо","657":"следо","6570":"прошед","6571":"производства","6572":"процессами","6573":"пуска","6574":"публикации","6575":"пыли","6576":"рно","6577":"раются","6578":"различают","6579":"размножение","658":"чёр","6580":"расклиненно","6581":"раскош","6582":"расположение","6583":"расположена","6584":"распространению","6585":"расширя","6586":"ресурсами","6587":"рис","6588":"рит","6589":"рована","659":"извест","6590":"русский","6591":"сдво","6592":"сму","6593":"сайтов","6594":"самца","6595":"светимость","6596":"световых","6597":"свое","6598":"свойствами","6599":"связыва","66":"~","660":"алгорит","6600":"сев","6601":"северной","6602":"серь","6603":"сертифика","6604":"серьё","6605":"серьёз","6606":"сетями","6607":"символов","6608":"сингулярность","6609":"следствием","661":"ческой","6610":"слияние","6611":"соструненно","6612":"совместно","6613":"современным","6614":"соединены","6615":"создании","6616":"создают","6617":"сознанием","6618":"сопрово","6619":"способна","662":"компью","6620":"способностей","6621":"средняя","6622":"срок","6623":"ссылки","6624":"стной","6625":"стандарти","6626":"стандарту","6627":"ственному","6628":"створ","6629":"степенью","663":"мень","6630":"стивен","6631":"стого","6632":"страны","6633":"строение","6634":"субъек","6635":"существовать","6636":"считаются","6637":"тков","6638":"тать","6639":"тертый","664":"позво","6640":"тирование","6641":"тихо","6642":"тивов","6643":"типам","6644":"толстый","6645":"точного","6646":"точности","6647":"трим","6648":"тябре","6649":"уре","665":"реа","6650":"ус","6651":"узлы","6652":"управлении","6653":"уравнением","6654":"успешно","6655":"учителем","6656":"файлы","6657":"феномен","6658":"фермент","6659":"физик","666":"ением","6660":"физические","6661":"фонда","6662":"формали","6663":"француз","6664":"хаббл","6665":"характеризуется","6666":"хеш","6667":"хеши","6668":"химический","6669":"хищник","667":"инте","6670":"хлеб","6671":"холены","6672":"хокинга","6673":"холод","6674":"хранить","6675":"хромосомы","6676":"цве","6677":"цевой","6678":"целых","6679":"центру","668":"кту","6680":"члены","6681":"часов","6682":"ченнее","6683":"ченней","6684":"ченную","6685":"ченных","6686":"чивается","6687":"чивать","6688":"шер","6689":"шно","669":"каж","6690":"шепли","6691":"шесть","6692":"щению","6693":"щели","6694":"ъем","6695":"эллипти","6696":"эквивален","6697":"энтропия","6698":"этапом","6699":"ядре","67":"­","670":"её","6700":"яиц","6701":"яро","6702":"ять","6703":"ядром","6704":"1000","6705":"180","6706":"185","6707":"190","6708":"1980-х","6709":"21","671":"зада","6710":"2024","6711":"300","6712":"65","6713":";pa","6714":";pad","6715":";padding","6716":"ai","6717":"arg","6718":"comput","6719":"fi","672":"мето","6720":"ga","6721":"group","6722":"jav","6723":"laris","6724":"lock","6725":"main","6726":"native","6727":"r_{","6728":"sis","6729":"server","673":"наблю","6730":"solaris","6731":"spec","6732":"text-decoration","6733":"url","6734":"vd","6735":"world","6736":"y:","6737":"{font-size:","6738":"ани","6739":"автори","674":"сер","6740":"алекса","6741":"александ","6742":"африкан","6743":"биз","6744":"бара","6745":"белок","6746":"беркли","6747":"бесконечно","6748":"бизне","6749":"бором","675":"ов","6750":"брошен","6751":"быстрого","6752":"ввести","6753":"вско","6754":"входящих","6755":"важной","6756":"важные","6757":"ваясь","6758":"вела","6759":"ведли","676":"однако","6760":"ведены","6761":"величиной","6762":"взаи","6763":"взаимно","6764":"взаимодействовать","6765":"виться","6766":"видами","6767":"видимому","6768":"вленные","6769":"внешнего","677":"особ","6770":"внимания","6771":"внутренние","6772":"воздействием","6773":"воздействия","6774":"востоке","6775":"вскоре","6776":"вынужден","6777":"выражения","6778":"высокая","6779":"гнуть","678":"элек","6780":"гц","6781":"генерировать","6782":"генетических","6783":"гильбер","6784":"глазом","6785":"главной","6786":"главных","6787":"говорит","6788":"головы","6789":"головной","679":"основ","6790":"гравитационным","6791":"градиента","6792":"дже","6793":"джим","6794":"дят","6795":"данное","6796":"декабря","6797":"дискрет","6798":"дого","6799":"догово","68":"±","680":"педи","6800":"дой","6801":"добавля","6802":"дополнительно","6803":"древес","6804":"дьми","6805":"ее","6806":"ектив","6807":"емости","6808":"еори","6809":"едино","681":"фе","6810":"единственная","6811":"единиц","6812":"жащие","6813":"ждается","6814":"жела","6815":"живают","6816":"живут","6817":"зве","6818":"зд","6819":"зь","682":"прави","6820":"заданной","6821":"зать","6822":"захва","6823":"заголовки","6824":"заряженных","6825":"звёздами","6826":"значительную","6827":"икру","6828":"идею","6829":"иерархии","683":"кри","6830":"избира","6831":"известна","6832":"известным","6833":"изменить","6834":"изоляции","6835":"икринки","6836":"имели","6837":"императорских","6838":"инс","6839":"института","684":"мате","6840":"интегра","6841":"исходных","6842":"клей","6843":"креа","6844":"каждому","6845":"каждым","6846":"какого-либо","6847":"карты","6848":"кит","6849":"кислоты","685":"нут","6850":"книга","6851":"кова","6852":"коммуникации","6853":"компили","6854":"компиляторов","6855":"компилятором","6856":"компьютерах","6857":"компьютерные","6858":"конкретных","6859":"корм","686":"организ","6860":"космический","6861":"космической","6862":"коэффициентов","6863":"кратеры","6864":"крити","6865":"крупной","6866":"крупными","6867":"куда","6868":"лам","6869":"летом","687":"чита","6870":"лис","6871":"лож","6872":"ложения","6873":"лоша","6874":"лунной","6875":"лунного","6876":"люд","6877":"людьми","6878":"любом","6879":"магнетизм","688":"ский","6880":"максимально","6881":"материалов","6882":"машиной","6883":"межзвёздного","6884":"менеджер","6885":"мерт","6886":"метеори","6887":"мину","6888":"митохо","6889":"митохонд","689":"10","6890":"многочисленные","6891":"мони","6892":"моно","6893":"модификации","6894":"модифици","6895":"молекулярных","6896":"назем","6897":"наземных","6898":"натура","6899":"наша","69":"²","690":"зави","6900":"наблюдаются","6901":"называемая","6902":"называемой","6903":"наимень","6904":"написал","6905":"написания","6906":"напряжён","6907":"наружи","6908":"настолько","6909":"находящиеся","691":"чных","6910":"началу","6911":"невозможен","6912":"неизм","6913":"нейросети","6914":"нети","6915":"но-","6916":"нос","6917":"нупедии","6918":"оставля","6919":"обсу","692":"стан","6920":"облако","6921":"оболоч","6922":"обрати","6923":"обучении","6924":"обучению","6925":"обыкнов","6926":"огромное","6927":"однозначно","6928":"оказались","6929":"описаны","693":"верх","6930":"определению","6931":"определённые","6932":"организация","6933":"организм","6934":"освобождения","6935":"основную","6936":"особенностью","6937":"отдели","6938":"отличи","6939":"отпра","694":"дина","6940":"отрица","6941":"отсюда","6942":"охота","6943":"оценка","6944":"пп","6945":"параллельно","6946":"паутине","6947":"перспе","6948":"перейти","6949":"перепис","695":"дель","6950":"перехода","6951":"передних","6952":"передавать","6953":"переноси","6954":"погреш","6955":"поправ","6956":"появляются","6957":"по-видимому","6958":"поглощение","6959":"подкреп","696":"емы","6960":"подобный","6961":"показывают","6962":"покоя","6963":"полем","6964":"полюса","6965":"полями","6966":"понимается","6967":"популярной","6968":"последнего","6969":"постав","697":"живо","6970":"пояс","6971":"праведли","6972":"превос","6973":"предковой","6974":"предложена","6975":"представить","6976":"предусмотрен","6977":"преимущество","6978":"приду","6979":"приз","698":"ключа","6980":"приходи","6981":"приведен","6982":"прикладной","6983":"приходится","6984":"прогре","6985":"продемонстри","6986":"прокариот","6987":"протя","6988":"профе","6989":"прош","699":"юще","6990":"проявля","6991":"произвольного","6992":"просмотра","6993":"протяжении","6994":"прошлом","6995":"прямого","6996":"пусть","6997":"публика","6998":"равномер","6999":"ранг","7":"&","70":"³","700":"вед","7000":"рассмот","7001":"расшифровать","7002":"распространённых","7003":"расширение","7004":"реагировать","7005":"регистра","7006":"редакто","7007":"репликации","7008":"решением","7009":"решает","701":"сколь","7010":"роберт","7011":"руди","7012":"рыба","7013":"склады","7014":"снаружи","7015":"сним","7016":"справедли","7017":"сходи","7018":"сцен","7019":"свободных","702":"стра","7020":"сделано","7021":"седь","7022":"сезон","7023":"семейству","7024":"силой","7025":"сингулярности","7026":"синтез","7027":"систематики","7028":"ситуации","7029":"скрещивания","703":"иску","7030":"скрещиваться","7031":"следуют","7032":"служ","7033":"совые","7034":"события","7035":"совершенно","7036":"созданы","7037":"создаётся","7038":"сократи","7039":"сообщество","704":"мов","7040":"соответствия","7041":"соответствующие","7042":"специалистов","7043":"специальные","7044":"способами","7045":"стациона","7046":"стандарты","7047":"стандартная","7048":"стандартных","7049":"становление","705":"лове","7050":"ствующих","7051":"стоимость","7052":"струн","7053":"сути","7054":"суть","7055":"существовании","7056":"считали","7057":"тю","7058":"твёрды","7059":"тезис","706":"работа","7060":"тесно","7061":"течением","7062":"тельными","7063":"термина","7064":"типе","7065":"тилако","7066":"токси","7067":"толщина","7068":"тонкого","7069":"точной","707":"ствует","7070":"традиционно","7071":"транзакции","7072":"транзисто","7073":"тремя","7074":"тяжё","7075":"усть","7076":"уч","7077":"увеличение","7078":"увеличения","7079":"уверенно","708":"челове","7080":"упомя","7081":"употреб","7082":"участвуют","7083":"учитывать","7084":"фэ","7085":"фактором","7086":"фоку","7087":"формой","7088":"формате","7089":"фотон","709":"вз","7090":"фэч","7091":"хар","7092":"характе","7093":"хеш-функций","7094":"ходящий","7095":"художе","7096":"цем","7097":"целиком","7098":"цепочек","7099":"частоты","71":"×","710":"вра","7100":"чества","7101":"чество","7102":"человеку","7103":"шко","7104":"шагом","7105":"шан","7106":"шири","7107":"щённых","7108":"эми","7109":"эйнштейн","711":"возмож","7110":"экватора","7111":"эксперимент","7112":"электрический","7113":"яс","7114":"январе","7115":"&t","7116":"-10","7117":"-е","7118":"-битные","7119":"1/","712":"вычис","7120":"1975","7121":"1983","7122":"1994","7123":"29","7124":"38","7125":";cur","7126":";curs","7127":";cursor","7128":";cursor:","7129":"ase","713":"лягу","7130":"at&t","7131":"bda","7132":"che","7133":"code","7134":"comment-commentedtext","7135":"ex","7136":"fa","7137":"inc","7138":"iso","7139":"jec","714":"мента","7140":"k_{b","7141":"lam","7142":"lambda","7143":"mo","7144":"new","7145":"pace","7146":"parti","7147":"partial","7148":"post","7149":"proto","715":"наи","7150":"rap","7151":"time","7152":"ts-comment-commentedtext","7153":"ально","7154":"атом","7155":"адаптации","7156":"адаптаций","7157":"амино","7158":"араб","7159":"аспекты","716":"обу","7160":"ассоции","7161":"ассоциации","7162":"астероиды","7163":"астрономии","7164":"блу","7165":"балджа","7166":"белых","7167":"бенгаль","7168":"бесхвосты","7169":"близко","717":"уров","7170":"блокчейна","7171":"бок","7172":"болез","7173":"британ","7174":"бую","7175":"будучи","7176":"буквы","7177":"бывают","7178":"вло","7179":"важны","718":"мя","7180":"веса","7181":"ведений","7182":"верхнего","7183":"взро","7184":"взрослые","7185":"вибра","7186":"видимая","7187":"викимедиа","7188":"виртуальная","7189":"вкрапленно","719":"реш","7190":"владель","7191":"влади","7192":"внес","7193":"внутреннюю","7194":"вора","7195":"времён","7196":"всеми","7197":"входного","7198":"выглядеть","7199":"выдвинул","72":"á","720":"фо","7200":"вызов","7201":"вымерших","7202":"выполняют","7203":"выражается","7204":"вычисление","7205":"вычислительная","7206":"гад","7207":"гая","7208":"галилей","7209":"гова","721":"ую","7210":"голь","7211":"горе","7212":"гос","7213":"граф","7214":"дми","7215":"дах","7216":"даётся","7217":"дерева","7218":"динамически","7219":"дисци","722":"ких","7220":"дистрибутив","7221":"дисципли","7222":"дмитри","7223":"долю","7224":"добычей","7225":"доказательств","7226":"достиг","7227":"емыми","7228":"жка","7229":"жно","723":"сети","7230":"ждением","7231":"ждаться","7232":"ждаются","7233":"здо","7234":"зер","7235":"загряз","7236":"заменя","7237":"записать","7238":"запра","7239":"заглаты","724":"nt","7240":"заголовка","7241":"задачей","7242":"запаса","7243":"запраши","7244":"запросов","7245":"затраты","7246":"звёздное","7247":"земного","7248":"зируются","7249":"змея","725":"опера","7250":"зрело","7251":"ито","7252":"изобрет","7253":"изото","7254":"известная","7255":"издание","7256":"изменять","7257":"изощ","7258":"именем","7259":"интеллекте","726":"чере","7260":"интеллектуальных","7261":"испыта","7262":"испыты","7263":"искусственном","7264":"используемые","7265":"исследовании","7266":"йте","7267":"какая","7268":"каль","7269":"каса","727":"ана","7270":"каждом","7271":"каких-либо","7272":"канье","7273":"кише","7274":"килограм","7275":"килопарсека","7276":"кишечник","7277":"классов","7278":"ключение","7279":"кодов","728":"дели","7280":"когни","7281":"компакт","7282":"компаний","7283":"комплекса","7284":"компоненты","7285":"компьютерная","7286":"конкретного","7287":"конфликт","7288":"концентрации","7289":"копии","729":"кванто","7290":"королев","7291":"короткий","7292":"кратер","7293":"крупным","7294":"лад","7295":"леген","7296":"лец","7297":"ленисто","7298":"ленистоноги","7299":"ленном","73":"ã","730":"мой","7300":"ленному","7301":"ленною","7302":"линий","7303":"логово","7304":"лорен","7305":"лунные","7306":"любую","7307":"менной","7308":"мь","7309":"маль","731":"тех","7310":"мальных","7311":"мари","7312":"макроопределения","7313":"максимум","7314":"маркер","7315":"массивы","7316":"материя","7317":"матических","7318":"медве","7319":"мешки","732":"бор","7320":"международного","7321":"метнут","7322":"механизмов","7323":"мит","7324":"млекопитающие","7325":"многими","7326":"многократно","7327":"мок","7328":"мозге","7329":"морских","733":"была","7330":"мощности","7331":"мощность","7332":"наклон","7333":"намер","7334":"напод","7335":"набором","7336":"найдены","7337":"написание","7338":"напоминает","7339":"насекомые","734":"было","7340":"наследственности","7341":"наследственных","7342":"научный","7343":"начального","7344":"начинает","7345":"неба","7346":"небольшого","7347":"недели","7348":"недель","7349":"некотором","735":"имо","7350":"некоторую","7351":"нешь","7352":"негатив","7353":"недостатки","7354":"нейронами","7355":"нейтральные","7356":"немте","7357":"ненное","7358":"ненном","7359":"ненному","736":"интер","7360":"ненною","7361":"неожи","7362":"нете","7363":"низации","7364":"нико","7365":"ничто","7366":"нижней","7367":"нке","7368":"нкт","7369":"ночью","737":"пуля","7370":"новорожд","7371":"номина","7372":"ньюмена","7373":"огор","7374":"ока","7375":"опи","7376":"облег","7377":"обна","7378":"обон","7379":"обеспечивается","738":"система","7380":"оборо","7381":"обозначает","7382":"обоня","7383":"обусловлено","7384":"общеприня","7385":"обычным","7386":"одними","7387":"ожида","7388":"оказаться","7389":"океана","739":"звёзд","7390":"окраса","7391":"окрестности","7392":"операция","7393":"оперативной","7394":"определяют","7395":"определённый","7396":"орган","7397":"ориен","7398":"осци","7399":"основными","74":"å","740":"много","7400":"особо","7401":"осцилля","7402":"отдела","7403":"отверстие","7404":"отупленно","7405":"официально","7406":"пто","7407":"падение","7408":"палеонтологи","7409":"переменной","741":"ющие","7410":"пиг","7411":"пило","7412":"питания","7413":"платформ","7414":"повой","7415":"погромленно","7416":"пола","7417":"поверхностью","7418":"подходов","7419":"поддержкой","742":"ге","7420":"поддерживать","7421":"подтверди","7422":"подтверждений","7423":"полнение","7424":"полё","7425":"половине","7426":"пользо","7427":"поляри","7428":"понимать","7429":"популярность","743":"цию","7430":"порск","7431":"последней","7432":"последним","7433":"посыла","7434":"потомков","7435":"пояса","7436":"предоста","7437":"преврати","7438":"предше","7439":"пределами","744":"проис","7440":"предпочитают","7441":"представлений","7442":"представлять","7443":"предыдущих","7444":"приспо","7445":"прикладного","7446":"приложениях","7447":"принимать","7448":"принимают","7449":"принципи","745":"тен","7450":"приспоса","7451":"приспосабли","7452":"присутствуют","7453":"проекти","7454":"проника","7455":"проще","7456":"программами","7457":"произведение","7458":"произведения","7459":"производительности","746":"ческий","7460":"происходи","7461":"прохождение","7462":"прямой","7463":"путе","7464":"путеше","7465":"рта","7466":"работающих","7467":"равновес","7468":"равновесной","7469":"разго","747":"стей","7470":"разгромленно","7471":"раздела","7472":"разру","7473":"разы","7474":"размещения","7475":"разработчики","7476":"распада","7477":"расположенных","7478":"распределения","7479":"редок","748":"наз","7480":"решить","7481":"реальности","7482":"реальность","7483":"резко","7484":"рене","7485":"ресурс","7486":"рога","7487":"рого","7488":"ростом","7489":"ровали","749":"нии","7490":"ровано","7491":"рыб","7492":"рынка","7493":"рядо","7494":"сведений","7495":"справо","7496":"самих","7497":"своди","7498":"сеан","7499":"севере","75":"æ","750":"содер","7500":"сел","7501":"сечения","7502":"северных","7503":"семейств","7504":"сена","7505":"сены","7506":"сердце","7507":"сетевой","7508":"сиби","7509":"сильного","751":"соответ","7510":"сигналы","7511":"сильнее","7512":"симметрии","7513":"символа","7514":"символом","7515":"следы","7516":"слоновые","7517":"сложной","7518":"случаем","7519":"случайные","752":"популя","7520":"снизи","7521":"сова","7522":"сопоста","7523":"сосу","7524":"сою","7525":"собрать","7526":"содержания","7527":"соединений","7528":"созданный","7529":"солнечная","753":"ar","7530":"солнечных","7531":"сообществе","7532":"состава","7533":"состоящие","7534":"сотни","7535":"сохраняется","7536":"социальные","7537":"социальных","7538":"специальный","7539":"спиральных","754":"анг","7540":"спутник","7541":"спутника","7542":"сравнения","7543":"среднего","7544":"стно","7545":"стами","7546":"станет","7547":"стандарте","7548":"статью","7549":"степень","755":"вики","7550":"стрелец","7551":"ступает","7552":"сухо","7553":"сферически","7554":"сферической","7555":"сходство","7556":"тако","7557":"таль","7558":"таблицы","7559":"таксон","756":"исследо","7560":"тепленно","7561":"температуре","7562":"тина","7563":"тироваться","7564":"тигря","7565":"типами","7566":"топо","7567":"точек","7568":"третий","7569":"третьей","757":"лён","7570":"трусить","7571":"трудности","7572":"тулови","7573":"тысячи","7574":"уди","7575":"уса","7576":"устран","7577":"уши","7578":"угнет","7579":"узком","758":"рая","7580":"университете","7581":"упорядо","7582":"управлением","7583":"устойчи","7584":"фазо","7585":"фазы","7586":"файлах","7587":"февраля","7588":"ферменты","7589":"физическая","759":"скоро","7590":"физиологи","7591":"фильме","7592":"формуле","7593":"французский","7594":"функциональность","7595":"функционирование","7596":"хря","7597":"хаббла","7598":"характерный","7599":"характеристик","76":"é","760":"жение","7600":"хеширования","7601":"хие","7602":"хищника","7603":"хлебнут","7604":"ходом","7605":"холен","7606":"холено","7607":"хохла","7608":"хождение","7609":"хранятся","761":"искус","7610":"хромати","7611":"цет","7612":"цвета","7613":"целе","7614":"цель","7615":"целое","7616":"центри","7617":"цепочке","7618":"цир","7619":"цианобактерий","762":"коло","7620":"ционной","7621":"членистоноги","7622":"чтения","7623":"часы","7624":"частных","7625":"ченные","7626":"ченными","7627":"черкае","7628":"черкавшему","7629":"ческому","763":"мерку","7630":"четвер","7631":"чивание","7632":"чьих","7633":"шись","7634":"шаровых","7635":"шему","7636":"широкие","7637":"щик","7638":"электронов","7639":"элементами","764":"обо","7640":"элементар","7641":"юпи","7642":"юрк","7643":"языки","7644":"){border-bottom:","7645":"){.mw-parser-output","7646":"-вывода","7647":"-го","7648":".or","7649":".org","765":"относи","7650":"1920","7651":"1974","7652":"1989","7653":"1996","7654":"2000-х","7655":"4,5","7656":"95","7657":":not","7658":":not(","7659":"bar","766":"большо","7660":"c99","7661":"cc","7662":"comm","7663":"dot","7664":"dotte","7665":"dotted","7666":"fre","7667":"free","7668":"gent","7669":"hbar","767":"маши","7670":"ication","7671":"ine","7672":"intelli","7673":"java","7674":"ke","7675":"k_{a","7676":"len","7677":"lib","7678":"mi","7679":"ntu","768":"ях","7680":"r_{s","7681":"untu","7682":"ubuntu","769":"200","77":"ó","770":"галактики","771":"живот","772":"переда","773":"интел","774":"интеллек","775":"многи","776":"счита","777":"этом","778":"ём","779":"вод","78":"ö","780":"опис","781":"тиг","782":"следу","783":"ченно","784":"бло","785":"стве","786":"когда","787":"меха","788":"вза","789":"вления","79":"ü","790":"помо","791":"физ","792":"чем","793":"ар","794":"сторо","795":"тран","796":"были","797":"произ","798":"являются","799":"ut","8":"'","80":"ā","800":"рования","801":"физи","802":"сам","803":"цы","804":"ческого","805":"вая","806":"днк","807":"дре","808":"зависи","809":"тор","81":"ē","810":"обще","811":"ходит","812":"шей","813":"этого","814":"википеди","815":"ление","816":"ктив","817":"груп","818":"взаимо","819":"оди","82":"ę","820":"составля","821":"либо","822":"мати","823":"ственного","824":"хе","825":"ческие","826":"эк","827":"электро","828":"был","829":"предста","83":"ś","830":"щения","831":"структу","832":"at","833":"ваться","834":"поя","835":"син","836":"других","837":"ках","838":"объек","839":"ix","84":"š","840":"свет","841":"которая","842":"времени","843":"води","844":"гружен","845":"тру","846":"дис","847":"позволя","848":"рак","849":"высо","85":"ū","850":"дом","851":"обе","852":"ник","853":"случае","854":"шен","855":"широ","856":"времен","857":"коли","858":"примен","859":"стандар","86":"ə","860":"который","861":"зации","862":"нейро","863":"оста","864":"пти","865":"количе","866":"co","867":"англ","868":"вши","869":"величи","87":"ɪ","870":"вого","871":"дли","872":"исто","873":"кого","874":"льных","875":"нения","876":"вый","877":"ним","878":"маг","879":"динами","88":"ɫ","880":"ская","881":"вне","882":"вает","883":"над","884":"функции","885":"ний","886":"смо","887":"хот","888":"авто","889":"включа","89":"ʷ","890":"около","891":"обычно","892":"само","893":"таких","894":"зова","895":"лись","896":"некоторые","897":"гло","898":"образом","899":"планет","9":"(","90":"ˈ","900":"солн","901":"оши","902":"тя","903":"эта","904":"этому","905":"будет","906":"мей","907":"род","908":"циа","909":"нау","91":"ˌ","910":"щий","911":"ёт","912":"без","913":"вид","914":"послед","915":"твер","916":"центра","917":"вос","918":"дела","919":"харак","92":"ː","920":"чный","921":"видов","922":"льный","923":"наблюда","924":"рий","925":"рова","926":"чтобы","927":"un","928":"пери","929":"фика","93":"́","930":"энер","931":"эф","932":"кре","933":"кси","934":"класси","935":"нару","936":"наиболее","937":"ностью","938":"пар","939":"сколько","94":"̥","940":"такие","941":"бле","942":"вается","943":"где","944":"круп","945":"льного","946":"тельности","947":"часто","948":"or","949":"вс","95":"̯","950":"лом","951":"умень","952":"зад","953":"моз","954":"связа","955":"часть","956":"верси","957":"вление","958":"ети","959":"прото","96":"ά","960":"тия","961":"чной","962":"201","963":"выпол","964":"откры","965":"графи","966":"пин","967":"поч","968":"разме","969":"той","97":"έ","970":"тый","971":"уни","972":"00","973":"год","974":"енной","975":"лось","976":"магни","977":"поверх","978":"поддер","979":"таким","98":"ή","980":"досту","981":"ряд","982":"тив","983":"точно","984":"ходя","985":"био","986":"распростран","987":"сим","988":"слож","989":"этих","99":"ί","990":"есте","991":"чу","992":"бра","993":"значи","994":"ой","995":"обеспе","996":"определён","997":"данные","998":"друго","999":"имеет"},"merges":[["с","т"],["е","н"],["н","о"],["р","а"],["н","а"],["п","о"],["к","о"],["р","о"],["т","о"],["н","ы"],["р","е"],["е","т"],["н","и"],["г","о"],["в","о"],["в","а"],["л","и"],["р","и"],["л","ь"],["к","а"],["т","е"],["ен","и"],["н","е"],["л","о"],["о","б"],["д","а"],["к","и"],["м","о"],["т","а"],["е","р"],["л","е"],["с","я"],["з","а"],["л","а"],["с","о"],["т","ь"],["л","я"],["м","и"],["т","и"],["м","а"],["в","и"],["ц","и"],["д","о"],["о","т"],["п","ро"],["с","и"],["ч","е"],["р","у"],["п","ри"],["и","с"],["в","ы"],["д","е"],["м","е"],["д","и"],["б","о"],["в","е"],["и","з"],["ны","х"],["ра","з"],["ен","но"],["ч","а"],["п","е"],["ени","я"],["ст","а"],["ст","и"],["р","ы"],["е","м"],["ю","т"],["ст","о"],["ны","е"],["п","ре"],["м","ен"],["ст","ь"],["х","о"],["ч","и"],["с","ко"],["г","а"],["ны","й"],["с","е"],["ет","ся"],["п","а"],["но","й"],["д","у"],["л","у"],["г","и"],["ко","то"],["ш","и"],["ени","е"],["ст","в"],["ва","ни"],["б","ы"],["ж","е"],["с","а"],["с","ки"],["л","ю"],["к","у"],["н","у"],["щ","и"],["м","у"],["ль","но"],["д","ля"],["щ","е"],["о","р"],["ци","и"],["ч","то"],["э","то"],["с","у"],["и","н"],["мо","ж"],["в","ля"],["р","я"],["ж","и"],["ко","м"],["с","ле"],["ка","к"],["но","го"],["м","ер"],["в","ер"],["пе","ре"],["по","д"],["т","ы"],["ц","е"],["г","ра"],["ст","е"],["о","с"],["д","ы"],["з","о"],["ш","е"],["та","к"],["на","я"],["ва","ть"],["кото","ры"],["че","ски"],["ра","с"],["ны","м"],["з","на"],["г","у"],["о","д"],["п","у"],["ст","во"],["т","у"],["но","в"],["м","ы"],["ж","ен"],["з","ы"],["по","ль"],["ра","н"],["п","и"],["к","ти"],["з","у"],["ро","в"],["и","ли"],["б","е"],["да","н"],["в","ре"],["те","р"],["с","ло"],["н","к"],["о","н"],["ют","ся"],["п","ра"],["ф","ор"],["бо","ль"],["л","ен"],["ф","и"],["во","з"],["п","ер"],["ю","щи"],["пре","д"],["я","вля"],["в","се"],["ис","поль"],["д","ру"],["с","об"],["но","сть"],["не","й"],["б","а"],["те","льно"],["н","я"],["во","й"],["сто","я"],["ци","я"],["об","раз"],["ны","ми"],["б","у"],["ж","а"],["б","и"],["вани","я"],["в","ет"],["м","ет"],["l","e"],["си","ст"],["сист","ем"],["те","ль"],["s","t"],["ст","ро"],["вани","е"],["так","же"],["г","ру"],["вре","м"],["ч","но"],["2","0"],["l","a"],["ч","ис"],["i","s"],["ле","е"],["ни","е"],["хо","д"],["по","л"],["ч","ё"],["че","ско"],["х","а"],["с","ре"],["с","ь"],["ш","а"],["ва","н"],["ну","ю"],["то","м"],["ст","ва"],["мож","ет"],["к","е"],["ко","в"],["ч","ен"],["бо","лее"],["ле","к"],["в","л"],["ко","н"],["ни","я"],["ств","у"],["т","ся"],["пре","де"],["но","сти"],["а","л"],["д","ер"],["y","st"],["при","мер"],["с","пе"],["ть","ся"],["ени","й"],["з","и"],["хо","ди"],["ро","м"],["г","ен"],["ст","ви"],["ств","енно"],["с","по"],["p","la"],["е","й"],["с","лу"],["ф","у"],["d","is"],["го","да"],["dis","pla"],["та","ки"],["которы","е"],["y","le"],["ь","ю"],["displa","yst"],["displayst","yle"],["по","сле"],["ё","н"],["то","в"],["1","9"],["и","х"],["су","ще"],["явля","ется"],["к","лю"],["а","н"],["об","ъ"],["н","ен"],["п","ла"],["де","й"],["с","ет"],["ль","ко"],["го","ду"],["м","но"],["н","ет"],["п","ис"],["фу","нк"],["ц","а"],["ло","ги"],["б","ли"],["ч","ер"],["к","ру"],["образ","о"],["гра","м"],["мож","но"],["ж","енно"],["га","ла"],["i","n"],["д","ен"],["с","си"],["ни","з"],["до","в"],["про","це"],["ц","ен"],["зы","ва"],["про","грам"],["гала","кти"],["л","ы"],["е","го"],["на","пример"],["с","ы"],["к","ла"],["мо","гу"],["проце","с"],["по","лу"],["дру","ги"],["о","преде"],["могу","т"],["ра","в"],["ф","а"],["с","во"],["ме","ж"],["ч","ения"],["по","ло"],["ци","он"],["в","я"],["и","ме"],["р","ен"],["об","ла"],["л","ет"],["ор","га"],["г","да"],["е","к"],["фор","ма"],["ка","за"],["б","от"],["об","ра"],["т","ра"],["те","о"],["ста","вля"],["т","ри"],["спо","соб"],["исполь","зу"],["го","ри"],["от","но"],["но","м"],["но","е"],["ств","ен"],["по","з"],["щ","а"],["с","ли"],["вы","х"],["об","ы"],["про","ст"],["систем","ы"],["г","ла"],["ко","й"],["т","ро"],["ли","чи"],["с","вя"],["а","ль"],["ени","и"],["со","з"],["ст","ру"],["э","ти"],["исполь","зо"],["кото","ро"],["на","ча"],["слу","ча"],["в","ё"],["ри","я"],["вы","е"],["во","л"],["в","то"],["ри","и"],["п","ло"],["и","м"],["врем","я"],["л","енно"],["меж","ду"],["си","сте"],["т","ре"],["д","ет"],["пе","ра"],["ст","у"],["ле","й"],["ком","п"],["ма","с"],["ж","д"],["сре","д"],["чер","ка"],["ло","в"],["e","r"],["ч","ение"],["на","ко"],["от","вет"],["да","р"],["п","ы"],["л","ения"],["п","ря"],["со","в"],["ос","но"],["чески","х"],["прост","ран"],["во","лю"],["со","л"],["со","стоя"],["х","и"],["не","е"],["с","ка"],["е","ди"],["ра","бо"],["я","зы"],["ро","вать"],["те","м"],["то","ч"],["боль","ши"],["в","у"],["до","л"],["которы","х"],["э","волю"],["ча","сти"],["дан","ных"],["из","ве"],["ющи","х"],["ж","ения"],["ни","х"],["ра","бот"],["бы","ть"],["дей","стви"],["ш","о"],["вё","з"],["з","вёз"],["то","лько"],["з","ем"],["к","ро"],["д","ви"],["к","ры"],["к","ли"],["о","ни"],["соз","да"],["ни","ка"],["я","т"],["н","енно"],["па","ра"],["ени","ю"],["о","на"],["е","сть"],["на","зыва"],["из","мен"],["ль","та"],["ча","ст"],["зу","льта"],["к","ра"],["ре","зульта"],["раз","ви"],["ци","й"],["ни","ма"],["раз","ли"],["ин","форма"],["не","р"],["ал","гори"],["е","сли"],["то","го"],["на","б"],["к","ван"],["сле","до"],["чё","р"],["изве","ст"],["алгори","т"],["ческо","й"],["комп","ью"],["мен","ь"],["поз","во"],["ре","а"],["ени","ем"],["ин","те"],["к","ту"],["ка","ж"],["е","ё"],["за","да"],["ме","то"],["наб","лю"],["с","ер"],["о","в"],["од","нако"],["ос","об"],["э","лек"],["ос","нов"],["пе","ди"],["ф","е"],["пра","ви"],["к","ри"],["ма","те"],["ну","т"],["орга","низ"],["чи","та"],["ски","й"],["1","0"],["за","ви"],["ч","ных"],["ста","н"],["вер","х"],["ди","на"],["де","ль"],["ем","ы"],["жи","во"],["клю","ча"],["ю","ще"],["ве","д"],["ско","ль"],["ст","ра"],["ис","ку"],["мо","в"],["ло","ве"],["рабо","та"],["ству","ет"],["че","лове"],["в","з"],["в","ра"],["воз","мож"],["вы","чис"],["ля","гу"],["мен","та"],["на","и"],["об","у"],["у","ров"],["м","я"],["ре","ш"],["ф","о"],["у","ю"],["ки","х"],["сет","и"],["n","t"],["о","пера"],["че","ре"],["а","на"],["де","ли"],["кван","то"],["мо","й"],["те","х"],["бо","р"],["бы","ла"],["бы","ло"],["и","мо"],["ин","тер"],["пу","ля"],["систе","ма"],["звёз","д"],["м","ного"],["ющи","е"],["г","е"],["ци","ю"],["про","ис"],["т","ен"],["чески","й"],["сте","й"],["на","з"],["ни","и"],["со","дер"],["со","ответ"],["по","пуля"],["a","r"],["ан","г"],["ви","ки"],["ис","следо"],["л","ён"],["ра","я"],["ско","ро"],["ж","ение"],["иску","с"],["ко","ло"],["мер","ку"],["об","о"],["отно","си"],["боль","шо"],["ма","ши"],["я","х"],["20","0"],["галакти","ки"],["живо","т"],["пере","да"],["инте","л"],["интел","лек"],["мно","ги"],["с","чита"],["это","м"],["ё","м"],["во","д"],["о","пис"],["ти","г"],["сле","ду"],["ч","енно"],["б","ло"],["ст","ве"],["ко","гда"],["ме","ха"],["в","за"],["вл","ения"],["по","мо"],["ф","из"],["че","м"],["а","р"],["сто","ро"],["т","ран"],["бы","ли"],["про","из"],["явля","ются"],["u","t"],["ро","вания"],["физ","и"],["са","м"],["ц","ы"],["ческо","го"],["ва","я"],["д","нк"],["д","ре"],["зави","си"],["то","р"],["об","ще"],["ходи","т"],["ше","й"],["это","го"],["вики","педи"],["л","ение"],["кти","в"],["гру","п"],["вза","имо"],["о","ди"],["со","ставля"],["ли","бо"],["ма","ти"],["ственно","го"],["х","е"],["чески","е"],["э","к"],["элек","тро"],["бы","л"],["пред","ста"],["щ","ения"],["стру","кту"],["a","t"],["вать","ся"],["по","я"],["си","н"],["други","х"],["ка","х"],["объ","ек"],["i","x"],["с","вет"],["кото","рая"],["врем","ени"],["во","ди"],["гру","жен"],["т","ру"],["д","ис"],["позво","ля"],["ра","к"],["вы","со"],["до","м"],["об","е"],["ни","к"],["случа","е"],["ш","ен"],["ши","ро"],["вре","мен"],["ко","ли"],["при","мен"],["стан","дар"],["которы","й"],["за","ции"],["ней","ро"],["о","ста"],["п","ти"],["коли","че"],["c","o"],["анг","л"],["в","ши"],["ве","личи"],["во","го"],["д","ли"],["и","сто"],["ко","го"],["ль","ных"],["н","ения"],["вы","й"],["ни","м"],["ма","г"],["дина","ми"],["ска","я"],["в","не"],["ва","ет"],["на","д"],["функ","ции"],["ни","й"],["с","мо"],["х","от"],["а","вто"],["в","ключа"],["о","коло"],["обы","чно"],["са","мо"],["таки","х"],["зо","ва"],["ли","сь"],["не","которые"],["г","ло"],["образо","м"],["пла","нет"],["сол","н"],["о","ши"],["т","я"],["э","та"],["это","му"],["бу","дет"],["ме","й"],["ро","д"],["ци","а"],["на","у"],["щи","й"],["ё","т"],["бе","з"],["ви","д"],["после","д"],["т","вер"],["цен","тра"],["во","с"],["де","ла"],["ха","рак"],["ч","ный"],["ви","дов"],["ль","ный"],["наблю","да"],["ри","й"],["ро","ва"],["что","бы"],["u","n"],["пе","ри"],["фи","ка"],["э","нер"],["э","ф"],["к","ре"],["к","си"],["кла","сси"],["на","ру"],["наи","более"],["ность","ю"],["па","р"],["ско","лько"],["таки","е"],["б","ле"],["ва","ется"],["г","де"],["кру","п"],["льно","го"],["тельно","сти"],["ча","сто"],["o","r"],["в","с"],["ло","м"],["у","мень"],["за","д"],["мо","з"],["свя","за"],["ча","сть"],["вер","си"],["вл","ение"],["ет","и"],["про","то"],["ти","я"],["ч","ной"],["20","1"],["вы","пол"],["от","кры"],["гра","фи"],["п","ин"],["по","ч"],["раз","ме"],["то","й"],["ты","й"],["у","ни"],["0","0"],["го","д"],["енно","й"],["ло","сь"],["маг","ни"],["по","верх"],["под","дер"],["таки","м"],["до","сту"],["ря","д"],["ти","в"],["то","чно"],["ход","я"],["би","о"],["рас","простран"],["си","м"],["сло","ж"],["эти","х"],["е","сте"],["ч","у"],["б","ра"],["зна","чи"],["о","й"],["обе","спе"],["опреде","лён"],["дан","ные"],["дру","го"],["име","ет"],["с","но"],["чере","з"],["больши","н"],["ви","та"],["до","ста"],["компью","те"],["ству","ют"],["ч","ные"],["щ","ен"],["a","n"],["го","ло"],["которо","й"],["м","ле"],["н","ци"],["ст","ре"],["ф","ер"],["че","й"],["я","ми"],["ка","че"],["л","ли"],["у","да"],["г","ви"],["е","в"],["име","ют"],["мен","т"],["ш","ь"],["щи","х"],["ющи","й"],["d","o"],["ч","ет"],["эволю","ции"],["энер","ги"],["это","й"],["ва","ж"],["все","го"],["д","ву"],["рас","стоя"],["бо","ра"],["мо","сти"],["пин","гви"],["р","ения"],["со","об"],["х","ран"],["чен","ь"],["ка","ми"],["ком","пи"],["не","сколько"],["об","ходи"],["реа","ли"],["су","т"],["ч","ного"],["гру","женно"],["ж","из"],["о","чень"],["по","сколь"],["полу","чи"],["поль","зова"],["посколь","ку"],["ро","вание"],["со","гла"],["взаимо","действи"],["ма","нен"],["од","ной"],["помо","щ"],["со","м"],["фо","то"],["ща","я"],["e","t"],["o","n"],["дол","ж"],["са","мы"],["фа","й"],["юще","й"],["ки","е"],["ма","н"],["ма","р"],["магни","т"],["помощ","ью"],["про","бле"],["с","ла"],["те","ля"],["г","ром"],["други","е"],["щ","ение"],["боль","ше"],["гра","ни"],["ки","й"],["не","обходи"],["но","логи"],["те","к"],["воз","можно"],["все","х"],["мерку","рия"],["обла","сти"],["суще","ствует"],["у","з"],["м","л"],["од","но"],["ва","л"],["с","вой"],["ство","м"],["фор","ми"],["ци","аль"],["ви","де"],["е","щ"],["ещ","ё"],["объ","я"],["па","мя"],["ти","е"],["ти","па"],["это","т"],["оди","н"],["по","этому"],["ра","ди"],["со","времен"],["тех","нологи"],["хо","жд"],["хот","я"],["гра","вита"],["интер","нет"],["не","го"],["раз","мер"],["со","зна"],["у","сло"],["-","за"],["н","ение"],["ше","к"],["б","ла"],["в","лен"],["ве","з"],["ве","ли"],["ко","е"],["лягу","ш"],["об","и"],["тео","рия"],["w","in"],["во","е"],["зо","н"],["информа","ции"],["ко","не"],["на","пра"],["результа","те"],["содер","жа"],["тер","мо"],["це","п"],["ле","ку"],["ст","ы"],["ша","я"],["компи","ля"],["кри","п"],["раз","де"],["ген","ов"],["ды","ры"],["использу","ется"],["ком","ет"],["ль","ные"],["на","чи"],["особ","енно"],["по","ля"],["пря","ден"],["чё","т"],["a","l"],["ви","да"],["д","ва"],["ка","р"],["кро","ме"],["лу","ны"],["при","ня"],["работ","ы"],["с","пи"],["ско","го"],["те","лей"],["я","д"],["ана","ли"],["енно","го"],["компью","тер"],["ку","ю"],["мен","е"],["мо","леку"],["прото","ко"],["то","к"],["щи","е"],["д","ж"],["досту","п"],["пер","вые"],["ра","ст"],["термо","динами"],["э","ле"],["m","e"],["г","лу"],["на","ходи"],["ни","ки"],["организ","мов"],["п","ру"],["програм","мы"],["ста","нов"],["су","р"],["да","же"],["к","т"],["об","нару"],["по","ле"],["ра","ми"],["скоро","сть"],["o","s"],["вани","и"],["во","ло"],["д","ь"],["из","-за"],["из","у"],["ли","я"],["не","которых"],["википеди","и"],["позволя","ет"],["со","ста"],["тео","рии"],["l","in"],["д","об"],["к","ле"],["ко","р"],["опис","а"],["от","дель"],["по","в"],["пра","кти"],["пред","ставля"],["при","зна"],["фор","му"],["ди","а"],["интеллек","та"],["искус","ственного"],["кру","г"],["ла","сь"],["н","ных"],["ре","сур"],["те","ле"],["че","ская"],["во","ро"],["вы","де"],["опера","цион"],["под","об"],["раз","работ"],["ро","ван"],["у","чё"],["усло","ви"],["ши","х"],["ген","ети"],["за","ря"],["лю","бо"],["опреде","ля"],["по","р"],["ро","й"],["соб","ой"],["вани","й"],["до","ва"],["ро","да"],["с","с"],["сол","не"],["суще","ство"],["у","же"],["ве","ро"],["ка","зыва"],["количе","ство"],["проис","ходит"],["ро","и"],["ста","ть"],["те","ла"],["пло","т"],["после","дова"],["про","ек"],["се","мей"],["ско","й"],["ствен","ный"],["ж","да"],["личи","е"],["ль","ной"],["лягу","шек"],["мо","дели"],["составля","ет"],["тер","ми"],["то","н"],["у","рав"],["do","w"],["win","dow"],["вы","ми"],["вы","ра"],["зем","ли"],["к","э"],["ми","лли"],["ми","р"],["не","м"],["оши","б"],["ски","х"],["солн","ца"],["s","-"],["б","ер"],["к","ло"],["каж","до"],["которо","го"],["мно","же"],["син","те"],["19","9"],["d","e"],["го","лов"],["живот","ных"],["ла","га"],["ли","шь"],["н","ные"],["отно","ш"],["при","ме"],["при","нци"],["ра","м"],["ро","т"],["у","пра"],["er","-"],["в","нут"],["вычис","ли"],["жиз","ни"],["за","про"],["зна","чения"],["к","то"],["мате","мати"],["о","грани"],["сле","д"],["из","обра"],["л","ся"],["ленно","й"],["ма","ненно"],["па","да"],["пара","мет"],["процес","с"],["ши","ф"],["un","ix"],["енно","е"],["и","т"],["ка","н"],["но","ви"],["о","к"],["у","част"],["window","s"],["а","сте"],["асте","рои"],["д","во"],["ми","ни"],["пере","д"],["пу","ти"],["ш","-"],["-","х"],["t","e"],["u","x"],["бло","к"],["ва","ют"],["и","но"],["к","м"],["ка","я"],["ма","три"],["многи","е"],["объя","с"],["орга","ни"],["сет","ь"],["стандар","т"],["тельно","сть"],["вани","ем"],["ж","ений"],["з","е"],["наблю","д"],["раз","ных"],["ро","сси"],["со","еди"],["че","го"],["ал","ле"],["в","ме"],["внут","рен"],["возмож","ность"],["вы","м"],["вы","ше"],["жи","т"],["мене","е"],["образо","вания"],["рас","поло"],["сто","й"],["челове","ка"],["чёр","ной"],["lin","ux"],["веро","ят"],["жи","ть"],["зна","чение"],["многи","х"],["обу","чения"],["по","ко"],["р","ё"],["в","ход"],["вне","ш"],["во","круг"],["каче","стве"],["кото","ром"],["ма","сси"],["на","зад"],["образ","у"],["пу","бли"],["согла","сно"],["сре","ди"],["ствен","ных"],["я","м"],["p","ar"],["p","ut"],["ве","ще"],["выпол","ня"],["ен","о"],["относи","тельно"],["по","те"],["рав","но"],["разли","чных"],["ты","х"],["язы","ка"],["а","п"],["вра","ща"],["ко","пи"],["крип","то"],["лу","ч"],["пис","а"],["поверх","ности"],["при","ро"],["т","ём"],["ть","ю"],["в","ле"],["ви","ди"],["ж","ден"],["ж","у"],["кванто","вой"],["функ","ция"],["го","во"],["з","рения"],["не","сколь"],["ор","би"],["осно","ве"],["от","сут"],["ре","м"],["с","рав"],["свя","зи"],["сто","ит"],["чис","ло"],["бу","ду"],["пря","д"],["ре","т"],["с","м"],["свет","а"],["сте","п"],["те","й"],["ча","ет"],["до","сти"],["ино","гда"],["каж","ды"],["ки","сло"],["ко","д"],["по","лага"],["по","стоя"],["щ","ем"],["по","вед"],["ст","ри"],["функ","ци"],["харак","тер"],["ще","е"],["i","c"],["t","s-"],["во","до"],["дву","х"],["енно","м"],["мен","тов"],["н","ный"],["на","стоя"],["называ","ется"],["но","ми"],["по","ня"],["при","ло"],["процес","со"],["сер","ве"],["состоя","ния"],["т","ет"],["тре","бу"],["ш","ую"],["большо","й"],["гравита","цион"],["емы","х"],["которо","е"],["мо","сть"],["но","вых"],["о","кру"],["памя","ти"],["с","ми"],["ста","нови"],["хе","ш-"],["ц","ов"],["0","-х"],["алгорит","м"],["ве","сти"],["ко","да"],["ля","р"],["меха","низ"],["наз","вание"],["оби","та"],["уров","ня"],["х","ро"],["ческо","е"],["ши","е"],["г","ре"],["галакти","к"],["л","ений"],["од","ним"],["по","каза"],["стро","й"],["т","во"],["те","ли"],["у","каза"],["ц","у"],["черка","в"],["e","n"],["ва","ри"],["од","ного"],["примен","я"],["случа","й"],["смо","т"],["част","ности"],["i","p"],["o","ut"],["ап","пара"],["ба","й"],["бла","года"],["благода","ря"],["за","тем"],["ис","ход"],["м","ени"],["ма","я"],["н","га"],["пол","ни"],["реш","ения"],["са","ми"],["стви","е"],["суще","ств"],["эк","спе"],["энерги","и"],["s","er-"],["а","стро"],["доста","точно"],["измен","ения"],["мо","ло"],["му","та"],["о","м"],["от","бор"],["планет","ы"],["предста","ви"],["програм","ми"],["р","ь"],["с","пу"],["ю","щая"],["19","6"],["био","логи"],["льно","е"],["мате","ри"],["о","цен"],["па","с"],["по","сред"],["р","д"],["с","чёт"],["ти","гра"],["20","2"],["б","я"],["гори","зон"],["де","я"],["енно","му"],["зада","ч"],["к","лет"],["ка","м"],["находи","тся"],["но","му"],["постоя","н"],["с","ен"],["с","матри"],["свя","з"],["m","w"],["mw","-"],["а","да"],["большин","ство"],["ве","дер"],["з","вез"],["значи","тельно"],["ин","ди"],["ре","ше"],["систе","ме"],["те","ри"],["тиг","ров"],["ты","ся"],["функ","ций"],["х","во"],["i","i"],["out","put"],["а","ктив"],["во","м"],["исследо","вания"],["мет","а"],["на","ходя"],["от","де"],["пера","ту"],["при","води"],["тем","перату"],["ти","п"],["ё","тся"],["-","либо"],["в","но"],["ви","ды"],["емы","е"],["енно","ю"],["использу","ются"],["исто","ч"],["ки","ло"],["по","нима"],["по","тен"],["популя","ции"],["поя","ви"],["то","му"],["у","величи"],["ч","ь"],["чис","ле"],["ш","ем"],["экспе","ри"],["19","7"],["h","t"],["бли","з"],["друго","й"],["ен","т"],["ки","м"],["лягуш","ки"],["по","том"],["програм","м"],["сво","ей"],["се","бя"],["ско","п"],["тру","д"],["у","по"],["х","ло"],["ча","ется"],["ш","та"],["mw-","par"],["mw-par","ser-"],["mw-parser-","output"],["вычисли","тель"],["им","енно"],["кли","нен"],["ком","по"],["л","ла"],["л","ле"],["мето","д"],["моз","га"],["н","д"],["ни","ков"],["раз","работа"],["со","хран"],["та","кой"],["ти","во"],["чески","м"],["г","на"],["но","вые"],["ну","три"],["окру","жа"],["прави","ло"],["пре","до"],["с","дела"],["сер","вер"],["со","стоит"],["у","ти"],["i","on"],["а","т"],["в","лия"],["груп","пы"],["д","ве"],["дви","жения"],["дру","г"],["за","пу"],["кон","цеп"],["мас","са"],["нача","ла"],["обла","да"],["по","ис"],["простран","ства"],["ри","то"],["ся","т"],["тер","рито"],["то","л"],["э","ко"],["го","су"],["да","ль"],["ен","ь"],["ну","ть"],["обра","бот"],["объ","еди"],["от","ли"],["поч","ти"],["разли","чные"],["тран","с"],["во","ды"],["все","мир"],["до","каза"],["ком","па"],["мо","мент"],["от","бора"],["п","ли"],["раз","мно"],["хо","де"],["эволю","цион"],["я","р"],["a","p"],["c","h"],["вани","ю"],["ве","ка"],["г","ля"],["госу","дар"],["дан","ным"],["использо","вать"],["мо","р"],["разви","тия"],["соответ","ству"],["те","ло"],["те","ра"],["точ","ки"],["ба","к"],["в","нутри"],["клю","ч"],["ко","сми"],["ни","ми"],["о","существ"],["организ","ма"],["по","ли"],["поддер","ж"],["рас","преде"],["рас","ши"],["ро","ль"],["ски","е"],["стви","и"],["ство","вать"],["сторо","ны"],["тель","ный"],["ф","ек"],["хи","ми"],["ч","ным"],["ш","ли"],["я","н"],["5","0"],["би","на"],["би","т"],["га","за"],["кла","д"],["коне","чно"],["л","ё"],["мен","а"],["несколь","ких"],["образо","вание"],["пар","се"],["рас","сматри"],["располо","жен"],["хо","ро"],["чи","во"],["i","a"],["б","ре"],["большо","го"],["во","про"],["гла","в"],["из","да"],["под","твер"],["пред","ло"],["с","каза"],["соб","ы"],["ста","р"],["та","м"],["ту","аль"],["фика","ции"],["ча","ются"],["бы","стро"],["взаимодействи","я"],["ви","до"],["глу","бо"],["компиля","то"],["ме","ст"],["мл","н"],["мо","го"],["настоя","щее"],["о","пти"],["обеспе","чи"],["обра","т"],["си","гна"],["у","станов"],["фе","ктив"],["хи","щ"],["эф","фектив"],["r","e"],["s","i"],["за","ко"],["из","мер"],["кажды","й"],["крипто","графи"],["ле","г"],["ни","ю"],["опис","ы"],["пери","од"],["ре","з"],["с","к"],["ти","й"],["ция","х"],["ш","у"],["язы","к"],["а","б"],["а","дре"],["до","полни"],["долж","ны"],["ли","й"],["ли","ть"],["мас","сы"],["мо","дель"],["мы","ш"],["н","ь"],["называ","ют"],["не","зависи"],["пере","мен"],["поддер","жи"],["раз","у"],["с","фе"],["спо","р"],["те","пло"],["фи","ло"],["ци","ей"],["б","ри"],["все","ленной"],["д","ро"],["е","ра"],["к","ва"],["мен","ты"],["на","се"],["начи","на"],["ни","ть"],["п","лен"],["пла","т"],["пол","ностью"],["про","тиво"],["ради","у"],["распростран","ён"],["ре","ги"],["ро","ди"],["ру","ется"],["с","ве"],["сло","ва"],["те","чение"],["ти","пов"],["тью","ри"],["у","г"],["у","спе"],["у","твер"],["фи","ци"],["бе","с"],["вл","ении"],["вс","ё"],["д","обы"],["ды","р"],["кон","тро"],["лы","х"],["мето","да"],["на","й"],["на","х"],["обла","сть"],["од","на"],["ошиб","ки"],["пингви","нов"],["про","дол"],["програм","ма"],["пы","т"],["сво","ю"],["систем","у"],["ско","м"],["сто","л"],["эф","фек"],["p","h"],["u","r"],["блок","чей"],["больши","х"],["в","стре"],["википеди","я"],["вычис","ления"],["и","де"],["использо","вание"],["мо","е"],["на","ми"],["пре","ду"],["при","чи"],["ре","д"],["спи","ра"],["сы","па"],["тыся","ч"],["чис","ла"],["чёр","ных"],["ш","ло"],["элек","три"],["ба","ты"],["доб","а"],["жен","ный"],["за","щи"],["зависи","мости"],["к","ни"],["к","нов"],["ко","рот"],["ме","ри"],["множе","ство"],["при","способ"],["р","ение"],["структу","ры"],["суще","ствуют"],["тео","ре"],["фото","синте"],["хо","да"],["части","ц"],["э","й"],["_","{"],["f","t"],["r","o"],["алгорит","ма"],["би","бли"],["библи","о"],["вра","щения"],["г","ер"],["други","ми"],["жи","л"],["зада","чи"],["из","лу"],["ло","ка"],["о","но"],["оши","бо"],["переда","чи"],["пи","си"],["по","зна"],["поз","д"],["при","нима"],["произ","о"],["рам","ках"],["с","мы"],["созда","ния"],["та","х"],["ход","ят"],["c","e"],["во","да"],["го","дов"],["до","к"],["жд","ения"],["и","му"],["иму","ще"],["любо","й"],["мл","рд"],["о","каза"],["по","стро"],["ру","с"],["скоро","сти"],["сре","ды"],["ст","ях"],["ста","ла"],["я","тся"],["c","p"],["t","h"],["ар","хи"],["б","ря"],["в","первые"],["вме","сте"],["вы","з"],["ги","поте"],["года","х"],["дан","ный"],["з","ме"],["использу","ют"],["комп","лек"],["ма","кси"],["наблюд","ения"],["о","ри"],["о","то"],["особ","ей"],["при","бли"],["пример","но"],["проис","хожд"],["процес","са"],["состоя","ние"],["счита","ется"],["тео","ри"],["харак","тери"],["1","8"],["19","8"],["авто","мати"],["вы","ход"],["за","ция"],["ленно","сть"],["ма","кро"],["мас","со"],["мен","я"],["мет","ь"],["н","ка"],["нача","льно"],["ня","я"],["по","ряд"],["пре","имуще"],["пред","поло"],["р","нк"],["ра","х"],["сво","бо"],["си","льно"],["следу","ет"],["сооб","щения"],["хло","ро"],["чет","ы"],["-","то"],["а","ли"],["включа","я"],["воз","ник"],["ген","о"],["дис","ка"],["женно","й"],["з","я"],["за","пис"],["кли","ненно"],["ко","нк"],["конк","рет"],["ль","ная"],["ля","ется"],["мас","шта"],["нача","ле"],["ну","ж"],["по","да"],["по","ка"],["по","ро"],["рё","х"],["са","й"],["сло","во"],["содер","жи"],["стра","ни"],["тре","ть"],["це","в"],["ча","ще"],["черка","вши"],["эле","мента"],["1","6"],["а","ми"],["бак","те"],["ва","ются"],["е","мой"],["ж","ении"],["жен","ная"],["з","м"],["и","меть"],["информа","цию"],["маши","н"],["мо","щ"],["на","шей"],["ни","же"],["о","нов"],["отдель","ных"],["относи","тельности"],["п","я"],["полу","чен"],["популя","р"],["процес","се"],["ре","ша"],["росси","и"],["свой","ства"],["сим","во"],["со","врем"],["созна","ние"],["тре","бо"],["уров","ень"],["фор","мы"],["at","ion"],["t","p"],["б","ро"],["ва","ли"],["есте","ственного"],["жен","ных"],["за","нима"],["клю","чи"],["ком","бина"],["лен","ы"],["мень","ше"],["мет","и"],["па","ути"],["полу","ча"],["практи","чески"],["про","ду"],["сет","ей"],["со","вер"],["сто","в"],["тиг","р"],["у","казыва"],["у","строй"],["у","чи"],["ф","ра"],["щ","ую"],["ана","логи"],["во","льно"],["воз","ра"],["возмож","ности"],["го","р"],["жен","ные"],["жен","ными"],["и","гра"],["ис","ко"],["исследо","ва"],["ко","ор"],["компо","нен"],["коор","дина"],["мет","ри"],["основ","ном"],["пингви","ны"],["равно","ве"],["разме","ра"],["реали","зации"],["с","ша"],["се","вер"],["се","й"],["смот","ря"],["ста","ти"],["та","ми"],["то","гда"],["умень","ш"],["ци","она"],[",","5"],["h","o"],["библио","те"],["вари","ан"],["веще","ства"],["вол","ков"],["емы","й"],["зависи","т"],["к","ции"],["ла","х"],["масси","в"],["маши","ны"],["н","ению"],["ни","ем"],["ну","кле"],["о","чере"],["обеспе","чения"],["от","во"],["от","личие"],["пере","ход"],["предо","ставля"],["про","сто"],["программи","рования"],["произ","води"],["ре","й"],["ру","ет"],["терми","н"],["ты","е"],["тьюри","нга"],["уни","верси"],["хро","мо"],["ющи","м"],["co","m"],["d","n"],["n","o"],["x","t"],["архи","те"],["архите","кту"],["ве","се"],["вз","ры"],["воз","ника"],["выми","ра"],["звёз","ды"],["использо","вания"],["лы","е"],["льно","сть"],["меха","ни"],["не","смотря"],["п","та"],["ра","нее"],["раз","но"],["самы","х"],["ственно","й"],["ще","й"],["э","н"],["t","cp"],["вы","ша"],["ем","у"],["ки","ми"],["ме","л"],["мо","м"],["нов","рем"],["обнару","жен"],["объек","тов"],["од","новрем"],["по","м"],["по","ста"],["пред","полага"],["расстоя","ние"],["ровать","ся"],["ру","ю"],["си","ть"],["спе","циаль"],["сто","м"],["стол","кнов"],["су","м"],["счита","ть"],["тран","спор"],["широ","ко"],["l","i"],["ви","ду"],["голо","ва"],["гра","ди"],["еди","н"],["измен","я"],["ки","та"],["кла","с"],["ме","д"],["пра","в"],["солне","чной"],["спе","циа"],["ти","ть"],["у","до"],["уров","не"],["хоро","шо"],["электро","магнит"],["эти","м"],["юще","го"],["юще","е"],["яд","ра"],["m","a"],["v","er"],["аппара","т"],["ба","г"],["воз","ду"],["все","гда"],["вто","рой"],["дво","ен"],["жа","ть"],["ла","ми"],["лен","ных"],["мате","рии"],["мерку","рий"],["н","да"],["на","след"],["на","сторо"],["па","д"],["по","сту"],["представля","ет"],["процес","сы"],["ра","й"],["раст","ений"],["ре","гу"],["семей","ства"],["ста","ли"],["технологи","и"],["тиг","ры"],["требу","ется"],["фа","кто"],["форму","ли"],["х","ра"],["язы","ке"],["3","0"],["at","h"],["e","c"],["e","d"],["алле","лей"],["вол","ки"],["груп","па"],["де","ре"],["дру","га"],["зем","ле"],["к","г"],["ль","ным"],["лю","дей"],["ми","кро"],["ми","ра"],["о","публи"],["объек","ты"],["опубли","ко"],["осно","ван"],["по","гло"],["сво","и"],["собы","тий"],["ст","ями"],["тра","ди"],["ф","ри"],["1","2"],["ht","tp"],["r","an"],["алгорит","мов"],["алгорит","мы"],["бе","л"],["ве","б"],["вы","пу"],["дан","ной"],["жен","ным"],["зна","ч"],["копи","та"],["ме","сти"],["ми","на"],["мле","копита"],["одноврем","енно"],["ос","ве"],["п","ленно"],["пу","тём"],["рас","позна"],["связа","н"],["си","в"],["случа","ях"],["со","ро"],["соста","в"],["спе","к"],["та","кого"],["умень","шен"],["ше","е"],["ше","л"],["ще","го"],["экспери","мента"],["10","0"],["in","g"],["in","t"],["ада","пта"],["боль","шая"],["больши","е"],["буду","т"],["во","к"],["вол","к"],["га","ло"],["га","ть"],["галакти","ка"],["дол","го"],["женно","го"],["з","ву"],["исследо","ваний"],["компьюте","ров"],["ку","р"],["о","зна"],["опреде","ления"],["определя","ется"],["основ","ной"],["пара","лле"],["пер","вый"],["поз","же"],["приводи","т"],["процес","сов"],["пу","ть"],["пы","та"],["раз","ные"],["ре","да"],["реш","ение"],["ру","ют"],["с","ни"],["сред","ства"],["ту","а"],["универси","тет"],["ц","вет"],["ь","е"],[".","mw-parser-output"],["e","nt"],["t","i"],["а","в"],["а","мери"],["в","ла"],["воло","чен"],["ге","о"],["дви","жу"],["дре","в"],["ев","ро"],["жен","ную"],["женно","е"],["и","ю"],["из","о"],["ла","т"],["мето","ды"],["мле","чного"],["н","ений"],["н","ю"],["на","бор"],["но","вой"],["отно","ся"],["расстоя","ния"],["ру","ются"],["свобо","д"],["связ","ь"],["созна","ния"],["спе","ци"],["тради","цион"],["фило","со"],["х","ла"],["части","цы"],["ю","ж"],["n","et"],["p","a"],["а","ри"],["ви","р"],["возник","нов"],["вол","ка"],["ву","ю"],["вши","й"],["вычис","лений"],["за","голо"],["извест","но"],["интеллек","т"],["кли","ен"],["ко","сти"],["кото","рую"],["ли","н"],["лу","на"],["ме","ся"],["меха","ники"],["на","по"],["осно","ва"],["посред","ством"],["при","ве"],["раз","ре"],["современ","ных"],["соответ","ственно"],["ствен","ным"],["сти","ки"],["ф","ей"],["це","поч"],["ци","ф"],["ч","ными"],["эволю","ция"],["l","o"],["а","м"],["бе","зо"],["в","ен"],["вероят","но"],["вё","р"],["го","ла"],["даль","ней"],["дан","ного"],["женно","м"],["женно","му"],["женно","ю"],["ин","стру"],["интернет","а"],["ис","пол"],["к","с"],["кон","це"],["которы","м"],["ля","х"],["милли","ар"],["на","м"],["о","кон"],["о","ти"],["об","об"],["окружа","ющей"],["организ","мы"],["ошибо","к"],["па","ри"],["по","то"],["позво","ли"],["ресур","сов"],["реше","чен"],["ро","с"],["сооб","щение"],["соро","ка"],["ствен","ные"],["стру","нен"],["тель","ство"],["тран","за"],["успе","ш"],["ч","ная"],["ше","го"],["e","m"],["x","x"],["вир","туаль"],["все","й"],["дели","ть"],["до","вольно"],["живот","ные"],["зме","и"],["интер","фей"],["использу","ет"],["кванто","вая"],["комет","ы"],["лен","ные"],["на","ря"],["о","ку"],["об","ре"],["очере","дь"],["пи","та"],["пользова","тель"],["предста","вления"],["с","фер"],["сет","е"],["система","х"],["состоя","нии"],["структу","р"],["существо","вание"],["тель","ной"],["тель","ные"],["террито","рии"],["то","ра"],["фер","ен"],["хлоро","фи"],["ча","ть"],["чен","ы"],["чиво","сть"],["ш","ения"],["ши","й"],["ши","м"],["ющи","ми"],["b","s"],["te","xt"],["бло","ков"],["веб","-"],["го","м"],["да","ёт"],["дис","к"],["долж","на"],["з","мей"],["зна","мен"],["зы","вать"],["и","д"],["к","ет"],["каждо","й"],["лен","о"],["при","вести"],["при","сут"],["прост","ы"],["простран","ство"],["работ","у"],["с","ем"],["с","ме"],["ско","пи"],["способ","ность"],["ста","ди"],["стать","и"],["т","рёх"],["ти","ки"],["у","гло"],["це","ло"],["э","ту"],["ap","i"],["dn","s"],["m","ath"],["ат","мо"],["бе","ре"],["большо","е"],["в","нима"],["ви","дет"],["воро","б"],["вы","жи"],["выде","ля"],["гло","ба"],["ды","ра"],["искус","ственный"],["лы","й"],["мет","ал"],["мет","ров"],["н","ём"],["на","личие"],["оку","не"],["опреде","лить"],["п","ле"],["пер","ь"],["под","ход"],["получи","ть"],["прило","жения"],["простран","стве"],["разви","ти"],["разви","тие"],["результа","ты"],["сам","цов"],["содер","жит"],["спу","т"],["ст","ран"],["ту","ман"],["цен","т"],["циа","льно"],["ческо","м"],["ш","тей"],["ющих","ся"],["19","5"],["me","nt"],["u","s"],["а","к"],["без","весе"],["большин","ства"],["в","до"],["ве","ду"],["вед","ён"],["всемир","ной"],["ген","е"],["го","в"],["гола","вле"],["горизон","та"],["диа","мет"],["до","ку"],["до","ма"],["други","м"],["евро","пе"],["есте","ственный"],["и","ми"],["к","рас"],["кло","педи"],["круп","ных"],["ла","н"],["лен","ная"],["ме","сто"],["мето","дов"],["мле","чный"],["мо","ду"],["молеку","ляр"],["над","ле"],["наз","вания"],["находя","тся"],["нача","ло"],["нци","клопеди"],["обу","чение"],["объ","ё"],["объяс","ня"],["пер","ено"],["пери","о"],["писа","ть"],["пла","нер"],["повед","ение"],["полу","ведер"],["при","надле"],["при","ту"],["приме","ром"],["с","верх"],["си","туа"],["сорока","ведер"],["сред","ств"],["ст","ры"],["станови","тся"],["т","ка"],["та","н"],["те","л"],["фу","нда"],["хран","ения"],["ч","ка"],["щ","ён"],["э","нциклопеди"],["яд","ро"],["1","5"],["анали","за"],["бли","жа"],["ближа","й"],["боль","шую"],["верси","и"],["взаимодействи","е"],["вл","ением"],["во","сто"],["ген","а"],["д","р"],["дар","ви"],["дви","га"],["ден","ти"],["жд","ение"],["и","денти"],["информа","цион"],["ка","кой"],["каждо","го"],["ле","вой"],["лег","ко"],["ля","ции"],["милли","онов"],["мы","х"],["н","ной"],["не","ё"],["од","ном"],["операцион","ной"],["относи","тся"],["относя","тся"],["п","тен"],["пада","ет"],["програм","много"],["пу","ль"],["рова","ны"],["с","кую"],["срав","ни"],["та","бли"],["функци","они"],["ча","с"],["i","t"],["астерои","дов"],["ве","й"],["ви","ть"],["г","ли"],["га","зо"],["до","ро"],["за","голов"],["зо","не"],["информа","ция"],["использо","ва"],["использо","ванием"],["класси","ческой"],["ко","ль"],["ком","бай"],["лен","а"],["лен","ный"],["логи","и"],["ме","ре"],["мо","ди"],["мы","й"],["н","ная"],["п","си"],["по","тре"],["про","вер"],["про","тив"],["р","ных"],["результа","т"],["серве","ра"],["си","т"],["си","я"],["со","кра"],["составля","ют"],["сре","де"],["ста","л"],["ста","ло"],["тель","ных"],["транспор","т"],["ф","он"],["фи","ль"],["ца","ми"],["че","лю"],["четы","ре"],["00","0"],["3","2"],["безо","пас"],["в","ь"],["ве","сь"],["во","в"],["вы","вод"],["д","вой"],["дви","жение"],["зи","ровать"],["из","бе"],["излу","чения"],["им","пуль"],["клет","ки"],["ко","вых"],["ко","ди"],["моз","г"],["на","личи"],["не","доста"],["независи","мо"],["но","к"],["пер","во"],["по","-"],["поверх","ность"],["под","ви"],["пользова","телей"],["пре","выша"],["самы","м"],["сохран","я"],["т","ки"],["тво","р"],["теоре","ти"],["фунда","мента"],["эко","номи"],["2","5"],["бакте","рий"],["вл","ений"],["г","ро"],["дол","жен"],["за","писи"],["зада","ча"],["извест","ных"],["к","ер"],["кило","парсе"],["ко","вой"],["кра","й"],["л","ению"],["ль","ными"],["ма","ло"],["матери","а"],["маши","на"],["н","штей"],["на","род"],["о","гром"],["объ","ём"],["органи","зации"],["пер","вой"],["пер","вым"],["пло","ско"],["по","вто"],["по","й"],["по","се"],["под","вер"],["приро","де"],["ра","ть"],["разработ","ки"],["с","со"],["сло","ны"],["соответ","ствии"],["сре","до"],["структу","ра"],["сыпа","ть"],["та","р"],["так","со"],["теори","ю"],["то","поле"],["то","т"],["то","чен"],["у","вели"],["урав","нение"],["услови","ях"],["фа","кти"],["фай","ла"],["ча","й"],["ченно","го"],["чески","ми"],["чёр","ная"],["эй","нштей"],["b","o"],["e","l"],["g","o"],["анг","лий"],["взры","ва"],["ви","х"],["вме","сто"],["вши","х"],["гла","за"],["гу","б"],["дву","мя"],["дей","ствовать"],["дея","тельности"],["дли","на"],["ж","ением"],["же","ле"],["за","кон"],["ис","че"],["к","ция"],["ком","му"],["кор","ре"],["кра","т"],["ль","ю"],["макси","ма"],["моло","ды"],["ни","ца"],["ню","ю"],["обита","ния"],["обо","рот"],["от","ра"],["поня","тие"],["послед","ние"],["пред","сказа"],["прило","жений"],["примен","ения"],["пробле","м"],["произ","вод"],["ра","ство"],["ради","о"],["ре","чи"],["ред","ко"],["реш","ений"],["росси","й"],["с","форми"],["са","мой"],["сво","его"],["со","вет"],["со","к"],["со","обще"],["со","отнош"],["соб","ственно"],["соврем","енной"],["современ","ные"],["ст","ен"],["суще","ству"],["та","кое"],["функ","цию"],["функци","она"],["ченно","й"],["чё","м"],["я","вления"],["/","ip"],["tcp","/ip"],["астро","номи"],["вл","ению"],["вороб","ь"],["д","ней"],["до","пу"],["дре","й"],["ды","ду"],["источ","ника"],["к","ций"],["лен","ь"],["ли","ней"],["ли","тера"],["ме","ста"],["мо","де"],["напра","влении"],["не","до"],["необходи","мо"],["нукле","оти"],["описа","ние"],["опти","ми"],["орби","ты"],["па","кет"],["парамет","ров"],["пла","ни"],["по","хо"],["помо","щи"],["последова","тельности"],["последова","тельность"],["прави","ла"],["пре","дыду"],["преду","бе"],["приро","ды"],["проек","та"],["ра","за"],["рабо","те"],["разно","образ"],["с","пари"],["с","ход"],["сво","их"],["сей","час"],["скоп","ления"],["скорость","ю"],["слу","жить"],["созда","ние"],["специа","ли"],["стви","я"],["стро","го"],["стру","ненно"],["сть","ю"],["тро","пи"],["тя","бря"],["у","стой"],["утвер","жда"],["ф","ран"],["физи","ки"],["часть","ю"],["челове","к"],["шиф","рования"],["a","s"],["g","n"],["ix","-"],["ts-","переход"],["анали","з"],["ве","ден"],["ве","с"],["включа","ет"],["во","де"],["во","ду"],["воз","враща"],["воз","действи"],["вы","гля"],["ген","ы"],["гово","ря"],["да","я"],["дан","ном"],["ды","ха"],["ж","де"],["ж","ё"],["за","ключа"],["зо","ван"],["изобра","жений"],["ка","на"],["ка","ри"],["кла","ды"],["количе","ства"],["ком","мер"],["концеп","ции"],["кра","те"],["л","л"],["лягуш","ка"],["ме","ц"],["ми","мо"],["на","писа"],["но","вый"],["но","стей"],["обо","ло"],["обработ","ки"],["особ","и"],["особенно","сти"],["плот","ность"],["по","вы"],["по","зи"],["по","пыт"],["подви","ж"],["предста","влен"],["примен","ение"],["раст","ения"],["смы","сле"],["спе","кт"],["ти","пы"],["упра","вления"],["учё","ных"],["ф","ено"],["ходи","ть"],["це","лом"],["це","пи"],["част","от"],["эк","с"],["1","3"],["f","o"],["g","le"],["w","i"],["а","зи"],["аб","сол"],["абсол","ют"],["астерои","да"],["выпол","нения"],["г","ри"],["дж","ер"],["диа","па"],["дома","ш"],["з","де"],["и","и"],["из","начально"],["извест","ны"],["измен","ение"],["измер","ения"],["изобра","жения"],["им","ени"],["к","тор"],["ко","ро"],["компьюте","ра"],["ме","ди"],["между","народ"],["ми","ре"],["молеку","лы"],["на","н"],["не","возможно"],["не","му"],["не","посред"],["нейро","нов"],["ни","ком"],["о","хот"],["обще","й"],["од","ну"],["озна","чает"],["п","ет"],["по","ток"],["позволя","ют"],["поло","ви"],["полу","чения"],["пользова","теля"],["популя","ция"],["пра","во"],["про","изве"],["пробле","ма"],["пробле","мы"],["произ","во"],["протоко","л"],["протоко","лов"],["размер","ы"],["ре","е"],["ре","жи"],["с","кре"],["са","жен"],["сам","ки"],["све","то"],["сло","й"],["стро","ки"],["тек","ста"],["термодинами","ки"],["тех","ни"],["транс","ля"],["у","м"],["у","ско"],["умень","ша"],["упра","вля"],["фика","ция"],["х","ле"],["хромо","сом"],["че","к"],["шел","ко"],["щ","ений"],["ю","щую"],[":","n"],["com","ment"],["p","si"],["s","yst"],["x","v"],["а","ген"],["больши","м"],["в","ли"],["ва","р"],["величи","на"],["вы","зыва"],["да","лее"],["дан","ными"],["ди","стри"],["дистри","бу"],["до","ви"],["друго","м"],["е","л"],["е","мого"],["ж","ён"],["жи","д"],["заключа","ется"],["звез","ды"],["использу","я"],["исто","ри"],["к","ров"],["ка","ть"],["кле","ток"],["ко","му"],["ко","ш"],["комму","ника"],["кре","п"],["круп","ные"],["ли","в"],["льно","сти"],["меж","звёзд"],["най","ден"],["не","я"],["ней","тра"],["операцион","ных"],["от","вер"],["отли","чается"],["п","ры"],["п","ь"],["па","ль"],["пер","вых"],["позд","нее"],["поряд","ка"],["при","клад"],["при","мени"],["про","хожд"],["проду","к"],["проек","т"],["ра","баты"],["расстоя","нии"],["с","не"],["се","бе"],["серве","ров"],["си","х"],["теле","ско"],["тельно","го"],["фор","ме"],["циф","ро"],["че","скую"],["ченно","е"],["чер","ты"],["чно","е"],["ю","щем"],["ян","ва"],["20","10"],["4","0"],["a","c"],["f","ix-"],["n","e"],["t","o"],["th","e"],["ts-","fix-"],["бе","ло"],["блокчей","н"],["ве","ке"],["включа","ют"],["вопро","с"],["гради","ент"],["д","ра"],["ден","ь"],["е","мая"],["жа","ет"],["жен","а"],["жи","ву"],["запро","с"],["и","е"],["ка","ли"],["ко","ман"],["ко","ми"],["ко","сть"],["ко","шен"],["компа","нии"],["логи","я"],["ма","й"],["ма","ла"],["млекопита","ющих"],["мор","фо"],["му","ю"],["мута","ции"],["начи","ная"],["не","ль"],["нейро","нных"],["об","я"],["образу","ют"],["обще","го"],["обя","за"],["отво","рен"],["па","н"],["памя","ть"],["пер","вая"],["пер","вого"],["плот","ности"],["по","вез"],["по","степ"],["повед","ения"],["поло","ж"],["пред","на"],["представля","ют"],["при","вод"],["про","води"],["работа","ть"],["раз","личи"],["раз","нен"],["распреде","лён"],["с","начала"],["с","сы"],["само","стоя"],["се","чен"],["солн","цу"],["срав","нению"],["стандарт","ной"],["та","кая"],["тво","рен"],["ты","м"],["х","ва"],["ци","ал"],["чно","м"],["чёр","ные"],["ши","ть"],["щен","а"],["щи","м"],["1","7"],["o","ft"],["r","os"],["}",".mw-parser-output"],["биологи","и"],["вто","ро"],["вы","бор"],["вы","с"],["высо","кой"],["га","з"],["галакти","ке"],["ет","во"],["за","мет"],["за","па"],["из","мени"],["измен","чивость"],["им","я"],["использо","вал"],["исто","рии"],["каж","дая"],["ко","эф"],["кон","ца"],["коэф","фици"],["ку","ль"],["льно","м"],["механиз","м"],["мо","мента"],["на","вли"],["на","пис"],["наз","ван"],["напра","вления"],["но","р"],["о","пас"],["облада","ют"],["объек","та"],["оди","нако"],["ос","во"],["основ","ным"],["п","ят"],["по","кры"],["по","тому"],["прибли","зи"],["раз","рабаты"],["связа","нных"],["си","лы"],["сла","бо"],["сов","мести"],["сси","и"],["сто","вер"],["сторо","н"],["сту","па"],["теле","м"],["ту","ре"],["у","су"],["уг","ле"],["ч","ением"],["ш","ла"],["ща","ется"],["200","8"],["6","0"],["bs","d"],["f","or"],["syst","em"],["{","b"],["авто","ма"],["адре","са"],["алле","ли"],["амери","кан"],["ба","х"],["бай","т"],["бра","уз"],["в","клю"],["ва","х"],["видо","образования"],["внима","ние"],["вы","мер"],["ги","бри"],["государ","ства"],["гром","ленно"],["действи","й"],["дере","вь"],["ди","ть"],["за","пер"],["звез","до"],["ин","тен"],["инди","й"],["ка","ции"],["кита","й"],["класси","фикации"],["комбина","ции"],["комет","а"],["комплек","с"],["кре","ст"],["л","ки"],["ли","нии"],["ли","цен"],["лицен","зи"],["ло","ко"],["мас","с"],["множе","ства"],["н","ки"],["н","ё"],["нель","зя"],["ни","ж"],["нуж","но"],["о","стро"],["о","хо"],["обра","м"],["органи","за"],["осве","дом"],["осуществ","ляется"],["от","ве"],["по","лей"],["по","мимо"],["под","ре"],["подоб","ные"],["пол","ный"],["поло","жение"],["при","се"],["призна","ков"],["применя","ется"],["произве","д"],["произо","шли"],["ра","сто"],["раз","ря"],["разме","ром"],["рас","чё"],["ря","да"],["с","формули"],["с","чи"],["се","ре"],["систе","мой"],["скре","щи"],["следу","ющие"],["со","р"],["сов","мест"],["сред","нем"],["ста","тей"],["структу","ру"],["сты","й"],["счи","ты"],["тельно","е"],["тов","ую"],["увеличи","вает"],["урав","нения"],["фор","м"],["це","ли"],["ч","ении"],["ча","т"],["-","времени"],[".","1"],["1","1"],["19","3"],["d","ia"],["gn","u"],["ho","ver"],["l","t"],["on","e"],["а","ссо"],["а","то"],["ада","пти"],["адапта","ция"],["аль","тер"],["альтер","на"],["бо","га"],["в","ся"],["вед","ения"],["вероят","ность"],["вз","гля"],["во","обще"],["вши","е"],["г","но"],["го","ды"],["го","раз"],["гово","ри"],["гораз","до"],["гравита","ции"],["да","ть"],["да","ют"],["де","ра"],["де","ся"],["ди","н"],["до","мен"],["дру","гу"],["еди","ни"],["жа","ется"],["за","кры"],["зем","ных"],["зи","рован"],["знач","ений"],["зо","м"],["и","ть"],["лен","нее"],["лё","г"],["ма","лень"],["мута","ций"],["ны","не"],["о","он"],["о","ц"],["об","щем"],["обла","стях"],["обу","ча"],["обы","д"],["ограни","чен"],["описа","ния"],["осуществ","ля"],["отдель","ные"],["отсут","ствие"],["оц","ени"],["оцен","ки"],["паути","ны"],["пер","вое"],["пер","ен"],["пере","ме"],["пла","не"],["поис","ка"],["пол","но"],["поня","тия"],["после","ду"],["поя","влению"],["при","чём"],["приня","то"],["рав","ен"],["ре","с"],["результа","том"],["с","кры"],["семей","ство"],["сим","вол"],["следу","ющий"],["случае","в"],["со","на"],["со","циаль"],["способ","ности"],["ствен","ная"],["суще","ственно"],["те","ку"],["те","лю"],["тель","ства"],["температу","ры"],["технологи","й"],["точ","ные"],["ты","с"],["тём","ной"],["у","слу"],["у","части"],["университет","а"],["учё","ные"],["факти","чески"],["фра","г"],["цен","тре"],["ч","ению"],["эволю","цию"],["эффек","т"],["я","й"],["язы","ков"],["2","4"],["an","d"],["f","-"],["ic","ros"],["icros","oft"],["k","_{"],["m","icrosoft"],["w","or"],["атмо","сфер"],["бли","зи"],["боль","шей"],["в","близи"],["в","кра"],["ва","ло"],["верси","я"],["вз","вих"],["вл","етво"],["вс","кру"],["год","ня"],["д","но"],["дан","ная"],["ди","ф"],["добы","чу"],["долж","но"],["ет","е"],["жи","вых"],["за","кру"],["за","лу"],["за","пру"],["за","сне"],["за","твер"],["за","хла"],["за","черка"],["зде","сь"],["извест","ен"],["ис","су"],["ис","черка"],["ка","те"],["кате","гори"],["компиля","ции"],["лен","ными"],["лу","не"],["ль","да"],["ми","нима"],["много","чис"],["му","р"],["на","пру"],["на","пря"],["на","тру"],["на","циона"],["на","черка"],["най","ти"],["но","воро"],["о","казыва"],["о","поро"],["об","локо"],["обо","зна"],["обу","сло"],["объек","т"],["окон","ча"],["описы","вает"],["опоро","ж"],["осно","вания"],["от","у"],["па","ры"],["пере","заря"],["пере","пру"],["пере","черка"],["пери","ге"],["поло","жи"],["получи","ла"],["популя","ций"],["поя","вления"],["приспособ","ленность"],["про","ре"],["р","ю"],["ра","ско"],["рав","на"],["распростран","ения"],["ро","б"],["с","пис"],["сам","цы"],["сво","ё"],["се","годня"],["сере","ди"],["сим","метри"],["солне","чного"],["соответ","ствует"],["способ","ны"],["ст","я"],["стар","те"],["стати","сти"],["су","пер"],["сформи","рова"],["тар","кти"],["транс","крип"],["тя","ну"],["уда","лён"],["удо","влетво"],["усу","губ"],["физи","ческих"],["фотосинте","за"],["части","чно"],["ченно","м"],["чи","к"],["чиво","сти"],["чу","в"],["широ","вание"],["эн","тропи"],["200","6"],["201","7"],["co","n"],["fo","nt"],["font","-"],["g","ro"],["u","b"],["а","д"],["ан","ти"],["ар","гу"],["бе","ско"],["беско","не"],["би","ра"],["библиоте","ки"],["большин","стве"],["бу","к"],["в","послед"],["вер","са"],["вз","рос"],["вз","я"],["впослед","ствии"],["встре","чаются"],["вызыва","ет"],["г","ну"],["га","ет"],["га","ли"],["голов","ного"],["гру","з"],["де","ка"],["де","сят"],["досту","па"],["жен","ы"],["за","пре"],["измен","ений"],["интер","пре"],["кисло","рода"],["км","/"],["ко","ры"],["ко","смо"],["компонен","тов"],["кон","ку"],["конку","рен"],["ку","п"],["ла","з"],["ли","ровать"],["ло","г"],["мас","су"],["массо","й"],["меж","у"],["ми","ро"],["мо","н"],["на","хожд"],["называ","ются"],["нау","чных"],["не","во"],["необходи","мости"],["но","вого"],["о","си"],["об","мен"],["основ","ных"],["перво","начально"],["перемен","ные"],["позво","но"],["поль","зу"],["постоян","но"],["потен","циал"],["поя","вление"],["пра","ва"],["предна","зна"],["про","межу"],["програм","мно"],["продол","жи"],["происхожд","ение"],["процессо","ра"],["радиу","с"],["ру","ко"],["с","ро"],["само","го"],["сдела","ть"],["след","ствие"],["сло","нов"],["ст","ям"],["ста","ры"],["ственно","м"],["сту","ю"],["ти","ка"],["требу","ет"],["уни","верса"],["услови","й"],["фай","лов"],["фе","дера"],["це","лью"],["ча","стей"],["ш","ение"],["щие","ся"],["щих","ся"],["8","0"],["b","m"],["c","al"],["d","a"],["o","p"],["p","os"],["s","o"],["t","ran"],["авто","р"],["архитекту","ры"],["ба","л"],["ба","р"],["баг","ря"],["бит","ко"],["бло","ка"],["бо","ле"],["вер","нут"],["влен","а"],["во","ль"],["вы","дви"],["выполня","ть"],["г","не"],["га","н"],["ге","ра"],["ги","б"],["го","ря"],["да","ле"],["де","ле"],["дей","ству"],["дела","ет"],["ен","ы"],["ж","ер"],["жа","т"],["жд","ений"],["жи","ли"],["за","тра"],["заголо","во"],["и","мена"],["извест","ные"],["ин","сти"],["инди","виду"],["исче","з"],["ка","з"],["кар","ти"],["кванто","вые"],["клю","че"],["ко","вые"],["кре","т"],["л","ением"],["мета","ть"],["называ","емые"],["напра","вление"],["не","ц"],["нейро","нные"],["но","ги"],["об","рет"],["обы","ден"],["определя","ет"],["оптими","зации"],["от","с"],["плоско","сти"],["поддерж","ка"],["подоб","ных"],["позволи","ло"],["постеп","енно"],["пре","образования"],["преимуще","ственно"],["при","вле"],["пространства","-времени"],["противо","полож"],["ран","ь"],["ре","аль"],["ру","ка"],["с","хо"],["самы","е"],["се","ку"],["солн","це"],["ста","ту"],["сыпа","ться"],["т","ения"],["таки","ми"],["тео","рий"],["ти","ровать"],["у","ча"],["хво","ст"],["ч","ник"],["ченно","му"],["ченно","ю"],["чет","а"],["ше","д"],["щ","у"],["эле","ментов"],["я","вление"],["200","9"],[":n","one"],["c","an"],["el","l"],["int","er"],["me","dia"],["u","m"],["x","ix"],["ав","гу"],["астро","но"],["бо","в"],["вы","зо"],["вымира","ния"],["гравитацион","ного"],["груженно","е"],["гу","ляр"],["да","ми"],["дель","фи"],["до","стовер"],["доступ","ны"],["европе","й"],["иде","и"],["интеллек","туаль"],["ис","клю"],["ко","ле"],["ком","ы"],["концеп","ция"],["лен","ным"],["магнит","ного"],["меди","ци"],["меха","ника"],["мини","му"],["молеку","л"],["мы","е"],["мы","м"],["н","ью"],["наблюда","ется"],["нен","ы"],["но","вая"],["объяс","нения"],["опис","ан"],["осно","ваний"],["основ","ные"],["па","ле"],["парамет","ры"],["перемен","ных"],["пло","ща"],["по","па"],["по","ра"],["пол","ного"],["пол","ной"],["прави","л"],["представи","тели"],["приблизи","тельно"],["приве","ло"],["принци","п"],["про","стей"],["процессо","р"],["реги","стри"],["регу","ли"],["с","лы"],["са","н"],["само","к"],["сво","им"],["син","гуляр"],["ски","м"],["скоро","стей"],["степ","ени"],["те","перь"],["тек","ст"],["ти","пи"],["точ","ных"],["у","доб"],["фа","к"],["фи","к"],["фи","нан"],["филосо","ф"],["хо","ло"],["хо","м"],["хра","ни"],["ч","ную"],["ча","ться"],["части","ца"],["щи","ми"],["-","b"],["-","бит"],["200","7"],["9","0"],["go","o"],["goo","gle"],["i","bm"],["i","v"],["u","p"],["а","кси"],["аб","стра"],["ази","и"],["альтерна","тив"],["б","ен"],["б","л"],["б","ран"],["ве","ри"],["величи","ны"],["видет","ь"],["влия","ние"],["вход","ных"],["высо","кого"],["ген","ера"],["ги","пер"],["глав","ным"],["гружен","ная"],["гружен","ную"],["гружен","ные"],["гружен","ный"],["гружен","ным"],["гружен","ными"],["гружен","ных"],["груженно","го"],["груженно","й"],["груженно","м"],["груженно","му"],["груженно","ю"],["д","ной"],["да","рен"],["действи","я"],["дея","тельность"],["ди","т"],["ера","р"],["ерар","хи"],["жа","р"],["жи","вать"],["живот","ное"],["зна","ний"],["зо","ло"],["и","ерархи"],["из","м"],["ис","ключ"],["исключ","ением"],["иско","па"],["использо","ваться"],["кари","от"],["кван","товую"],["кер","ра"],["кли","ент"],["ключ","ом"],["ко","жи"],["которы","ми"],["л","ении"],["ли","ц"],["машин","ного"],["нау","ки"],["начина","ют"],["не","большой"],["не","о"],["но","я"],["нов","ую"],["о","кра"],["обо","значения"],["обра","баты"],["обра","щения"],["образо","ва"],["образо","ванием"],["опреде","ление"],["ответ","а"],["отво","р"],["пер","вую"],["по","ме"],["по","ря"],["под","роб"],["поддержи","ва"],["поли","ме"],["популя","циях"],["появи","лись"],["пре","жде"],["пре","ры"],["представи","телей"],["предубе","жден"],["приводи","ть"],["произо","шло"],["происхожд","ения"],["пти","ц"],["р","ф"],["ра","сту"],["работа","ет"],["равнове","сия"],["раз","ненно"],["рас","се"],["ре","ли"],["ров","ки"],["с","ку"],["с","разу"],["свой","ств"],["сигна","лов"],["со","во"],["со","вы"],["соеди","нения"],["сохран","ения"],["спек","тра"],["специ","фи"],["спи","сок"],["ста","навли"],["стади","и"],["стра","и"],["стро","ен"],["существо","вания"],["т","ети"],["тек","сто"],["теори","ей"],["то","рии"],["тол","щи"],["транза","кций"],["ту","ра"],["у","ника"],["у","си"],["урав","нений"],["услови","я"],["фотосинте","з"],["ха","б"],["характери","сти"],["це","по"],["чис","ел"],["ш","рё"],["э","р"],["я","влений"],["p","an"],["p","o"],["ph","a"],["pos","ix"],["un","d"],["wi","k"],["xv","ii"],["ан","таркти"],["б","ный"],["безопас","ности"],["бо","й"],["в","ро"],["в","ходит"],["вар","ц"],["варц","ши"],["вед","ёт"],["видо","образование"],["возникнов","ения"],["вол","ны"],["вто","ри"],["выде","ления"],["вычислитель","ной"],["го","мо"],["голова","сти"],["диапа","зоне"],["дис","ке"],["дли","ны"],["е","ль"],["ер","ы"],["есте","ственных"],["жд","ён"],["же","й"],["з","рение"],["за","ча"],["зача","стую"],["зем","ля"],["зи","ру"],["изу","чения"],["имо","сть"],["инсти","ту"],["интен","сив"],["интерфей","с"],["испол","ня"],["кла","сс"],["клет","ках"],["компилято","ры"],["компьютер","ного"],["конечно","сти"],["которо","му"],["край","не"],["кэ","ш"],["лен","ную"],["лет","а"],["ли","зм"],["лу","н"],["ль","ную"],["лю","бы"],["ма","к"],["масси","ва"],["мет","рии"],["механиз","мы"],["моде","лей"],["на","бо"],["на","сто"],["над","ё"],["надё","ж"],["наз","ванием"],["насе","комы"],["не","бе"],["непосред","ственно"],["ни","когда"],["обла","стей"],["обнаружен","о"],["объеди","ня"],["объяс","нить"],["ограни","чения"],["ок","рас"],["он","то"],["опера","ции"],["орби","та"],["осво","бо"],["осно","вании"],["от","не"],["п","лю"],["пер","ви"],["перен","ос"],["показа","ли"],["поко","ления"],["понима","ние"],["практи","ке"],["превыша","ет"],["преде","лах"],["рав","ни"],["разде","ление"],["разли","чными"],["размно","жения"],["слож","ные"],["слу","жит"],["спект","р"],["страни","ц"],["сту","п"],["су","б"],["та","я"],["фи","гу"],["фи","кси"],["х","у"],["чен","ный"],["ш","варцши"],["ща","ться"],["эйнштей","на"],["энерги","я"],["ющие","ся"],["я","сь"],["201","1"],["202","1"],["e","s"],["or","d"],["os","i"],["tran","s"],["а","мур"],["а","фри"],["ар","те"],["ба","зе"],["в","клад"],["ва","на"],["ви","л"],["вне","д"],["водо","й"],["вос","станови"],["выдви","ну"],["высо","кий"],["го","вой"],["голова","стики"],["д","иску"],["д","рен"],["действи","е"],["дет","а"],["до","мини"],["дрей","ф"],["ен","та"],["енно","сть"],["жи","м"],["за","вер"],["за","ро"],["запро","сы"],["зем","лю"],["и","л"],["им","пера"],["импера","тор"],["кло","н"],["клю","чей"],["ко","лла"],["колла","п"],["компьюте","ры"],["кон","центра"],["конечно","стей"],["кэ","ша"],["л","ка"],["литера","туре"],["ма","на"],["мар","ке"],["н","ков"],["на","следо"],["наблюда","ть"],["не","вер"],["не","определён"],["не","преры"],["о","фи"],["о","че"],["обо","ру"],["обору","до"],["образо","ваний"],["она","х"],["оче","вид"],["пер","сона"],["пи","щи"],["по","казыва"],["поддерж","ки"],["полу","чает"],["последова","тельно"],["постоян","ная"],["постро","ения"],["потен","циаль"],["принци","па"],["пря","мо"],["ра","сти"],["рань","ше"],["расположен","ы"],["ре","кур"],["реали","зу"],["ро","вании"],["рован","ный"],["с","ной"],["са","ма"],["связа","нные"],["си","л"],["си","ла"],["система","ми"],["со","труд"],["со","чета"],["соб","а"],["сово","куп"],["соз","дан"],["состоя","ний"],["ствен","ными"],["стви","ем"],["сфе","ре"],["т","вёр"],["т","ных"],["та","ком"],["тель","ную"],["температу","ра"],["термодинами","ка"],["у","би"],["устрой","ства"],["хо","ды"],["хо","зя"],["хромо","со"],["челове","ком"],["чно","сти"],["шрё","дин"],["щий","ся"],["э","у"],["эко","логи"],["энерги","ю"],["-","1"],["/","2"],["1",","],["199","0-х"],["a","m"],["can","is"],["co","nt"],["f","c"],["ht","m"],["htm","l"],["m",":"],["ph","i"],["r","fc"],["ts-переход","-"],["́","ль"],["а","пре"],["б","ры"],["бо","́ль"],["бу","дь"],["бу","р"],["в","ный"],["в","шая"],["важ","ную"],["весь","ма"],["внеш","них"],["внутрен","ней"],["воз","вра"],["вс","ю"],["вы","бра"],["вы","тяну"],["выз","ван"],["вымира","ние"],["высо","ко"],["вычислитель","ных"],["г","нут"],["гено","ма"],["д","жа"],["дарви","н"],["до","ля"],["ен","а"],["жер","т"],["заголо","вок"],["и","мен"],["и","ной"],["изобра","жение"],["име","ется"],["инте","рес"],["интернет","е"],["ис","ключи"],["использо","вании"],["исследова","тели"],["клиен","та"],["км/","с"],["ко","жа"],["контро","ля"],["ла","й"],["ленно","сти"],["ли","и"],["ля","ть"],["масшта","бах"],["маши","не"],["ме","м"],["метал","ли"],["механи","ке"],["мя","г"],["н","г"],["н","с"],["на","бора"],["наблюда","теля"],["не","больших"],["о","з"],["о","крест"],["об","а"],["образу","ет"],["опера","ций"],["определён","ных"],["ос","обы"],["оста","льные"],["по","лю"],["поис","к"],["поле","з"],["поло","жения"],["потре","би"],["пред","мет"],["предло","жил"],["предста","вление"],["при","обре"],["при","я"],["про","да"],["пры","ж"],["рабо","чи"],["раз","делить"],["разме","ров"],["разработ","ка"],["результа","тов"],["рели","ги"],["ри","ца"],["ря","ть"],["с","бор"],["с","жа"],["само","е"],["связ","ей"],["связа","но"],["ско","е"],["сла","бы"],["следу","ющем"],["слож","ных"],["смот","рен"],["содержи","тся"],["созда","вать"],["сооб","щений"],["сред","ней"],["ст","ер"],["станов","ятся"],["ственно","е"],["столкнов","ения"],["сторо","ну"],["стра","те"],["страте","ги"],["ти","пом"],["то","же"],["указыва","ет"],["учи","ты"],["филосо","фи"],["ца","р"],["цент","р"],["ч","ки"],["ч","лен"],["челове","ческого"],["чер","т"],["шварцши","льда"],["шиф","рова"],["щен","ный"],["энциклопеди","и"],["эта","пе"],["я","по"],["ён","ных"],["0",","],["20","19"],["201","5"],[":","hover"],["ar","pan"],["arpan","et"],["b","i"],["ch","ar"],["er","r"],["r","is"],["s","e"],["te","l"],["unix","-"],["v","ec"],["актив","ность"],["ари","ф"],["ариф","мети"],["атмосфер","ы"],["ба","я"],["бе","че"],["бече","в"],["бло","ки"],["бу","л"],["бул","тых"],["в","ной"],["ва","лен"],["ва","рь"],["варь","и"],["виде","о"],["влия","ния"],["во","му"],["вол","новой"],["враща","ется"],["вре","д"],["вто","рая"],["выделя","ют"],["выполня","ется"],["г","ры"],["г","ря"],["генети","ческой"],["гипоте","за"],["д","ня"],["да","вать"],["де","ло"],["дей","ствуют"],["дела","ть"],["дер","жа"],["деся","ти"],["дж","о"],["диф","ферен"],["дли","н"],["доказа","тельство"],["е","шь"],["жё","ст"],["з","ра"],["знамен","щи"],["зу","бы"],["и","кри"],["ид","ёт"],["ин","ф"],["интерпре","та"],["исследо","вание"],["исследова","тель"],["к","л"],["ка","кого"],["кило","метров"],["клас","са"],["класси","фикация"],["кни","ге"],["комбай","не"],["комбай","нер"],["компиля","тор"],["кон","стан"],["кон","стру"],["крате","ров"],["криптографи","ческих"],["ло","к"],["ма","лых"],["макро","скопи"],["ме","ра"],["ме","сте"],["мерку","ри"],["н","ский"],["находи","ться"],["начина","ется"],["не","бес"],["о","ру"],["об","ос"],["об","щая"],["обо","их"],["обос","ну"],["операцион","ные"],["осно","вы"],["основ","у"],["отвер","сти"],["отде","л"],["отсут","ствует"],["па","три"],["планет","а"],["пле","с"],["плес","нут"],["под","системы"],["поря","док"],["появи","лся"],["предполага","ет"],["при","род"],["приме","рами"],["приту","пленно"],["про","вод"],["про","гно"],["проис","ходят"],["противо","речи"],["процессо","ров"],["птен","цов"],["р","ные"],["р","ный"],["радиу","сом"],["раз","двоен"],["размно","жа"],["разработ","чи"],["рас","полага"],["распростран","ение"],["рассматри","вать"],["режи","ме"],["сверх","массив"],["середи","не"],["сигна","л"],["сли","я"],["со","вых"],["со","н"],["со","сен"],["содержи","мое"],["соеди","ня"],["соста","ве"],["состоя","нию"],["сре","да"],["средо","й"],["стать","е"],["стра","нах"],["сфе","ри"],["счита","л"],["та","кую"],["те","лом"],["термодинами","ческих"],["ти","ку"],["ти","пу"],["то","ров"],["точ","ке"],["точ","ностью"],["точ","ный"],["тран","зи"],["требо","вания"],["у","вер"],["учё","том"],["фа","кт"],["хе","ширование"],["хищ","ников"],["хо","ки"],["ч","ность"],["ча","ют"],["чер","к"],["черкав","шем"],["ш","ком"],["ш","ё"],["ща","ть"],["электромагнит","ное"],["ю","р"],["янва","ря"],["-","s"],["-","ни"],["-ни","будь"],["200","0"],["6","4"],["7","0"],["9","9"],["_","t"],["al","pha"],["comment","ed"],["cont","ent"],["de","lt"],["delt","a"],["e",":"],["os","/2"],["s","er"],["si","z"],["актив","но"],["актив","ности"],["ал","ге"],["бе","ль"],["бер","т"],["бо","же"],["бу","ква"],["бы","стре"],["быстре","е"],["ва","ла"],["вариан","тов"],["вдо","ль"],["ве","кто"],["видет","ель"],["википеди","ю"],["вля","ть"],["вол","н"],["воло","к"],["воробь","и"],["вос","хи"],["времен","ем"],["вы","вода"],["вы","я"],["га","ран"],["глу","би"],["горизон","т"],["да","в"],["дальней","шем"],["дви","ж"],["де","мон"],["действи","ем"],["доб","ро"],["добы","чи"],["древ","ней"],["ды","ру"],["е","мое"],["з","ис"],["за","ня"],["за","я"],["запис","ь"],["запро","са"],["значительно","е"],["и","я"],["извест","ной"],["извест","ный"],["изу","чение"],["импуль","са"],["ин","фра"],["инди","и"],["ис","пар"],["й","ти"],["килопарсе","ков"],["кни","ги"],["ко","г"],["компа","ния"],["компо","нов"],["компьютер","ных"],["конкрет","ной"],["коэффици","ен"],["крат","но"],["ле","в"],["ло","й"],["лы","м"],["ля","ются"],["маг","нет"],["математи","ческих"],["мем","бра"],["мен","том"],["мень","шей"],["мерку","рии"],["места","х"],["ми","н"],["миллиар","дов"],["мо","гли"],["молоды","х"],["на","оборот"],["не","которого"],["не","редко"],["обеспечи","вает"],["обла","чных"],["обще","е"],["оказыва","ется"],["осно","вой"],["основ","ная"],["от","кло"],["отли","чаются"],["отнош","ения"],["ото","бра"],["пер","вом"],["пи","ть"],["пло","хо"],["по","сы"],["погло","щения"],["полу","ша"],["получи","ли"],["поряд","ке"],["потре","б"],["похо","жи"],["пред","ка"],["предполага","ется"],["при","лив"],["про","те"],["про","ходит"],["протоко","ла"],["протоко","лы"],["раз","ным"],["развити","и"],["разде","л"],["распреде","ление"],["рассматри","вается"],["расши","рения"],["ре","пли"],["ре","цеп"],["ресур","са"],["ро","дов"],["с","видетель"],["с","может"],["с","р"],["са","мец"],["са","ха"],["само","м"],["связа","на"],["сер","ва"],["сер","д"],["си","на"],["ско","рее"],["сло","я"],["содержа","ть"],["спира","ли"],["способ","а"],["сравни","тельно"],["сте","к"],["сти","ть"],["те","сти"],["тель","ным"],["транскрип","ции"],["у","мер"],["у","станови"],["ути","ли"],["участ","ки"],["участ","ников"],["фото","графи"],["х","удо"],["хво","ста"],["ходя","щих"],["ца","х"],["цепоч","ки"],["че","му"],["чет","вёр"],["ш","ка"],["ш","ки"],["ша","ро"],["э","по"],["электро","на"],["юж","ной"],["явля","ть"],["ё","в"],["201","3"],["201","4"],["201","6"],["201","8"],["g","en"],["g","et"],["in","tel"],["ip","-"],["math","cal"],["ord","er-"],["s","c"],["u","d"],["y","p"],["ал","фа"],["ан","дро"],["андро","ме"],["андроме","ды"],["байт","-"],["бе","й"],["бел","ков"],["близ","ких"],["большо","м"],["бу","д"],["в","пол"],["в","следствие"],["ва","й"],["ве","ктор"],["влен","о"],["воз","ни"],["воз","раст"],["возмож","ным"],["возника","ет"],["возника","ют"],["возра","сте"],["возра","стом"],["впол","не"],["встре","чается"],["вход","ные"],["вы","ну"],["вы","хода"],["га","ль"],["гене","ри"],["гипоте","зы"],["го","лу"],["го","то"],["горизон","том"],["груп","п"],["гря","з"],["д","ка"],["д","не"],["дей","ствует"],["дет","ё"],["детё","ны"],["доку","мента"],["допу","ска"],["дро","б"],["ем","те"],["живот","ным"],["з","ви"],["з","ма"],["з","ре"],["за","мети"],["запу","ска"],["и","ни"],["и","сти"],["излу","чение"],["ини","циа"],["информацион","ных"],["ис","ходя"],["источ","ником"],["исход","ного"],["ию","ня"],["ка","та"],["кванто","вого"],["кванто","вых"],["ко","дом"],["ко","лли"],["колли","зи"],["кон","сор"],["кон","ф"],["консор","ци"],["конф","ли"],["координа","т"],["кри","те"],["криптографи","и"],["кэ","ши"],["луч","ше"],["лы","ми"],["ль","е"],["м","нению"],["манен","ная"],["манен","ную"],["манен","ные"],["манен","ный"],["манен","ным"],["манен","ными"],["манен","ных"],["маненно","го"],["маненно","е"],["маненно","й"],["маненно","м"],["маненно","му"],["маненно","ю"],["меся","цев"],["мето","дом"],["микро","скопи"],["миллиар","да"],["мо","ря"],["нако","нец"],["напис","ан"],["не","которое"],["нево","ле"],["ника","ми"],["но","мер"],["обеспе","чение"],["обрат","ного"],["объясня","ется"],["ограни","чи"],["одно","зна"],["одно","род"],["ок","тября"],["опера","тив"],["опера","тор"],["опублико","вал"],["основан","ные"],["оста","ётся"],["от","клады"],["откры","тым"],["парсе","ков"],["пере","чис"],["по","гром"],["поте","ря"],["потен","циа"],["появи","лась"],["пре","вра"],["предоставля","ет"],["пробле","му"],["програм","му"],["пу","сты"],["раз","гром"],["разде","ления"],["различи","я"],["разработ","ке"],["разработа","н"],["раство","рен"],["ре","комбинации"],["реда","кти"],["ресур","сы"],["ри","су"],["россий","ской"],["ря","дом"],["с","х"],["са","х"],["сдела","л"],["сен","тября"],["си","ль"],["скоп","лений"],["сли","шком"],["слож","но"],["со","про"],["согла","со"],["содержа","т"],["созда","ть"],["соответству","ющих"],["способ","ен"],["ствен","ную"],["страни","цы"],["су","ток"],["счита","ют"],["те","ря"],["те","с"],["тен","ден"],["ти","м"],["то","ры"],["труд","но"],["у","бе"],["у","го"],["у","луч"],["у","т"],["уда","лось"],["упо","мина"],["утвержда","ет"],["ф","ос"],["физи","ческой"],["характери","стики"],["хле","ст"],["це","лях"],["цион","ный"],["ча","р"],["чай","но"],["чен","ная"],["чё","та"],["чёр","ную"],["ши","ми"],["шё","л"],["щен","ы"],["электро","динами"],["я","дер"],["язы","ком"],["1","4"],["196","0-х"],["196","9"],["8","6"],[":","no"],["@","media"],["co","r"],["h","er"],["i","f"],["l","d"],["lo","c"],["o","f"],["p","le"],["p","ro"],["ur","i"],["w","e"],["wor","k"],["}","@media"],["а","льного"],["авто","ном"],["аген","т"],["адре","с"],["ак","кре"],["аналоги","чно"],["ари","сто"],["ассо","циа"],["астерои","д"],["ба","зо"],["ба","н"],["бли","же"],["бли","зо"],["бо","ро"],["больши","ми"],["бот","ы"],["бы","стры"],["ва","емых"],["вели","ко"],["веще","ств"],["ви","ру"],["водо","рода"],["воз","бу"],["возможно","стей"],["вос","прия"],["вс","ем"],["второ","е"],["выход","ные"],["га","ют"],["гео","метри"],["ги","ровать"],["говоря","т"],["год","но"],["гру","н"],["груп","пе"],["груп","пой"],["д","ри"],["да","вление"],["демон","стри"],["дж","он"],["диамет","р"],["е","же"],["е","мость"],["ен","ью"],["ж","ению"],["же","лу"],["жи","вание"],["жиз","нь"],["за","ка"],["за","ме"],["за","ранее"],["за","регистри"],["зави","ся"],["зави","сят"],["звез","да"],["зна","ния"],["зна","ть"],["зо","о"],["и","дея"],["и","на"],["игра","ет"],["изо","ли"],["им","ён"],["име","ющих"],["ин","ду"],["ис","полни"],["исключи","тельно"],["источ","ник"],["какой","-либо"],["кар","ли"],["ки","то"],["кисло","род"],["ко","мен"],["ко","ра"],["компилято","ра"],["компьюте","ре"],["компьютер","ной"],["кон","ферен"],["координа","ты"],["корре","кт"],["кро","ви"],["куль","ту"],["кур","с"],["лю","ди"],["любо","е"],["м","оби"],["макси","му"],["материа","ла"],["маши","нный"],["ме","сс"],["мед","ленно"],["месс","ен"],["мо","л"],["мо","му"],["молеку","ла"],["му","зы"],["мыш","ц"],["напо","мина"],["напря","мую"],["наря","ду"],["не","измен"],["не","которым"],["не","прави"],["нейро","ны"],["ну","ле"],["о","ны"],["об","мена"],["об","серва"],["об","щий"],["об","щих"],["облада","ет"],["объё","ма"],["одно","му"],["определён","ным"],["орга","нов"],["оста","тки"],["оста","ются"],["от","прави"],["от","ряда"],["оцен","кам"],["пад","ения"],["пале","онто"],["пе","й"],["пере","двига"],["переда","че"],["пери","оди"],["плат","форма"],["по","до"],["подоб","но"],["понима","ния"],["послед","ний"],["пред","ме"],["принадле","жит"],["про","стой"],["про","чи"],["просты","х"],["прохожд","ения"],["пя","ть"],["р","на"],["рас","су"],["распозна","вание"],["рассе","я"],["ре","комен"],["реали","зова"],["ро","ванию"],["ро","ст"],["рова","л"],["рь","е"],["с","-"],["с","в"],["с","ви"],["самы","й"],["се","г"],["сло","в"],["сло","н"],["слож","ности"],["слож","ность"],["соб","и"],["сов","падает"],["совер","ша"],["современ","ный"],["способ","ствует"],["спу","ска"],["средства","ми"],["сс","ср"],["стандар","тов"],["ственно","сти"],["сто","ха"],["стоха","сти"],["су","ше"],["существу","ющих"],["ти","ла"],["тив","ный"],["тив","ных"],["то","е"],["у","видеть"],["уг","ро"],["уз","лов"],["уни","женно"],["упо","ен"],["устрой","ств"],["участ","ков"],["фай","л"],["фай","ло"],["фе","вра"],["федера","ции"],["фи","р"],["физи","ке"],["форми","рование"],["характери","зу"],["хво","сты"],["хо","в"],["хо","дов"],["цен","а"],["часто","та"],["че","сть"],["шиф","ровать"],["шрёдин","гера"],["э","м"],["э","пи"],["эй","л"],["элемента","рных"],["эта","па"],["эффектив","но"],["ющей","ся"],["ющий","ся"],["яй","ца"],["-","c"],["0",".1"],["19","4"],["199","0"],["201","2"],["5","00"],["ac","k"],["ack","gro"],["ackgro","und"],["c","t"],["co","l"],["g","e"],["i","um"],["inter","net"],["op","en"],["ts-fix-","text"],["v","ar"],["xvii","i"],["а","симметри"],["а","спек"],["автомати","чески"],["акси","о"],["аль","ный"],["аль","ных"],["анали","ти"],["аппара","та"],["б","рю"],["больше","е"],["в","клинен"],["в","пло"],["в","пряден"],["ва","тельно"],["важ","но"],["ве","е"],["веду","т"],["величи","н"],["вер","ну"],["вет","ра"],["вз","двоен"],["взаимодействи","й"],["взвих","рен"],["ви","ла"],["ви","ли"],["ви","н"],["вкра","плен"],["водо","род"],["возникнов","ение"],["вос","принима"],["восхи","щен"],["впло","ть"],["все","ленная"],["вход","ят"],["вы","не"],["вы","си"],["вычисли","ть"],["га","ми"],["гео","графи"],["гла","д"],["гла","з"],["гомо","логи"],["д","э"],["д","я"],["да","лё"],["дале","ко"],["даль","ше"],["двой","ной"],["дет","али"],["дет","ер"],["дли","ну"],["до","пряден"],["домаш","них"],["дополни","тельные"],["друго","е"],["ду","т"],["ж","ный"],["жен","нее"],["жен","ней"],["за","клинен"],["за","решечен"],["за","сечен"],["за","творен"],["за","точен"],["зад","разнен"],["занима","ет"],["захла","мо"],["зем","но"],["земно","вод"],["из","решечен"],["измен","ении"],["изменения","м"],["име","ются"],["ин","де"],["ис","пряден"],["иско","шен"],["использу","емых"],["иссу","шен"],["ка","ких"],["класси","ческая"],["ко","лле"],["коман","д"],["коне","ц"],["кор","ми"],["кров","ь"],["кры","ль"],["л","ени"],["лен","ней"],["лу","ну"],["ля","ция"],["ма","ть"],["магнит","ное"],["мел","ких"],["механиз","ма"],["морфо","логи"],["н","ением"],["н","ении"],["на","волочен"],["на","много"],["на","пряден"],["наблюд","ение"],["наблюд","ений"],["напо","ен"],["насторо","женно"],["начи","нен"],["не","достаточно"],["не","мец"],["не","много"],["не","ра"],["нейро","нной"],["нен","а"],["ника","ких"],["но","вое"],["но","вым"],["но","сит"],["нор","ма"],["о","пыт"],["об","щие"],["обнару","жил"],["обнару","жить"],["обоб","ь"],["обработ","ка"],["образу","ется"],["образу","ются"],["обяза","тельно"],["оди","но"],["опорож","нен"],["от","прав"],["от","пряден"],["от","рас"],["отнош","ение"],["отнош","ению"],["оту","плен"],["п","лы"],["па","ть"],["пада","ют"],["пере","клинен"],["пере","кошен"],["пере","пряден"],["перед","разнен"],["пита","ются"],["по","пере"],["под","волочен"],["под","клинен"],["пода","вля"],["пода","рен"],["поддер","жа"],["позвоно","чных"],["показа","л"],["поко","шен"],["пол","нен"],["получи","л"],["пользова","тели"],["послед","них"],["потом","ство"],["пре","уменьшен"],["представлен","ы"],["при","обрет"],["при","отворен"],["при","пряден"],["при","струнен"],["при","творен"],["при","тя"],["при","уменьшен"],["применя","ются"],["пример","ы"],["присут","ствует"],["приту","плен"],["про","пор"],["про","пряден"],["прогно","зи"],["продолжи","тельность"],["пряд","енного"],["пряд","енное"],["пряд","енной"],["пряд","енном"],["пряд","енному"],["пряд","енною"],["пти","цы"],["р","ной"],["разви","ва"],["разно","вид"],["разнообраз","ие"],["рас","клинен"],["раско","шен"],["ре","лье"],["реа","к"],["реа","льного"],["реали","зован"],["ро","бо"],["ров","ка"],["роди","телей"],["с","двоен"],["сай","т"],["свой","ство"],["связа","ны"],["се","ман"],["сете","вых"],["си","лу"],["следо","вательно"],["следу","ющим"],["слу","жат"],["случа","и"],["со","вой"],["со","средо"],["со","струнен"],["со","т"],["со","храни"],["соб","ственные"],["соб","ственных"],["сов","сем"],["совер","шен"],["современ","ная"],["содержи","мого"],["спу","стя"],["ста","в"],["ство","рен"],["сте","гнут"],["сти","му"],["сто","лет"],["стро","ения"],["стро","к"],["суб","ъ"],["сфе","ра"],["тель","ная"],["теля","ми"],["тех","ники"],["технологи","я"],["то","ром"],["тон","кий"],["точно","е"],["ту","ю"],["ты","ми"],["у","мно"],["у","про"],["у","я"],["угло","вой"],["устой","чивости"],["учё","ными"],["уя","зви"],["ф","ин"],["факто","ров"],["физи","о"],["форми","рования"],["функци","ей"],["хеш-","функция"],["хими","ческих"],["хлоро","пла"],["хлорофи","л"],["хлорофи","лла"],["хозя","й"],["ц","о"],["це","лей"],["ци","они"],["ч","ью"],["челю","сти"],["четы","рёх"],["чи","й"],["чи","нен"],["чис","ленность"],["ше","ю"],["э","в"],["эволюцион","ных"],["эффек","ты"],["я","дови"],["я","чей"],["-","commented"],["-","de"],["-commented","text"],["-de","cor"],["-decor","ation"],[".","е"],["20","20"],["202","2"],[":","0"],["al","g"],["alg","or"],["d","ing"],["font-","siz"],["font-siz","e:"],["g","p"],["m","al"],["math","r"],["mathr","m"],["p","c"],["s","s"],["win","32"],["а","ка"],["а","ра"],["а","ре"],["автома","тов"],["аль","ные"],["англий","ский"],["ат","ф"],["б","или"],["ба","нк"],["бел","ки"],["би","в"],["бор","ь"],["брауз","ер"],["буду","щем"],["ва","ющих"],["вер","нуть"],["верси","й"],["виртуаль","ной"],["влия","ет"],["внутрен","них"],["во","-"],["водо","ё"],["возду","ш"],["возмож","ных"],["вос","станавли"],["восто","чной"],["всемир","ная"],["вший","ся"],["вы","бран"],["вы","ступа"],["г","ети"],["гали","ле"],["гаран","ти"],["генети","ческий"],["генети","ческого"],["глубо","кого"],["глубо","кое"],["градиент","ного"],["да","вно"],["дви","жении"],["действи","тельно"],["деревь","ев"],["дет","ь"],["ди","вер"],["дли","ной"],["дости","гать"],["друго","го"],["ж","ность"],["жи","тельно"],["живо","го"],["з","ло"],["за","м"],["зада","чу"],["зако","ны"],["запис","ы"],["защи","ты"],["звёзд","ные"],["звёзд","ных"],["значи","т"],["зо","вать"],["избе","жать"],["инф","рак"],["инфрак","рас"],["ис","ка"],["к","ну"],["каж","ется"],["каждо","е"],["каче","ства"],["ква","дра"],["кито","образ"],["ко","вого"],["ко","стей"],["коллап","са"],["косми","ческих"],["круп","ней"],["кэ","ше"],["л","ля"],["ла","нд"],["ле","жит"],["ли","нь"],["ли","сть"],["ло","н"],["лу","нных"],["ль","д"],["любо","го"],["ляр","но"],["м","м"],["мас","се"],["ме","диа"],["меня","ется"],["мессен","джер"],["меся","ца"],["метода","ми"],["му","дрен"],["му","ль"],["мы","ми"],["на","считы"],["насе","ление"],["не","которой"],["несколь","кими"],["ни","л"],["ни","чего"],["низ","кой"],["но","во"],["но","си"],["новоро","жден"],["нуклеоти","дов"],["о","кси"],["об","слу"],["обеспечи","ть"],["обо","значение"],["обрат","ной"],["обыд","енно"],["операцион","ная"],["описы","вается"],["откры","тый"],["отсут","ствуют"],["п","ных"],["паути","на"],["пере","о"],["периге","лия"],["перио","да"],["пи","ще"],["пи","щу"],["плю","с"],["по","выша"],["по","ки"],["по","требо"],["под","писи"],["получа","ют"],["популяция","ми"],["потен","циально"],["пре","образований"],["пред","приня"],["пред","ска"],["предполо","жение"],["предполо","жительно"],["при","ведён"],["приме","ре"],["приня","тия"],["причи","ной"],["про","ведён"],["про","зра"],["проду","ктив"],["просты","е"],["проте","ка"],["проце","ду"],["пси","хи"],["пси","хо"],["радиу","са"],["развити","ем"],["разу","м"],["расположен","ные"],["распростран","я"],["распространён","ным"],["расши","р"],["ре","же"],["ре","ф"],["реа","кции"],["рекур","сив"],["религи","оз"],["реф","лек"],["ри","бо"],["роди","тель"],["ря","де"],["с","ке"],["с","л"],["с","хе"],["с","ъ"],["се","крет"],["се","ль"],["син","тети"],["син","хро"],["синте","за"],["ски","ми"],["сло","и"],["сно","ва"],["со","чи"],["соба","ки"],["совмести","мость"],["совокуп","ность"],["содержа","ние"],["созда","на"],["соответ","ствуют"],["соотнош","ения"],["спари","вание"],["способ","ы"],["сре","ду"],["сред","не"],["сред","нее"],["сси","я"],["ста","и"],["стату","с"],["стать","я"],["сте","ка"],["столкнов","ение"],["т","ный"],["таксо","нов"],["теле","скоп"],["термодинами","ческого"],["террито","ри"],["ти","ться"],["ту","н"],["у","ме"],["угле","кисло"],["упра","вление"],["уровня","х"],["установ","лено"],["фай","ле"],["фран","ц"],["хеш-","функции"],["це","пей"],["ци","то"],["цион","ных"],["цифро","вой"],["чен","а"],["чи","ть"],["широ","кое"],["ща","ет"],["ы","й"],["ы","м"],["эволюцион","ной"],["эк","спо"],["эле","менты"],["электро","н"],["энер","гети"],["я","вно"],["язы","ках"],[".","h"],["/","или"],["197","3"],["2","2"],["2","8"],["200","3"],["200","5"],["202","3"],["202","5"],[":none","}.mw-parser-output"],["b","ell"],["bo","t"],["bot","to"],["botto","m:"],["e","e"],["err","no"],["h","i"],["i","con"],["i","et"],["i","g"],["la","bs"],["la","n"],["le","ft"],["order-","bottom:"],["r","t"],["r","u"],["s","a"],["s","q"],["ts-переход-","icon"],["{b","order-bottom:"],["а","дели"],["а","но"],["а","реа"],["а","сс"],["ав","стра"],["ад","мини"],["али","зм"],["алле","ль"],["ареа","ла"],["асс","ем"],["ба","зы"],["баг","рен"],["багря","нен"],["бакте","рии"],["битко","и"],["бо","ли"],["бры","з"],["в","вода"],["ва","лось"],["важ","ней"],["важ","ным"],["вариан","т"],["ве","ре"],["ви","дом"],["ви","зу"],["ви","на"],["возду","ха"],["возмож","ен"],["возмож","ные"],["возни","кла"],["второ","го"],["вы","бора"],["вы","вать"],["вы","делить"],["вы","чайно"],["выгля","дит"],["выз","вать"],["выполня","ет"],["выра","жение"],["га","р"],["галакти","ках"],["галакти","кой"],["ген","ами"],["генети","ки"],["ги","на"],["глоба","льные"],["глу","б"],["го","тения"],["головасти","ков"],["гор","та"],["гре","ч"],["д","ёт"],["да","ли"],["да","т"],["да","та"],["де","ля"],["дека","бре"],["дистрибу","ти"],["допу","сти"],["дости","жения"],["друга","я"],["жа","ться"],["жи","вания"],["живот","ного"],["жу","рна"],["з","ная"],["за","гла"],["за","пад"],["за","ряд"],["за","се"],["за","черкав"],["зависи","мость"],["заро","ды"],["захламо","щен"],["звездо","образования"],["зву","ки"],["зна","м"],["зон","д"],["и","/или"],["игра","ют"],["иденти","фикации"],["изда","ют"],["изоли","рован"],["ис","черкав"],["испол","нения"],["ию","ле"],["ка","кие"],["кажды","е"],["каче","ство"],["ключи","ть"],["ко","вый"],["количе","ством"],["колле","ктив"],["комбина","ция"],["компьютер","ное"],["кти","ва"],["кэ","ш-"],["ла","р"],["ла","ти"],["ла","я"],["лей","сто"],["лен","ей"],["ленно","го"],["ленно","е"],["ля","ют"],["ма","ни"],["магнит","ных"],["математи","ческой"],["медици","не"],["мет","или"],["мет","р"],["ми","нут"],["ми","ром"],["милли","она"],["мини","ми"],["миниму","м"],["мо","г"],["моди","фика"],["молоды","е"],["мы","сли"],["на","воло"],["на","гре"],["на","са"],["на","сы"],["на","черкав"],["наблюда","емой"],["над","ф"],["называ","емый"],["наи","луч"],["наличи","и"],["наличи","я"],["насе","ления"],["не","большие"],["не","подвиж"],["не","ров"],["ненно","й"],["ну","лю"],["ну","педи"],["о","до"],["о","ки"],["о","хотя"],["обнаружен","ы"],["объеди","нения"],["объек","тами"],["окрас","ка"],["опреде","ли"],["определён","ного"],["определён","ной"],["ори","гина"],["ос","ь"],["основа","на"],["от","ме"],["от","сле"],["откры","тие"],["откры","тых"],["охотя","тся"],["п","ен"],["п","лейсто"],["п","се"],["пар","т"],["парт","нё"],["пере","по"],["пере","ста"],["пере","черкав"],["переда","ётся"],["перено","са"],["пингви","н"],["пла","нка"],["пла","нков"],["планет","е"],["плат","формы"],["площа","дь"],["по","гру"],["по","са"],["под","хода"],["поло","сы"],["попыт","ки"],["пре","ми"],["пре","пят"],["предо","т"],["предполо","жил"],["представления","м"],["представля","ется"],["при","соединя"],["привод","я"],["привод","ят"],["приме","ров"],["пример","у"],["принима","ет"],["причи","н"],["про","смо"],["про","шло"],["программно","е"],["продол","жает"],["произ","ой"],["проис","ходя"],["пропор","циона"],["процесса","х"],["псе","вдо"],["пы","ты"],["пя","ти"],["работа","ют"],["раз","дво"],["раз","дроб"],["раз","личие"],["раз","ры"],["разли","чаются"],["разли","чным"],["разработа","на"],["ран","них"],["рас","смо"],["распозна","вания"],["раство","р"],["рез","вычайно"],["ри","ть"],["ру","б"],["с","бо"],["са","мая"],["сай","та"],["сам","ка"],["самостоя","тельно"],["сер","ти"],["сервер","у"],["система","ти"],["ситуа","циях"],["следу","ющих"],["сло","на"],["случай","но"],["соб","ственной"],["совер","ш"],["соеди","нение"],["созда","нию"],["созда","ёт"],["соответ","ствие"],["соответству","ющей"],["соотнош","ение"],["состоя","т"],["спари","вания"],["способ","ов"],["способ","ом"],["сред","ний"],["стан","ция"],["стандар","та"],["ственно","сть"],["сторо","не"],["стре","ми"],["стро","ка"],["сум","ма"],["сум","мар"],["т","ные"],["табли","це"],["те","плен"],["телеско","па"],["то","ва"],["то","ка"],["то","сть"],["тон","ченно"],["точ","ка"],["точ","ку"],["туман","ности"],["тя","готения"],["у","тонченно"],["у","эйл"],["увеличи","вается"],["умень","ши"],["уни","что"],["уров","ней"],["уров","нем"],["услу","г"],["устрой","ство"],["участ","ники"],["учи","теля"],["фак","тов"],["форми","руются"],["функция","ми"],["хеш-","код"],["хлест","нут"],["хо","р"],["це","левой"],["центра","льной"],["циа","но"],["ч","ок"],["ч","резвычайно"],["челове","ческой"],["черк","нут"],["широ","ком"],["шифрова","льных"],["шо","фе"],["эволюцион","ные"],["эк","ва"],["эле","мент"],["электри","ческих"],["электро","старте"],["энтропи","и"],["эта","п"],["ю","да"],["явля","ться"],[")","{"],["-","й"],["-","полиме"],[".","0"],["1","50"],["1","p"],["197","0-х"],["1p","x"],["200","1"],["a","me"],["a","v"],["at","iv"],["ativ","e"],["c","ur"],["con","st"],["e","p"],["ed","ia"],["ip","edia"],["l","up"],["lup","us"],["r","i"],["s","p"],["un","i"],["we","b"],["wik","ipedia"],["x","86"],["{","\\"],["а","лек"],["а","ции"],["абсолют","но"],["ака","де"],["акаде","ми"],["амур","ского"],["аре","ал"],["архитекту","ра"],["астро","ном"],["ато","ма"],["ато","мов"],["бал","дж"],["бе","лые"],["бе","спо"],["бла","го"],["бо","жи"],["бо","ре"],["в","верх"],["в","вод"],["в","низ"],["в","ных"],["ва","емые"],["ва","ны"],["вед","ение"],["веден","о"],["вероят","ности"],["верх","ней"],["веще","ство"],["влен","ы"],["внеш","ние"],["внутрен","него"],["внутрен","няя"],["возра","ста"],["вопро","сы"],["воро","бей"],["вра","щение"],["вс","ему"],["вших","ся"],["вы","лу"],["вя","т"],["вё","л"],["г","реш"],["газо","в"],["генети","ческие"],["ги","ба"],["ги","ль"],["глав","ный"],["гравитацион",
[...]
