{"id_to_word":{"0":"<PAD>","1":"<UNK>","10":"е","100":"ий","1000":"кры","1001":"кша","1002":"клей","1003":"квар","1004":"муж","1005":"мко","1006":"мно","1007":"мся","1008":"бен","1009":"бра","101":"енне","1010":"бая","1011":"бли","1012":"бной","1013":"еся","1014":"юще","1015":"тен","1016":"тра","1017":"тан","1018":"тто","1019":"твер","102":"ар","1020":"тный","1021":"тлов","1022":"женно","1023":"жко","1024":"панный","1025":"вен","1026":"ван","1027":"вере","1028":"вре","1029":"вку","103":"сто","1030":"вда","1031":"вной","1032":"зе","1033":"зре","1034":"зов","1035":"зящий","1036":"шле","1037":"шендо","1038":"шленный","1039":"им","104":"ну","1040":"ия","1041":"чо","1042":"чан","1043":"чью","1044":"увер","1045":"убо","1046":"умно","1047":"хро","1048":"хри","1049":"хны","105":"вор","1050":"хме","1051":"хром","1052":"хнуть","1053":"дц","1054":"ден","1055":"дра","1056":"дать","1057":"дря","1058":"джи","1059":"дмит","106":"те","1060":"щущий","1061":"щендо","1062":"цу","1063":"фра","1064":"федо","1065":"эн","1066":"эсто","1067":"ерца","1068":"почи","1069":"посаж","107":"ль","1070":"попланер","1071":"поуниж","1072":"пообыд","1073":"поме","1074":"понасторож","1075":"поокуне","1076":"потополе","1077":"похолен","1078":"пополуведер","1079":"поголавле","108":"ать","1080":"посорокаведер","1081":"познам","1082":"побезвесель","1083":"попредубежд","1084":"пошелко","1085":"помудрен","1086":"поня","1087":"поогор","1088":"поубежд","1089":"пообре","109":"бе","1090":"поискаж","1091":"поутомл","1092":"поугнет","1093":"посмущ","1094":"поудру","1095":"поизощр","1096":"поодар","1097":"поврожд","1098":"позакал","1099":"поприрожд","11":"ж","110":"со","1100":"пообнаж","1101":"поуглубл","1102":"поудал","1103":"понеудовлетвор","1104":"прям","1105":"сту","1106":"стер","1107":"стящий","1108":"стью","1109":"засыпать","111":"мл","1110":"заня","1111":"кан","1112":"каза","1113":"като","1114":"кос","1115":"кое","1116":"кор","1117":"коше","1118":"косо","1119":"рое","112":"ря","1120":"роди","1121":"рошо","1122":"воды","1123":"рань","1124":"раженный","1125":"нар","1126":"напев","1127":"ружье","1128":"голо","1129":"голь","113":"кли","1130":"голов","1131":"гольцов","1132":"ано","1133":"андо","1134":"андан","1135":"лок","1136":"лопать","1137":"ерег","1138":"нец","1139":"нечи","114":"мо","1140":"непло","1141":"носо","1142":"рец","1143":"весе","1144":"весел","1145":"легко","1146":"лила","1147":"лар","1148":"лада","1149":"тью","115":"про","1150":"разма","1151":"разбитый","1152":"док","1153":"доми","1154":"шея","1155":"оби","1156":"семен","1157":"ийный","1158":"арпе","1159":"лька","116":"черкав","1160":"льков","1161":"атью","1162":"бей","1163":"без","1164":"бесс","1165":"ряк","1166":"мол","1167":"мор","1168":"мою","1169":"мочь","117":"ру","1170":"руби","1171":"миро","1172":"мила","1173":"милый","1174":"ниров","1175":"нимый","1176":"барем","1177":"само","1178":"саха","1179":"сяч","118":"клин","1180":"емый","1181":"емте","1182":"емся","1183":"версты","1184":"мудро","1185":"шип","1186":"широко","1187":"громко","1188":"кущий","1189":"высоко","119":"кош","1190":"сыпка","1191":"вини","1192":"види","1193":"чила","1194":"дали","1195":"дави","1196":"сущий","1197":"суще","1198":"вал","1199":"важно","12":"з","120":"ми","1200":"ход","1201":"холо","1202":"хорошо","1203":"бой","1204":"боко","1205":"бога","1206":"боже","1207":"пало","1208":"павший","1209":"сила","121":"рож","1210":"дурно","1211":"ски","1212":"скром","1213":"гай","1214":"гало","1215":"гаев","1216":"гур","1217":"гусь","1218":"дим","1219":"дина","122":"ни","1220":"дила","1221":"дить","1222":"рия","1223":"стройно","1224":"меж","1225":"пиц","1226":"так","1227":"шийся","1228":"стартере","1229":"хитро","123":"ба","1230":"пеш","1231":"пель","1232":"тина","1233":"тила","1234":"тировать","1235":"живо","1236":"ящийся","1237":"чело","1238":"честь","1239":"честно","124":"нут","1240":"декре","1241":"рысь","1242":"повезш","1243":"немно","1244":"чайно","1245":"сложен","1246":"сложно","1247":"брониров","1248":"жест","1249":"жело","125":"мен","1250":"жесто","1251":"ловко","1252":"нетвер","1253":"мученный","1254":"люб","1255":"берег","1256":"мышленный","1257":"хай","1258":"сослан","1259":"марь","126":"ет","1260":"слава","1261":"сладко","1262":"быти","1263":"слеп","1264":"гнутый","1265":"обобь","1266":"обоснуешь","1267":"бултыхнет","1268":"бултыхнешь","1269":"лятый","127":"са","1270":"лярный","1271":"пья","1272":"вшийся","1273":"горь","1274":"одра","1275":"инственно","1276":"гласный","1277":"править","1278":"правда","1279":"протек","128":"ся","1280":"скучно","1281":"трусить","1282":"страшно","1283":"коротко","1284":"толки","1285":"обопье","1286":"медленно","1287":"зубри","1288":"семью","1289":"сверла","129":"ем","1290":"орать","1291":"валить","1292":"черкающем","1293":"обобьешь","1294":"слых","1295":"смир","1296":"сжатый","1297":"глубоко","1298":"ниско","1299":"ярко","13":"и","130":"вер","1300":"забытье","1301":"городок","1302":"искренне","1303":"любим","1304":"спокойно","1305":"альпа","1306":"аварийный","1307":"ндарем","1308":"вкусно","1309":"уверенно","131":"му","1310":"дцатью","1311":"весело","1312":"размаз","1313":"семенов","1314":"скромно","1315":"бронированный","1316":"оя","1317":"здоро","1318":"чем","1319":"цирлих","132":"щий","1320":"-ман","1321":"коми","1322":"лио","1323":"лихо","1324":"теша","1325":"тепло","1326":"вероя","1327":"ниже","1328":"униженно","1329":"обыденно","133":"пруж","1330":"строев","1331":"кировать","1332":"ровно","1333":"пикировать","1334":"окунев","1335":"пестро","1336":"упоенный","1337":"восхищенный","1338":"поселенный","1339":"новорожденный","134":"ряж","1340":"мудрено","1341":"фолио","1342":"рейдировать","1343":"мертво","1344":"немудрено","1345":"недалеко","1346":"бордо","1347":"ин-фолио","1348":"слышно","1349":"хлоп","135":"ши","1350":"здорово","1351":"цирлих-ман","1352":"вероятно","1353":"цирлих-манирлих","1354":"см","1355":"сд","1356":"сен","1357":"сво","1358":"сна","1359":"сан","136":"гро","1360":"сли","1361":"соб","1362":"смен","1363":"сши","1364":"сма","1365":"слен","1366":"ссыпать","1367":"служ","1368":"спер","1369":"сче","137":"ный","1370":"сча","1371":"слу","1372":"сной","1373":"слю","1374":"ссыпаться","1375":"сметать","1376":"смы","1377":"сбы","1378":"слив","1379":"схлестнут","138":"ку","1380":"спас","1381":"скал","1382":"свое","1383":"сбре","1384":"съем","1385":"спой","1386":"споро","1387":"скликать","1388":"спил","1389":"схлебнут","139":"вед","1390":"спитой","1391":"счан","1392":"серег","1393":"смор","1394":"сход","1395":"ое","1396":"ор","1397":"ож","1398":"оч","1399":"ока","14":"й","140":"вы","1400":"она","1401":"оше","1402":"осо","1403":"опол","1404":"осыпать","1405":"осел","1406":"ожи","1407":"ощи","1408":"осыпаться","1409":"очев","141":"воло","1410":"оке","1411":"оплеснут","1412":"огла","1413":"очеркнут","1414":"оплыв","1415":"окоро","1416":"опал","1417":"осыпь","1418":"остри","1419":"озвезды","142":"ев","1420":"остекла","1421":"остер","1422":"огольцов","1423":"ге","1424":"гр","1425":"гий","1426":"гет","1427":"гда","1428":"гумен","1429":"гей","143":"вз","1430":"гля","1431":"грыз","1432":"гнуть","1433":"герца","1434":"лк","1435":"лле","1436":"лая","1437":"лто","1438":"лга","1439":"лгу","144":"сы","1440":"лны","1441":"лящий","1442":"ланный","1443":"лха","1444":"лган","1445":"лжно","1446":"лбина","1447":"аб","1448":"ат","1449":"ап","145":"ви","1450":"аи","1451":"ана","1452":"ало","1453":"али","1454":"ама","1455":"аду","1456":"агу","1457":"апи","1458":"алей","1459":"авно","146":"чи","1460":"альный","1461":"алом","1462":"агой","1463":"алле","1464":"ню","1465":"нц","1466":"нере","1467":"ний","1468":"нси","1469":"нду","147":"енней","1470":"нга","1471":"нди","1472":"нная","1473":"нственно","1474":"нтов","1475":"ндировать","1476":"ыкать","1477":"ырем","1478":"ыска","1479":"йст","148":"еннее","1480":"йся","1481":"йком","1482":"йцев","1483":"кс","1484":"кг","1485":"кле","1486":"кис","1487":"ктер","1488":"кров","1489":"кти","149":"пол","1490":"ккато","1491":"кряк","1492":"клятый","1493":"мм","1494":"мза","1495":"мис","1496":"мга","1497":"мгу","1498":"много","1499":"мволок","15":"к","150":"реше","1500":"млада","1501":"мнимый","1502":"бр","1503":"бь","1504":"бка","1505":"бко","1506":"бан","1507":"бло","1508":"бно","1509":"бот","151":"реж","1510":"боб","1511":"бар","1512":"бный","1513":"блен","1514":"бри","1515":"бров","1516":"блек","1517":"бнов","1518":"бьев","1519":"бряк","152":"да","1520":"еть","1521":"еди","1522":"есте","1523":"евой","1524":"есла","1525":"ественно","1526":"есть","1527":"едко","1528":"етесь","1529":"ельцов","153":"умен","1530":"емое","1531":"рз","1532":"рь","1533":"ренный","1534":"рис","1535":"рий","1536":"рса","1537":"рку","1538":"рту","1539":"рган","154":"рас","1540":"ргом","1541":"юс","1542":"юк","1543":"юд","1544":"юра","1545":"юся","1546":"юков","1547":"юхан","1548":"юрок","1549":"тэ","155":"су","1550":"тка","1551":"тве","1552":"тая","1553":"тенный","1554":"тий","1555":"тар","1556":"тать","1557":"три","1558":"тки","1559":"тупо","156":"ва","1560":"тлей","1561":"тлы","1562":"тиссимо","1563":"трий","1564":"жь","1565":"жен","1566":"жер","1567":"женная","1568":"жий","1569":"жни","157":"ьш","1570":"жет","1571":"жем","1572":"жев","1573":"жков","1574":"жгу","1575":"жанный","1576":"жженный","1577":"ждина","1578":"жний","1579":"пко","158":"дво","1580":"пан","1581":"пно","1582":"пис","1583":"пте","1584":"пта","1585":"пче","1586":"пью","1587":"петый","1588":"псина","1589":"пырем","159":"енност","1590":"вка","1591":"вна","1592":"вто","1593":"вла","1594":"вши","1595":"вма","1596":"всыпать","1597":"ври","1598":"вров","1599":"ввернут","16":"л","160":"стру","1600":"влов","1601":"вье","1602":"вью","1603":"вметать","1604":"вплеснут","1605":"вметнут","1606":"всем","1607":"вьев","1608":"всплеснут","1609":"впрям","161":"громл","1610":"втэ","1611":"зер","1612":"зло","1613":"зря","1614":"зви","1615":"зда","1616":"зков","1617":"зме","1618":"зде","1619":"злов","162":"ведер","1620":"здан","1621":"звя","1622":"зги","1623":"знуть","1624":"зву","1625":"зненно","1626":"звен","1627":"шен","1628":"шпо","1629":"шло","163":"волоч","1630":"шенный","1631":"шар","1632":"шни","1633":"шков","1634":"шта","1635":"шущий","1636":"шанный","1637":"швах","1638":"шпиц","1639":"ямо","164":"уменьш","1640":"яков","1641":"яров","1642":"ясно","1643":"яюще","1644":"язов","1645":"ятью","1646":"яемый","1647":"ие","1648":"иво","1649":"ина","165":"хо","1650":"ило","1651":"ила","1652":"има","1653":"ити","1654":"ище","1655":"идно","1656":"ице","1657":"истек","1658":"итю","1659":"истертый","166":"решеч","1660":"иван","1661":"ищущий","1662":"икато","1663":"чуж","1664":"чере","1665":"чая","1666":"ченный","1667":"чше","1668":"чий","1669":"чать","167":"струн","1670":"чный","1671":"чком","1672":"чущий","1673":"чьем","1674":"уль","1675":"уса","1676":"усыпать","1677":"умер","1678":"уча","1679":"увернут","168":"ма","1680":"усыпаться","1681":"уметать","1682":"уха","1683":"устой","1684":"ухлестнут","1685":"узко","1686":"ухлебнут","1687":"ушиб","1688":"ухов","1689":"уву","169":"пать","1690":"узы","1691":"урок","1692":"уголь","1693":"упавший","1694":"удила","1695":"умышленный","1696":"ундировать","1697":"ька","1698":"ьице","1699":"хра","17":"м","170":"пре","1700":"хна","1701":"хая","1702":"хот","1703":"хать","1704":"хру","1705":"хнут","1706":"хся","1707":"хму","1708":"хва","1709":"хров","171":"лен","1710":"хлов","1711":"хлю","1712":"хворо","1713":"хтере","1714":"денно","1715":"дая","1716":"дли","1717":"дла","1718":"дяд","1719":"дет","172":"тый","1720":"дный","1721":"дви","1722":"два","1723":"дков","1724":"днем","1725":"дрян","1726":"дня","1727":"дера","1728":"для","1729":"детый","173":"бо","1730":"дстоящий","1731":"дской","1732":"джо","1733":"дящийся","1734":"що","1735":"щенно","1736":"щать","1737":"цо","1738":"цы","1739":"цве","174":"па","1740":"цую","1741":"цкий","1742":"цандо","1743":"цикато","1744":"фе","1745":"фф","1746":"фри","1747":"фир","1748":"фрей","1749":"фитю","175":"прит","1750":"это","1751":"энный","1752":"эрз","1753":"-сер","1754":"ена","1755":"еница","1756":"еры","1757":"ернут","1758":"ерный","1759":"ершо","176":"си","1760":"ержанный","1761":"пов","1762":"пост","1763":"пока","1764":"пора","1765":"попере","1766":"пото","1767":"пола","1768":"поот","1769":"поль","177":"бу","1770":"посо","1771":"пова","1772":"попа","1773":"посыпать","1774":"пори","1775":"похле","1776":"повернут","1777":"потро","1778":"повой","1779":"поной","178":"упл","1780":"посыпаться","1781":"пожа","1782":"постой","1783":"после","1784":"полив","1785":"понь","1786":"поешь","1787":"потом","1788":"поселен","1789":"потек","179":"ду","1790":"попка","1791":"потертый","1792":"покреп","1793":"постри","1794":"покапать","1795":"повод","1796":"помятый","1797":"побрызгать","1798":"помочь","1799":"почесть","18":"н","180":"сыпать","1800":"поправить","1801":"потрусить","1802":"повалить","1803":"пошло","1804":"прет","1805":"пруг","1806":"прямо","1807":"стен","1808":"стре","1809":"стая","181":"ск","1810":"стли","1811":"стый","1812":"стный","1813":"ствы","1814":"стреж","1815":"стной","1816":"стиссимо","1817":"зая","1818":"зако","1819":"зана","182":"ков","1820":"заре","1821":"зачеркав","1822":"заем","1823":"зави","1824":"захо","1825":"запи","1826":"зачеркаю","1827":"замер","1828":"закра","1829":"зачеркаем","183":"саж","1830":"завернут","1831":"засыпаться","1832":"заметать","1833":"зачу","1834":"зачеркай","1835":"залив","1836":"заплеснут","1837":"заворо","1838":"засев","1839":"застегнут","184":"зна","1840":"захлестнут","1841":"зачеркнут","1842":"зальный","1843":"запас","1844":"засты","1845":"заплыв","1846":"запев","1847":"запой","1848":"засти","1849":"затек","185":"из","1850":"закликать","1851":"зачеркавший","1852":"запал","1853":"зачеркают","1854":"захлебнут","1855":"зачеркаете","1856":"зачеркаешь","1857":"зачеркайте","1858":"зачеркавшая","1859":"зачеркавшую","186":"точ","1860":"зарей","1861":"запла","1862":"задел","1863":"зачеркаемте","1864":"заоз","1865":"заданный","1866":"закапать","1867":"завод","1868":"зажитое","1869":"забрызгать","187":"план","1870":"загроможденного","1871":"запоем","1872":"загна","1873":"замол","1874":"засыпка","1875":"заберег","1876":"зандарем","1877":"забронированный","1878":"зайцев","1879":"завма","188":"сел","1880":"запрет","1881":"кай","1882":"как","1883":"кап","1884":"кая","1885":"како","1886":"кана","1887":"каре","1888":"кале","1889":"кала","189":"га","1890":"кари","1891":"кахи","1892":"канов","1893":"канный","1894":"катя","1895":"кальный","1896":"качка","1897":"казать","1898":"катан","1899":"капель","19":"о","190":"луж","1900":"уже","1901":"коне","1902":"коле","1903":"коли","1904":"кола","1905":"коте","1906":"коль","1907":"косы","1908":"кома","1909":"копа","191":"тер","1910":"колов","1911":"колю","1912":"коня","1913":"коля","1914":"кость","1915":"колет","1916":"костра","1917":"кожу","1918":"копен","1919":"концев","192":"зат","1920":"копье","1921":"костя","1922":"косим","1923":"когни","1924":"котлов","1925":"козе","1926":"корец","1927":"когда","1928":"конду","1929":"котлы","193":"ком","1930":"копте","1931":"козлов","1932":"рой","1933":"рого","1934":"роман","1935":"росто","1936":"ромен","1937":"ровой","1938":"роды","1939":"родом","194":"черкавше","1940":"родя","1941":"рогородок","1942":"вов","1943":"вода","1944":"волен","1945":"востро","1946":"вопи","1947":"вольный","1948":"вози","1949":"востоящий","195":"ниж","1950":"вошея","1951":"воинственно","1952":"восемью","1953":"воню","1954":"рам","1955":"рах","1956":"рали","1957":"рада","1958":"ради","1959":"рахи","196":"планер","1960":"райков","1961":"раву","1962":"ранимый","1963":"райком","1964":"рактер","1965":"равьев","1966":"нако","1967":"напере","1968":"насе","1969":"напод","197":"гу","1970":"начеркав","1971":"наса","1972":"наем","1973":"наволо","1974":"насы","1975":"насыпать","1976":"начеркаю","1977":"начеркаем","1978":"нача","1979":"навернут","198":"чин","1980":"насыпаться","1981":"наметать","1982":"настой","1983":"начеркай","1984":"налив","1985":"нахлестнут","1986":"наплыв","1987":"наволок","1988":"намолот","1989":"натек","199":"униж","1990":"накликать","1991":"начеркавший","1992":"начеркают","1993":"начеркаете","1994":"начеркаешь","1995":"начеркайте","1996":"начеркавшая","1997":"начеркавшую","1998":"насыпь","1999":"надел","2":"<START>","20":"п","200":"ди","2000":"начеркаемте","2001":"налетать","2002":"налитой","2003":"наболе","2004":"напасть","2005":"нажитое","2006":"напроти","2007":"нагроможденного","2008":"назальный","2009":"гораз","201":"обы","2010":"горя","2011":"гося","2012":"года","2013":"гори","2014":"голу","2015":"гоги","2016":"анно","2017":"аниссимо","2018":"ломл","2019":"лома","202":"ри","2020":"лось","2021":"лощи","2022":"лоску","2023":"лочь","2024":"ломов","2025":"лопар","2026":"нето","2027":"немо","2028":"непро","2029":"невер","203":"труж","2030":"неви","2031":"необы","2032":"нежи","2033":"небро","2034":"неско","2035":"нетесь","2036":"немой","2037":"немало","2038":"неверно","2039":"несом","204":"драз","2040":"неполно","2041":"нестекла","2042":"непросто","2043":"неточно","2044":"невре","2045":"неумно","2046":"немилый","2047":"немудро","2048":"нешироко","2049":"негромко","205":"створ","2050":"невысоко","2051":"несущий","2052":"неважно","2053":"нехорошо","2054":"недурно","2055":"нестройно","2056":"нехитро","2057":"нечестно","2058":"несложно","2059":"неловко","206":"заряж","2060":"нестрашно","2061":"немедленно","2062":"неслых","2063":"неглубоко","2064":"неярко","2065":"неискренне","2066":"невкусно","2067":"неуверенно","2068":"невесело","2069":"нескромно","207":"догруж","2070":"неспоро","2071":"неожи","2072":"небный","2073":"неясно","2074":"ноко","2075":"нова","2076":"носить","2077":"ноющий","2078":"носка","2079":"норный","208":"отвор","2080":"нозвезды","2081":"ночью","2082":"черно","2083":"черну","2084":"черный","2085":"червы","2086":"черта","2087":"черство","2088":"черствы","2089":"рея","209":"сеч","2090":"репо","2091":"реме","2092":"редко","2093":"ребла","2094":"резко","2095":"резво","2096":"резка","2097":"резать","2098":"ребра","2099":"резов","21":"р","210":"сточ","2100":"резана","2101":"перед","2102":"перечеркав","2103":"переем","2104":"переда","2105":"переду","2106":"пересыпать","2107":"перечеркаю","2108":"перепе","2109":"перечеркаем","211":"сторож","2110":"переупо","2111":"перевернут","2112":"пересыпаться","2113":"переметать","2114":"перестой","2115":"перечеркай","2116":"переплеснут","2117":"пересев","2118":"перестегнут","2119":"перехлестнут","212":"дразн","2120":"перечеркнут","2121":"переволок","2122":"переорем","2123":"перемолот","2124":"перепев","2125":"перепой","2126":"передом","2127":"перечеркавший","2128":"переметнут","2129":"перечеркают","213":"обыд","2130":"перечеркаете","2131":"перечеркаешь","2132":"перечеркайте","2133":"перечеркавшая","2134":"перечеркавшую","2135":"перешиб","2136":"пересыпь","2137":"перечеркаемте","2138":"переодетый","2139":"передавать","214":"ны","2140":"пережитое","2141":"переоремте","2142":"перетолки","2143":"переорать","2144":"перевози","2145":"черкал","2146":"черкая","2147":"черкало","2148":"черкали","2149":"черкала","215":"мет","2150":"черкать","2151":"черкает","2152":"гружен","2153":"груженном","2154":"груженным","2155":"груженный","2156":"груженного","2157":"груженная","2158":"груженной","2159":"груженную","216":"стро","2160":"груженною","2161":"груженные","2162":"груженных","2163":"груженному","2164":"груженное","2165":"груженными","2166":"век","2167":"вец","2168":"вела","2169":"вете","217":"баг","2170":"весы","2171":"вечи","2172":"весь","2173":"весла","2174":"весть","2175":"весно","2176":"вести","2177":"весны","2178":"весила","2179":"велярный","218":"ки","2180":"весной","2181":"вежий","2182":"лем","2183":"лею","2184":"лех","2185":"лесо","2186":"лега","2187":"левой","2188":"левый","2189":"летом","219":"ров","2190":"лезка","2191":"лесом","2192":"леден","2193":"леченный","2194":"аяся","2195":"того","2196":"тони","2197":"тоже","2198":"толет","2199":"то-то","22":"с","220":"ме","2200":"точило","2201":"тонко","2202":"торужье","2203":"тонга","2204":"торгом","2205":"тополь","2206":"токай","2207":"лина","2208":"лили","2209":"литый","221":"бл","2210":"липа","2211":"литер","2212":"лита","2213":"лись","2214":"лица","2215":"линный","2216":"литий","2217":"лицо","2218":"лифе","2219":"уюся","222":"жд","2220":"приев","2221":"приви","2222":"присыпать","2223":"пример","2224":"привернут","2225":"приметать","2226":"приста","2227":"присев","2228":"пристегнут","2229":"припас","223":"пер","2230":"приплыв","2231":"пристра","2232":"приселен","2233":"прихлебнут","2234":"пришиб","2235":"приодетый","2236":"пристя","2237":"принси","2238":"прилипа","2239":"лай","224":"ос","2240":"лана","2241":"ласо","2242":"лави","2243":"лава","2244":"лаби","2245":"ладно","2246":"лающий","2247":"лази","2248":"ладь","2249":"лазящий","225":"вле","2250":"лавров","2251":"лапонь","2252":"ться","2253":"тьем","2254":"разно","2255":"разящий","2256":"развернут","2257":"разметать","2258":"разлив","2259":"разъем","226":"насторож","2260":"раздел","2261":"разодетый","2262":"разлитой","2263":"раздра","2264":"разима","2265":"раздетый","2266":"дон","2267":"дов","2268":"доле","2269":"доль","227":"черкавши","2270":"домен","2271":"дочи","2272":"дома","2273":"досыпать","2274":"довернут","2275":"долу","2276":"досыпаться","2277":"дометать","2278":"достой","2279":"доплеснут","228":"зве","2280":"донь","2281":"довать","2282":"дости","2283":"докликать","2284":"дометнут","2285":"домит","2286":"долго","2287":"дохнуть","2288":"донец","2289":"должно","229":"полу","2290":"дорса","2291":"дождина","2292":"доносить","2293":"маня","2294":"манящий","2295":"манила","2296":"отру","2297":"отсыпать","2298":"отпе","2299":"отжи","23":"т","230":"пи","2300":"отби","2301":"отвернут","2302":"отсыпаться","2303":"отметать","2304":"отстой","2305":"отлив","2306":"отплеснут","2307":"ответ","2308":"отсев","2309":"отстегнут","231":"нер","2310":"отчеркнут","2311":"отцов","2312":"отек","2313":"отъем","2314":"оттек","2315":"отхлебнут","2316":"отстоящий","2317":"отшиб","2318":"отлетать","2319":"отчего","232":"та","2320":"отраженный","2321":"отренный","2322":"отпетый","2323":"отчая","2324":"отказать","2325":"шей","2326":"шек","2327":"шево","2328":"шестью","2329":"шепта","233":"ший","2330":"шестая","2331":"обсыпать","2332":"обжи","2333":"обмер","2334":"обвернут","2335":"обсыпаться","2336":"обметать","2337":"обсев","2338":"обмолот","2339":"объем","234":"стар","2340":"облетать","2341":"оберег","2342":"обухов","2343":"общо","2344":"обернут","2345":"облеченный","2346":"образно","2347":"сек","2348":"села","2349":"себе","235":"черкаю","2350":"седа","2351":"сема","2352":"секущий","2353":"седла","2354":"ядущий","2355":"ядеть","2356":"подло","2357":"подви","2358":"подсыпать","2359":"подмет","236":"шел","2360":"подвернут","2361":"подвой","2362":"подсыпаться","2363":"подметать","2364":"подлив","2365":"подплеснут","2366":"поддан","2367":"подсев","2368":"подстегнут","2369":"подхлестнут","237":"бежд","2370":"подчеркнут","2371":"подволок","2372":"подъем","2373":"подтек","2374":"подпал","2375":"подметнут","2376":"подпил","2377":"подлом","2378":"поддев","2379":"подданный","238":"оку","2380":"подразбитый","2381":"подсыпка","2382":"подсжатый","2383":"подрезов","2384":"пля","2385":"плюс","2386":"иса","2387":"ись","2388":"исчеркав","2389":"исчеркаю","239":"ов","2390":"исчеркаем","2391":"исчеркай","2392":"исчеркавший","2393":"исчеркают","2394":"исчеркаете","2395":"исчеркаешь","2396":"исчеркайте","2397":"исчеркавшая","2398":"исчеркавшую","2399":"исчеркаемте","24":"у","240":"шь","2400":"испитой","2401":"ископа","2402":"арко","2403":"арта","2404":"артю","2405":"стою","2406":"стоп","2407":"стоя","2408":"стогов","2409":"столько","241":"поле","2410":"столечко","2411":"столочь","2412":"нущий","2413":"нудь","2414":"нуэн","2415":"нудить","2416":"тел","2417":"тесла","2418":"тесно","2419":"течь","242":"рока","2420":"тельно","2421":"текущий","2422":"тетки","2423":"льс","2424":"льни","2425":"льга","2426":"льти","2427":"льца","2428":"льзящий","2429":"льчо","243":"гола","2430":"львов","2431":"бец","2432":"бели","2433":"бела","2434":"белен","2435":"бедно","2436":"безу","2437":"бегов","2438":"белена","2439":"бегом","244":"сель","2440":"бедра","2441":"белила","2442":"беспокойно","2443":"бедный","2444":"бестолочь","2445":"соло","2446":"сома","2447":"совой","2448":"солов","2449":"соня","245":"сорока","2450":"сочно","2451":"состегнут","2452":"софа","2453":"сосущий","2454":"согласный","2455":"создан","2456":"сонорный","2457":"солитер","2458":"содомит","2459":"соответ","246":"бай","2460":"сопля","2461":"мленный","2462":"рядочи","2463":"морож","2464":"моем","2465":"моча","2466":"модно","2467":"моющий","2468":"мости","2469":"молан","247":"хи","2470":"мокро","2471":"можно","2472":"мочило","2473":"может","2474":"мозги","2475":"модера","2476":"проем","2477":"прома","2478":"просыпать","2479":"просло","248":"рожд","2480":"провернут","2481":"прохла","2482":"просыпаться","2483":"прометать","2484":"простой","2485":"пролив","2486":"просев","2487":"прочеркнут","2488":"просты","2489":"проплыв","249":"окуне","2490":"проорем","2491":"просве","2492":"пропой","2493":"пропил","2494":"продел","2495":"простертый","2496":"пропасть","2497":"пропитой","2498":"прооремте","2499":"проводы","25":"ф","250":"дар","2500":"проорать","2501":"проклятый","2502":"прожженный","2503":"руда","2504":"руком","2505":"рудно","2506":"русла","2507":"русс","2508":"рунди","2509":"ручьем","251":"сте","2510":"кошен","2511":"кошенном","2512":"кошенным","2513":"кошенный","2514":"кошенного","2515":"кошенная","2516":"кошенной","2517":"кошенную","2518":"кошенною","2519":"кошенные","252":"тополе","2520":"кошенных","2521":"кошенному","2522":"кошенное","2523":"кошенными","2524":"миле","2525":"мирен","2526":"мирно","2527":"михай","2528":"милая","2529":"милица","253":"безве","2530":"минуэн","2531":"рожков","2532":"рожнов","2533":"ница","2534":"низо","2535":"низко","2536":"низка","2537":"ничто","2538":"нипоч","2539":"ничего","254":"холен","2540":"николь","2541":"бах","2542":"баев","2543":"бабу","2544":"бабай","2545":"басим","2546":"бабка","2547":"баканов","2548":"нутый","2549":"менами","255":"притупл","2550":"менее","2551":"етсестры","2552":"саше","2553":"сами","2554":"сабл","2555":"самар","2556":"сайка","2557":"самое","2558":"сазандарем","2559":"сяк","256":"полуведер","2560":"сящий","2561":"сянка","2562":"сятью","2563":"верг","2564":"верх","2565":"верна","2566":"верхи","2567":"верха","2568":"вернее","2569":"вертко","257":"голавле","2570":"вертка","2571":"вертолет","2572":"вертел","2573":"муся","2574":"мутировать","2575":"муравьев","2576":"мульти","2577":"пружен","2578":"пруженном","2579":"пруженным","258":"сорокаведер","2580":"пруженный","2581":"пруженного","2582":"пруженная","2583":"пруженной","2584":"пруженную","2585":"пруженною","2586":"пруженные","2587":"пруженных","2588":"пруженному","2589":"пруженное","259":"пе","2590":"пруженными","2591":"шиш","2592":"шило","2593":"шире","2594":"шила","2595":"шить","2596":"ширь","2597":"шипов","2598":"гров","2599":"громов","26":"х","260":"ти","2600":"грозно","2601":"гробина","2602":"громила","2603":"куба","2604":"куда","2605":"кума","2606":"кучно","2607":"кусина","2608":"купель","2609":"кутила","261":"жи","2610":"курган","2611":"кувши","2612":"кучий","2613":"веди","2614":"ведро","2615":"ведра","2616":"ведре","2617":"ведру","2618":"ведущий","2619":"ведром","262":"ящий","2620":"ведемся","2621":"выть","2622":"выше","2623":"выем","2624":"высыпать","2625":"вырожд","2626":"высыпаться","2627":"выметать","2628":"выпас","2629":"выгре","263":"че","2630":"выплыв","2631":"вымолот","2632":"выкликать","2633":"выпал","2634":"вытертый","2635":"выпек","2636":"выцвет","2637":"вышитый","2638":"выгл","2639":"вынуж","264":"знам","2640":"выраженный","2641":"выход","2642":"вымышленный","2643":"вырезать","2644":"вылитый","2645":"взры","2646":"взмы","2647":"взволок","2648":"взметнут","2649":"взгроможденного","265":"комбай","2650":"взим","2651":"сыр","2652":"сыро","2653":"сынов","2654":"вит","2655":"вив","2656":"вина","2657":"вили","2658":"вива","2659":"вита","266":"безвесель","2660":"видно","2661":"витой","2662":"викто","2663":"вибра","2664":"видать","2665":"вихров","2666":"визави","2667":"вительно","2668":"чих","2669":"чисто","267":"сло","2670":"чики","2671":"поля","2672":"полка","2673":"поленица","2674":"решета","2675":"режущий","2676":"дана","2677":"даль","2678":"дашка","2679":"давящий","268":"де","2680":"рассыпать","2681":"рассте","2682":"рассыпаться","2683":"расплеснут","2684":"расстегнут","2685":"расхлестнут","2686":"расчеркнут","2687":"распев","2688":"распил","2689":"расшитый","269":"вез","2690":"сука","2691":"суть","2692":"сухо","2693":"сущи","2694":"султ","2695":"супруг","2696":"суконцев","2697":"сушило","2698":"сугробина","2699":"вале","27":"ц","270":"преду","2700":"вато","2701":"вален","2702":"валу","2703":"валов","2704":"валей","2705":"валом","2706":"валена","2707":"струсить","2708":"громлен","2709":"громленном","271":"комбайнер","2710":"громленным","2711":"громленный","2712":"громленного","2713":"громленная","2714":"громленной","2715":"громленную","2716":"громленною","2717":"громленные","2718":"громленных","2719":"громленному","272":"мер","2720":"громленное","2721":"громленными","2722":"волочен","2723":"волоченном","2724":"волоченным","2725":"волоченный","2726":"волоченного","2727":"волоченная","2728":"волоченной","2729":"волоченную","273":"сь","2730":"волоченною","2731":"волоченные","2732":"волоченных","2733":"волоченному","2734":"волоченное","2735":"волоченными","2736":"уменьшен","2737":"уменьшенном","2738":"уменьшенным","2739":"уменьшенный","274":"кра","2740":"уменьшенного","2741":"уменьшенная","2742":"уменьшенной","2743":"уменьшенную","2744":"уменьшенною","2745":"уменьшенные","2746":"уменьшенных","2747":"уменьшенному","2748":"уменьшенное","2749":"уменьшенными","275":"ры","2750":"хом","2751":"хором","2752":"хохлов","2753":"решечен","2754":"решеченном","2755":"решеченным","2756":"решеченный","2757":"решеченного","2758":"решеченная","2759":"решеченной","276":"хле","2760":"решеченную","2761":"решеченною","2762":"решеченные","2763":"решеченных","2764":"решеченному","2765":"решеченное","2766":"струнен","2767":"струненном","2768":"струненным","2769":"струненный","277":"щи","2770":"струненного","2771":"струненная","2772":"струненной","2773":"струненную","2774":"струненною","2775":"струненные","2776":"струненных","2777":"струненному","2778":"струненное","2779":"маки","278":"повез","2780":"малей","2781":"малый","2782":"мальцев","2783":"маэсто","2784":"мальков","2785":"маслен","2786":"макс","2787":"матве","2788":"малави","2789":"мальчо","279":"нем","2790":"престо","2791":"предобро","2792":"премило","2793":"преданно","2794":"прескучно","2795":"предстоящий","2796":"престиссимо","2797":"лены","2798":"ленто","2799":"бов","28":"ч","280":"черкаем","2800":"боев","2801":"боков","2802":"боком","2803":"боров","2804":"бодро","2805":"болив","2806":"боек","2807":"больно","2808":"бойков","2809":"бочка","281":"енностя","2810":"бондарем","2811":"болящий","2812":"бочком","2813":"боровой","2814":"пара","2815":"пали","2816":"паша","2817":"паром","2818":"пайка","2819":"пахан","282":"стартер","2820":"пальцев","2821":"пахнуть","2822":"павлов","2823":"пакость","2824":"пахом","2825":"притертый","2826":"притрусить","2827":"сип","2828":"сиро","2829":"сива","283":"предубежд","2830":"силен","2831":"сипло","2832":"синь","2833":"сильно","2834":"сидя","2835":"ситный","2836":"сиона","2837":"сивка","2838":"буй","2839":"бура","284":"упо","2840":"буев","2841":"бути","2842":"буча","2843":"буйно","2844":"бурно","2845":"бузи","2846":"бучило","2847":"бубен","2848":"бугаев","2849":"бунтов","285":"би","2850":"бубнов","2851":"бушек","2852":"бурунди","2853":"бугров","2854":"дуло","2855":"дуто","2856":"дутый","2857":"душа","2858":"дущийся","2859":"дульцев","286":"ча","2860":"дулха","2861":"дубров","2862":"душен","2863":"скло","2864":"скри","2865":"скир","2866":"скверно","2867":"скребла","2868":"скверна","2869":"ковров","287":"черкае","2870":"ковский","2871":"сажа","2872":"сажи","2873":"саженно","2874":"саженны","2875":"саженном","2876":"саженным","2877":"саженный","2878":"саженного","2879":"саженная","288":"вернут","2880":"саженной","2881":"саженную","2882":"саженною","2883":"саженные","2884":"саженных","2885":"саженному","2886":"саженное","2887":"саженными","2888":"саженней","2889":"саженнее","289":"шелко","2890":"саженна","2891":"знать","2892":"издале","2893":"измолот","2894":"избитый","2895":"излетать","2896":"измятый","2897":"изоби","2898":"издали","2899":"измученный","29":"ш","290":"слож","2900":"изодра","2901":"изыска","2902":"изжев","2903":"изверг","2904":"извив","2905":"точен","2906":"точенном","2907":"точенным","2908":"точенный","2909":"точенного","291":"оре","2910":"точенная","2911":"точенной","2912":"точенную","2913":"точенною","2914":"точенные","2915":"точенных","2916":"точенному","2917":"точенное","2918":"точенными","2919":"точащий","292":"лу","2920":"планере","2921":"гас","2922":"гадко","2923":"галан","2924":"гаван","2925":"гаджи","2926":"гадим","2927":"гаври","2928":"гаити","2929":"галифе","293":"бро","2930":"лужен","2931":"луженном","2932":"луженным","2933":"луженный","2934":"луженного","2935":"луженная","2936":"луженной","2937":"луженную","2938":"луженною","2939":"луженные","294":"тро","2940":"луженных","2941":"луженному","2942":"луженное","2943":"луженными","2944":"лужков","2945":"терска","2946":"затрусить","2947":"затыкать","2948":"коммутировать","2949":"черкавшей","295":"же","2950":"черкавшем","2951":"черкавшее","2952":"черкавшею","2953":"черкавшего","2954":"черкавшему","2955":"планера","2956":"планеры","2957":"планеру","2958":"планерен","2959":"планерна","296":"хла","2960":"планерно","2961":"планерный","2962":"планеров","2963":"планерней","2964":"планерной","2965":"планерная","2966":"планернее","2967":"планером","2968":"планерами","2969":"планерного","297":"ще","2970":"планерам","2971":"планерах","2972":"планерное","2973":"планерную","2974":"планерном","2975":"планерною","2976":"планерному","2977":"густо","2978":"гущий","2979":"гуля","298":"вой","2980":"гудев","2981":"губной","2982":"гулька","2983":"гусек","2984":"чинен","2985":"чиненном","2986":"чиненным","2987":"чинно","2988":"чиненный","2989":"чиненного","299":"лов","2990":"чиненная","2991":"чиненной","2992":"чиненную","2993":"чиненною","2994":"чиненные","2995":"чиненных","2996":"чиненному","2997":"чиненное","2998":"чиненными","2999":"унижен","3":"<END>","30":"щ","300":"ведо","3000":"униженны","3001":"униженном","3002":"униженным","3003":"униженный","3004":"униженного","3005":"униженная","3006":"униженной","3007":"униженную","3008":"униженною","3009":"униженные","301":"опо","3010":"униженных","3011":"униженному","3012":"униженное","3013":"униженными","3014":"униженней","3015":"униженнее","3016":"униженности","3017":"униженность","3018":"униженностью","3019":"униженностей","302":"ых","3020":"униженностям","3021":"униженностях","3022":"униженностями","3023":"униженна","3024":"диа","3025":"дик","3026":"дико","3027":"диди","3028":"динка","3029":"дифф","303":"хр","3030":"диминуэн","3031":"диетсестры","3032":"рить","3033":"риев","3034":"ринов","3035":"рикша","3036":"ритен","3037":"тружен","3038":"труженном","3039":"труженным","304":"зас","3040":"труженный","3041":"труженного","3042":"труженная","3043":"труженной","3044":"труженную","3045":"труженною","3046":"труженные","3047":"труженных","3048":"труженному","3049":"труженное","305":"зак","3050":"труженными","3051":"створен","3052":"створенном","3053":"створенным","3054":"створенный","3055":"створенного","3056":"створенная","3057":"створенной","3058":"створенную","3059":"створенною","306":"запер","3060":"створенные","3061":"створенных","3062":"створенному","3063":"створенное","3064":"створенными","3065":"заряжен","3066":"заряженном","3067":"заряженным","3068":"заряженный","3069":"заряженного","307":"напо","3070":"заряженная","3071":"заряженной","3072":"заряженную","3073":"заряженною","3074":"заряженные","3075":"заряженных","3076":"заряженному","3077":"заряженное","3078":"заряженными","3079":"догружен","308":"ней","3080":"догруженном","3081":"догруженным","3082":"догруженный","3083":"догруженного","3084":"догруженная","3085":"догруженной","3086":"догруженную","3087":"догруженною","3088":"догруженные","3089":"догруженных","309":"нет","3090":"догруженному","3091":"догруженное","3092":"догруженными","3093":"отворен","3094":"отворенном","3095":"отворенным","3096":"отворенный","3097":"отворенного","3098":"отворенная","3099":"отворенной","31":"ъ","310":"неж","3100":"отворенную","3101":"отворенною","3102":"отворенные","3103":"отворенных","3104":"отворенному","3105":"отворенное","3106":"отворенными","3107":"сечен","3108":"сеченном","3109":"сеченным","311":"ной","3110":"сеченный","3111":"сеченного","3112":"сеченная","3113":"сеченной","3114":"сеченную","3115":"сеченною","3116":"сеченные","3117":"сеченных","3118":"сеченному","3119":"сеченное","312":"муч","3120":"сеченными","3121":"сторожа","3122":"сторожка","3123":"сторожко","3124":"обыденны","3125":"обыденном","3126":"обыденным","3127":"обыденный","3128":"обыденного","3129":"обыденная","313":"суш","3130":"обыденной","3131":"обыденную","3132":"обыденною","3133":"обыденные","3134":"обыденных","3135":"обыденному","3136":"обыденное","3137":"обыденными","3138":"обыденней","3139":"обыденнее","314":"схи","3140":"обыденности","3141":"обыденность","3142":"обыденностью","3143":"обыденностей","3144":"обыденностям","3145":"обыденностях","3146":"обыденностями","3147":"обыденна","3148":"ных","3149":"метан","315":"восхи","3150":"метлы","3151":"метил","3152":"метчик","3153":"метрогородок","3154":"строп","3155":"строен","3156":"строенном","3157":"строенным","3158":"строго","3159":"строенный","316":"ново","3160":"строенного","3161":"строенная","3162":"строенной","3163":"строенную","3164":"строенною","3165":"строенные","3166":"строенных","3167":"строенному","3168":"строенное","3169":"строенными","317":"восхищ","3170":"строчила","3171":"багрен","3172":"баграм","3173":"кил","3174":"кия","3175":"кина","3176":"кием","3177":"киев","3178":"кирали","3179":"кинозвезды","318":"ско","3180":"ровней","3181":"ровнею","3182":"мел","3183":"меду","3184":"мехи","3185":"мелко","3186":"мелок","3187":"месяч","3188":"медиа","3189":"блюд","319":"сгруж","3190":"перт","3191":"перу","3192":"перера","3193":"насторожен","3194":"настороженном","3195":"настороженным","3196":"настороженный","3197":"настороженного","3198":"настороженная","3199":"настороженной","32":"ы","320":"сман","3200":"настороженную","3201":"настороженною","3202":"настороженные","3203":"настороженных","3204":"настороженному","3205":"настороженное","3206":"настороженными","3207":"настороженней","3208":"настороженнее","3209":"настороженности","321":"сдво","3210":"настороженность","3211":"настороженностью","3212":"настороженностей","3213":"настороженностям","3214":"настороженностях","3215":"настороженностями","3216":"черкавшим","3217":"черкавшие","3218":"черкавших","3219":"черкавшими","322":"лю","3220":"полузасыпать","3221":"полуверсты","3222":"полузабытье","3223":"пим","3224":"пила","3225":"пица","3226":"пимы","3227":"питье","3228":"пиано","3229":"пишущий","323":"бере","3230":"пианиссимо","3231":"неравно","3232":"там","3233":"таво","3234":"таби","3235":"табель","3236":"тарань","3237":"таинственно","3238":"старший","3239":"старица","324":"впряд","3240":"старина","3241":"черкающий","3242":"шелка","3243":"шелку","3244":"окунь","3245":"овсянка","3246":"полет","3247":"голам","3248":"сельтерска","3249":"химволок","325":"вклин","3250":"окунева","3251":"окуневой","3252":"окуневей","3253":"окуневее","3254":"окуневый","3255":"окуневое","3256":"окуневая","3257":"окуневую","3258":"дари","3259":"дарен","326":"вск","3260":"даренном","3261":"даренным","3262":"даренный","3263":"даренного","3264":"даренная","3265":"даренной","3266":"даренную","3267":"даренною","3268":"даренные","3269":"даренных","327":"вкра","3270":"даренному","3271":"даренное","3272":"даренными","3273":"дармов","3274":"дар-сер","3275":"степ","3276":"стелю","3277":"стебла","3278":"стегна","3279":"стельга","328":"источ","3280":"тополев","3281":"тополева","3282":"тополевой","3283":"тополевей","3284":"тополевее","3285":"тополевый","3286":"тополевое","3287":"тополевая","3288":"тополевую","3289":"безвеселен","329":"уто","3290":"холена","3291":"холеная","3292":"холеную","3293":"холеный","3294":"холеных","3295":"холеней","3296":"холеном","3297":"холенее","3298":"притуплен","3299":"притупленном","33":"ь","330":"уман","3300":"притупленным","3301":"притупленный","3302":"притупленного","3303":"притупленная","3304":"притупленной","3305":"притупленную","3306":"притупленною","3307":"притупленные","3308":"притупленных","3309":"притупленному","331":"ущий","3310":"притупленное","3311":"притупленными","3312":"притупленности","3313":"притупленность","3314":"притупленностью","3315":"притупленностей","3316":"притупленностям","3317":"притупленностях","3318":"притупленностями","3319":"полуведерен","332":"усу","3320":"полуведерна","3321":"полуведерно","3322":"полуведерный","3323":"полуведерней","3324":"полуведерной","3325":"полуведерная","3326":"полуведернее","3327":"полуведерного","3328":"полуведерное","3329":"полуведерную","333":"ье","3330":"полуведерном","3331":"полуведерною","3332":"полуведерному","3333":"голавлев","3334":"голавлева","3335":"голавлевой","3336":"голавлевей","3337":"голавлевее","3338":"голавлевый","3339":"голавлевое","334":"ью","3340":"голавлевая","3341":"голавлевую","3342":"сорокаведерен","3343":"сорокаведерна","3344":"сорокаведерно","3345":"сорокаведерный","3346":"сорокаведерней","3347":"сорокаведерной","3348":"сорокаведерная","3349":"сорокаведернее","335":"ца","3350":"сорокаведерного","3351":"сорокаведерное","3352":"сорокаведерную","3353":"сорокаведерном","3354":"сорокаведерною","3355":"сорокаведерному","3356":"пей","3357":"пестры","3358":"пещущий","3359":"песчан","336":"погруж","3360":"пехтере","3361":"тим","3362":"тино","3363":"тихо","3364":"жио","3365":"жила","3366":"жиров","3367":"живой","3368":"жидко","3369":"жильцов","337":"поман","3370":"жиган","3371":"живете","3372":"чела","3373":"чеша","3374":"чественно","3375":"чески","3376":"челны","3377":"честной","3378":"знаменно","3379":"знаменны","338":"покош","3380":"знаменном","3381":"знаменным","3382":"знаменный","3383":"знаменного","3384":"знаменная","3385":"знаменной","3386":"знаменную","3387":"знаменною","3388":"знаменные","3389":"знаменных","339":"погромл","3390":"знаменному","3391":"знаменное","3392":"знаменными","3393":"знаменней","3394":"знаменнее","3395":"знаменна","3396":"комбайнере","3397":"безвесельна","3398":"безвесельно","3399":"безвесельный","34":"э","340":"загруж","3400":"безвесельней","3401":"безвесельной","3402":"безвесельная","3403":"безвесельнее","3404":"безвесельного","3405":"безвесельное","3406":"безвесельную","3407":"безвесельном","3408":"безвесельною","3409":"безвесельному","341":"заклин","3410":"словно","3411":"дец","3412":"дель","3413":"дежи","3414":"десны","3415":"десна","3416":"дейст","3417":"дешево","3418":"десятью","3419":"десущи","342":"запруж","3420":"вездесущи","3421":"предусм","3422":"комбайнера","3423":"комбайнеры","3424":"комбайнеру","3425":"комбайнерка","3426":"комбайнерку","3427":"комбайнерки","3428":"комбайнеров","3429":"комбайнерке","343":"зарешеч","3430":"комбайнером","3431":"комбайнерами","3432":"комбайнерам","3433":"комбайнерах","3434":"комбайнеркам","3435":"комбайнерках","3436":"комбайнерками","3437":"комбайнерок","3438":"комбайнеркой","3439":"комбайнеркою","344":"заточ","3440":"меря","3441":"мерла","3442":"мерси","3443":"мерзко","3444":"мерил","3445":"мерило","3446":"кратко","3447":"красящий","3448":"крадущийся","3449":"рыло","345":"залуж","3450":"рытый","3451":"рыбарем","3452":"хлегка","3453":"хлебушек","3454":"щинка","3455":"повезем","3456":"повезший","3457":"повезешь","3458":"повезете","3459":"повеземте","346":"засеч","3460":"немая","3461":"немчу","3462":"немного","3463":"черкаема","3464":"черкаемая","3465":"черкаемую","3466":"черкаемый","3467":"черкаемых","3468":"стартера","3469":"стартеры","347":"задразн","3470":"стартеру","3471":"стартеров","3472":"стартером","3473":"стартерами","3474":"стартерам","3475":"стартерах","3476":"предубежден","3477":"предубежденном","3478":"предубежденным","3479":"предубежденный","348":"захла","3480":"предубежденного","3481":"предубежденная","3482":"предубежденной","3483":"предубежденную","3484":"предубежденною","3485":"предубежденные","3486":"предубежденных","3487":"предубежденному","3488":"предубежденное","3489":"предубежденными","349":"коч","3490":"предубежденней","3491":"предубежденнее","3492":"упоен","3493":"упоенном","3494":"упоенным","3495":"упоенного","3496":"упоенная","3497":"упоенной","3498":"упоенную","3499":"упоенною","35":"ю","350":"рамл","3500":"упоенные","3501":"упоенных","3502":"упоенному","3503":"упоенное","3504":"упоенными","3505":"бит","3506":"бита","3507":"чад","3508":"часто","3509":"часы","351":"раствор","3510":"чайка","3511":"чаек","3512":"чайков","3513":"часом","3514":"частью","3515":"чаемый","3516":"часами","3517":"шелкова","3518":"шелковой","3519":"шелковей","352":"расточ","3520":"шелковее","3521":"шелковое","3522":"сложенном","3523":"сложенным","3524":"сложенный","3525":"сложенного","3526":"сложенная","3527":"сложенной","3528":"сложенную","3529":"сложенною","353":"нагруж","3530":"сложенные","3531":"сложенных","3532":"сложенному","3533":"сложенное","3534":"сложенными","3535":"орел","3536":"орет","3537":"орете","3538":"орешь","3539":"луй","354":"напряд","3540":"лука","3541":"луга","3542":"лугов","3543":"лучше","3544":"броней","3545":"броня","3546":"бронь","3547":"бронею","3548":"бронис","3549":"бронная","355":"напруж","3550":"бронестекла","3551":"троп","3552":"тростя","3553":"желт","3554":"жественно","3555":"жество","3556":"жечко","3557":"желто","3558":"жевела","3559":"железка","356":"наряж","3560":"хладно","3561":"щеку","3562":"щеки","3563":"щедро","3564":"щелк","3565":"щелевой","3566":"щелинный","3567":"ловчила","3568":"ведомо","3569":"ведомый","357":"наволоч","3570":"опойка","3571":"хрюк","3572":"заспанный","3573":"заклятый","3574":"заперлась","3575":"запершийся","3576":"напой","3577":"напоен","3578":"напоенном","3579":"напоенным","358":"начин","3580":"напоенный","3581":"напоенного","3582":"напоенная","3583":"напоенной","3584":"напоенную","3585":"напоенною","3586":"напоенные","3587":"напоенных","3588":"напоенному","3589":"напоенное","359":"натруж","3590":"напоенными","3591":"нетрудно","3592":"нежарко","3593":"мучен","3594":"мученном","3595":"мученным","3596":"мученного","3597":"мученная","3598":"мученной","3599":"мученную","36":"я","360":"анный","3600":"мученною","3601":"мученные","3602":"мученных","3603":"мученному","3604":"мученное","3605":"мученными","3606":"суша","3607":"новое","3608":"восхищен","3609":"восхищенном","361":"локоч","3610":"восхищенным","3611":"восхищенного","3612":"восхищенная","3613":"восхищенной","3614":"восхищенную","3615":"восхищенною","3616":"восхищенные","3617":"восхищенных","3618":"восхищенному","3619":"восхищенное","362":"недогруж","3620":"восхищенными","3621":"скоро","3622":"скора","3623":"сковоро","3624":"сколечко","3625":"скороди","3626":"скотина","3627":"скользящий","3628":"сгружен","3629":"сгруженном","363":"перегруж","3630":"сгруженным","3631":"сгруженный","3632":"сгруженного","3633":"сгруженная","3634":"сгруженной","3635":"сгруженную","3636":"сгруженною","3637":"сгруженные","3638":"сгруженных","3639":"сгруженному","364":"переман","3640":"сгруженное","3641":"сгруженными","3642":"сманен","3643":"сманенном","3644":"сманенным","3645":"сманенный","3646":"сманенного","3647":"сманенная","3648":"сманенной","3649":"сманенную","365":"перепряд","3650":"сманенною","3651":"сманенные","3652":"сманенных","3653":"сманенному","3654":"сманенное","3655":"сманенными","3656":"сдвоен","3657":"сдвоенном","3658":"сдвоенным","3659":"сдвоенный","366":"переклин","3660":"сдвоенного","3661":"сдвоенная","3662":"сдвоенной","3663":"сдвоенную","3664":"сдвоенною","3665":"сдвоенные","3666":"сдвоенных","3667":"сдвоенному","3668":"сдвоенное","3669":"сдвоенными","367":"перекош","3670":"люто","3671":"люба","3672":"любо","3673":"людно","3674":"люзи","3675":"берет","3676":"берест","3677":"бересте","3678":"берестой","3679":"бересты","368":"перепруж","3680":"бересту","3681":"бережков","3682":"берестою","3683":"впряден","3684":"впряденном","3685":"впряденным","3686":"впряденный","3687":"впряденного","3688":"впряденная","3689":"впряденной","369":"перезаряж","3690":"впряденную","3691":"впряденною","3692":"впряденные","3693":"впряденных","3694":"впряденному","3695":"впряденное","3696":"впряденными","3697":"вклинен","3698":"вклиненном","3699":"вклиненным","37":"ен","370":"передразн","3700":"вклиненный","3701":"вклиненного","3702":"вклиненная","3703":"вклиненной","3704":"вклиненную","3705":"вклиненною","3706":"вклиненные","3707":"вклиненных","3708":"вклиненному","3709":"вклиненное","371":"приман","3710":"вклиненными","3711":"источен","3712":"источенном","3713":"источенным","3714":"источенный","3715":"источенного","3716":"источенная","3717":"источенной","3718":"источенную","3719":"источенною","372":"припряд","3720":"источенные","3721":"источенных","3722":"источенному","3723":"источенное","3724":"источенными","3725":"уторить","3726":"уманен","3727":"уманенном","3728":"уманенным","3729":"уманенный","373":"приуменьш","3730":"уманенного","3731":"уманенная","3732":"уманенной","3733":"уманенную","3734":"уманенною","3735":"уманенные","3736":"уманенных","3737":"уманенному","3738":"уманенное","3739":"уманенными","374":"приструн","3740":"ущийся","3741":"цато","3742":"цапка","3743":"цапко","3744":"погружен","3745":"погруженном","3746":"погруженным","3747":"погруженный","3748":"погруженного","3749":"погруженная","375":"приотвор","3750":"погруженной","3751":"погруженную","3752":"погруженною","3753":"погруженные","3754":"погруженных","3755":"погруженному","3756":"погруженное","3757":"погруженными","3758":"поманен","3759":"поманенном","376":"разгруж","3760":"поманенным","3761":"поманенный","3762":"поманенного","3763":"поманенная","3764":"поманенной","3765":"поманенную","3766":"поманенною","3767":"поманенные","3768":"поманенных","3769":"поманенному","377":"разман","3770":"поманенное","3771":"поманенными","3772":"покошен","3773":"покошенном","3774":"покошенным","3775":"покошенный","3776":"покошенного","3777":"покошенная","3778":"покошенной","3779":"покошенную","378":"разряж","3780":"покошенною","3781":"покошенные","3782":"покошенных","3783":"покошенному","3784":"покошенное","3785":"покошенными","3786":"погромлен","3787":"погромленном","3788":"погромленным","3789":"погромленный","379":"разреж","3790":"погромленного","3791":"погромленная","3792":"погромленной","3793":"погромленную","3794":"погромленною","3795":"погромленные","3796":"погромленных","3797":"погромленному","3798":"погромленное","3799":"погромленными","38":"енн","380":"раздво","3800":"загружен","3801":"загруженном","3802":"загруженным","3803":"загруженный","3804":"загруженного","3805":"загруженная","3806":"загруженной","3807":"загруженную","3808":"загруженною","3809":"загруженные","381":"разгромл","3810":"загруженных","3811":"загруженному","3812":"загруженное","3813":"загруженными","3814":"заклинен","3815":"заклиненном","3816":"заклиненным","3817":"заклиненный","3818":"заклиненного","3819":"заклиненная","382":"допряд","3820":"заклиненной","3821":"заклиненную","3822":"заклиненною","3823":"заклиненные","3824":"заклиненных","3825":"заклиненному","3826":"заклиненное","3827":"заклиненными","3828":"запружен","3829":"запруженном","383":"отгруж","3830":"запруженным","3831":"запруженный","3832":"запруженного","3833":"запруженная","3834":"запруженной","3835":"запруженную","3836":"запруженною","3837":"запруженные","3838":"запруженных","3839":"запруженному","384":"отман","3840":"запруженное","3841":"запруженными","3842":"зарешечен","3843":"зарешеченном","3844":"зарешеченным","3845":"зарешеченный","3846":"зарешеченного","3847":"зарешеченная","3848":"зарешеченной","3849":"зарешеченную","385":"отпряд","3850":"зарешеченною","3851":"зарешеченные","3852":"зарешеченных","3853":"зарешеченному","3854":"зарешеченное","3855":"зарешеченными","3856":"заточен","3857":"заточенном","3858":"заточенным","3859":"заточенный","386":"отупл","3860":"заточенного","3861":"заточенная","3862":"заточенной","3863":"заточенную","3864":"заточенною","3865":"заточенные","3866":"заточенных","3867":"заточенному","3868":"заточенное","3869":"заточенными","387":"обрамл","3870":"залужен","3871":"залуженном","3872":"залуженным","3873":"залуженный","3874":"залуженного","3875":"залуженная","3876":"залуженной","3877":"залуженную","3878":"залуженною","3879":"залуженные","388":"облокоч","3880":"залуженных","3881":"залуженному","3882":"залуженное","3883":"залуженными","3884":"засечен","3885":"засеченном","3886":"засеченным","3887":"засеченный","3888":"засеченного","3889":"засеченная","389":"подгруж","3890":"засеченной","3891":"засеченную","3892":"засеченною","3893":"засеченные","3894":"засеченных","3895":"засеченному","3896":"засеченное","3897":"засеченными","3898":"задразнен","3899":"задразненном","39":"енно","390":"подман","3900":"задразненным","3901":"задразненный","3902":"задразненного","3903":"задразненная","3904":"задразненной","3905":"задразненную","3906":"задразненною","3907":"задразненные","3908":"задразненных","3909":"задразненному","391":"подар","3910":"задразненное","3911":"задразненными","3912":"растворен","3913":"растворенном","3914":"растворенным","3915":"растворенный","3916":"растворенного","3917":"растворенная","3918":"растворенной","3919":"растворенную","392":"подклин","3920":"растворенною","3921":"растворенные","3922":"растворенных","3923":"растворенному","3924":"растворенное","3925":"растворенными","3926":"расточен","3927":"расточенном","3928":"расточенным","3929":"расточенный","393":"подреж","3930":"расточенного","3931":"расточенная","3932":"расточенной","3933":"расточенную","3934":"расточенною","3935":"расточенные","3936":"расточенных","3937":"расточенному","3938":"расточенное","3939":"расточенными","394":"подволоч","3940":"нагружен","3941":"нагруженном","3942":"нагруженным","3943":"нагруженный","3944":"нагруженного","3945":"нагруженная","3946":"нагруженной","3947":"нагруженную","3948":"нагруженною","3949":"нагруженные","395":"испряд","3950":"нагруженных","3951":"нагруженному","3952":"нагруженное","3953":"нагруженными","3954":"напряден","3955":"напряденном","3956":"напряденным","3957":"напряденный","3958":"напряденного","3959":"напряденная","396":"искош","3960":"напряденной","3961":"напряденную","3962":"напряденною","3963":"напряденные","3964":"напряденных","3965":"напряденному","3966":"напряденное","3967":"напряденными","3968":"напружен","3969":"напруженном","397":"иссуш","3970":"напруженным","3971":"напруженный","3972":"напруженного","3973":"напруженная","3974":"напруженной","3975":"напруженную","3976":"напруженною","3977":"напруженные","3978":"напруженных","3979":"напруженному","398":"сострун","3980":"напруженное","3981":"напруженными","3982":"наряжен","3983":"наряженном","3984":"наряженным","3985":"наряженный","3986":"наряженного","3987":"наряженная","3988":"наряженной","3989":"наряженную","399":"рян","3990":"наряженною","3991":"наряженные","3992":"наряженных","3993":"наряженному","3994":"наряженное","3995":"наряженными","3996":"наволочен","3997":"наволоченном","3998":"наволоченным","3999":"наволоченный","4":"-","40":"ер","400":"мощ","4000":"наволоченного","4001":"наволоченная","4002":"наволоченной","4003":"наволоченную","4004":"наволоченною","4005":"наволоченные","4006":"наволоченных","4007":"наволоченному","4008":"наволоченное","4009":"наволоченными","401":"прогруж","4010":"начинен","4011":"начиненном","4012":"начиненным","4013":"начиненный","4014":"начиненного","4015":"начиненная","4016":"начиненной","4017":"начиненную","4018":"начиненною","4019":"начиненные","402":"пропряд","4020":"начиненных","4021":"начиненному","4022":"начиненное","4023":"начиненными","4024":"натружен","4025":"натруженном","4026":"натруженным","4027":"натруженный","4028":"натруженного","4029":"натруженная","403":"прореж","4030":"натруженной","4031":"натруженную","4032":"натруженною","4033":"натруженные","4034":"натруженных","4035":"натруженному","4036":"натруженное","4037":"натруженными","4038":"недогружен","4039":"недогруженном","404":"рожн","4040":"недогруженным","4041":"недогруженный","4042":"недогруженного","4043":"недогруженная","4044":"недогруженной","4045":"недогруженную","4046":"недогруженною","4047":"недогруженные","4048":"недогруженных","4049":"недогруженному","405":"верж","4050":"недогруженное","4051":"недогруженными","4052":"перегружен","4053":"перегруженном","4054":"перегруженным","4055":"перегруженный","4056":"перегруженного","4057":"перегруженная","4058":"перегруженной","4059":"перегруженную","406":"взман","4060":"перегруженною","4061":"перегруженные","4062":"перегруженных","4063":"перегруженному","4064":"перегруженное","4065":"перегруженными","4066":"переманен","4067":"переманенном","4068":"переманенным","4069":"переманенный","407":"взви","4070":"переманенного","4071":"переманенная","4072":"переманенной","4073":"переманенную","4074":"переманенною","4075":"переманенные","4076":"переманенных","4077":"переманенному","4078":"переманенное","4079":"переманенными","408":"вздво","4080":"перепряден","4081":"перепряденном","4082":"перепряденным","4083":"перепряденный","4084":"перепряденного","4085":"перепряденная","4086":"перепряденной","4087":"перепряденную","4088":"перепряденною","4089":"перепряденные","409":"расклин","4090":"перепряденных","4091":"перепряденному","4092":"перепряденное","4093":"перепряденными","4094":"переклинен","4095":"переклиненном","4096":"переклиненным","4097":"переклиненный","4098":"переклиненного","4099":"переклиненная","41":"енны","410":"раскош","4100":"переклиненной","4101":"переклиненную","4102":"переклиненною","4103":"переклиненные","4104":"переклиненных","4105":"переклиненному","4106":"переклиненное","4107":"переклиненными","4108":"перекошен","4109":"перекошенном","411":"преуменьш","4110":"перекошенным","4111":"перекошенный","4112":"перекошенного","4113":"перекошенная","4114":"перекошенной","4115":"перекошенную","4116":"перекошенною","4117":"перекошенные","4118":"перекошенных","4119":"перекошенному","412":"притвор","4120":"перекошенное","4121":"перекошенными","4122":"перепружен","4123":"перепруженном","4124":"перепруженным","4125":"перепруженный","4126":"перепруженного","4127":"перепруженная","4128":"перепруженной","4129":"перепруженную","413":"сыпаться","4130":"перепруженною","4131":"перепруженные","4132":"перепруженных","4133":"перепруженному","4134":"перепруженное","4135":"перепруженными","4136":"перезаряжен","4137":"перезаряженном","4138":"перезаряженным","4139":"перезаряженный","414":"изрешеч","4140":"перезаряженного","4141":"перезаряженная","4142":"перезаряженной","4143":"перезаряженную","4144":"перезаряженною","4145":"перезаряженные","4146":"перезаряженных","4147":"перезаряженному","4148":"перезаряженное","4149":"перезаряженными","415":"затвор","4150":"передразнен","4151":"передразненном","4152":"передразненным","4153":"передразненный","4154":"передразненного","4155":"передразненная","4156":"передразненной","4157":"передразненную","4158":"передразненною","4159":"передразненные","416":"затверж","4160":"передразненных","4161":"передразненному","4162":"передразненное","4163":"передразненными","4164":"приманен","4165":"приманенном","4166":"приманенным","4167":"приманенный","4168":"приманенного","4169":"приманенная","417":"метать","4170":"приманенной","4171":"приманенную","4172":"приманенною","4173":"приманенные","4174":"приманенных","4175":"приманенному","4176":"приманенное","4177":"приманенными","4178":"припряден","4179":"припряденном","418":"осведо","4180":"припряденным","4181":"припряденный","4182":"припряденного","4183":"припряденная","4184":"припряденной","4185":"припряденную","4186":"припряденною","4187":"припряденные","4188":"припряденных","4189":"припряденному","419":"опорожн","4190":"припряденное","4191":"припряденными","4192":"приуменьшен","4193":"приуменьшенном","4194":"приуменьшенным","4195":"приуменьшенный","4196":"приуменьшенного","4197":"приуменьшенная","4198":"приуменьшенной","4199":"приуменьшенную","42":"по","420":"заснеж","4200":"приуменьшенною","4201":"приуменьшенные","4202":"приуменьшенных","4203":"приуменьшенному","4204":"приуменьшенное","4205":"приуменьшенными","4206":"приструнен","4207":"приструненном","4208":"приструненным","4209":"приструненный","421":"закруж","4210":"приструненного","4211":"приструненная","4212":"приструненной","4213":"приструненную","4214":"приструненною","4215":"приструненные","4216":"приструненных","4217":"приструненному","4218":"приструненное","4219":"приструненными","422":"вскруж","4220":"приотворен","4221":"приотворенном","4222":"приотворенным","4223":"приотворенный","4224":"приотворенного","4225":"приотворенная","4226":"приотворенной","4227":"приотворенную","4228":"приотворенною","4229":"приотворенные","423":"вкрапл","4230":"приотворенных","4231":"приотворенному","4232":"приотворенное","4233":"приотворенными","4234":"разгружен","4235":"разгруженном","4236":"разгруженным","4237":"разгруженный","4238":"разгруженного","4239":"разгруженная","424":"усугу","4240":"разгруженной","4241":"разгруженную","4242":"разгруженною","4243":"разгруженные","4244":"разгруженных","4245":"разгруженному","4246":"разгруженное","4247":"разгруженными","4248":"разманен","4249":"разманенном","425":"захламощ","4250":"разманенным","4251":"разманенный","4252":"разманенного","4253":"разманенная","4254":"разманенной","4255":"разманенную","4256":"разманенною","4257":"разманенные","4258":"разманенных","4259":"разманенному","426":"взвихр","4260":"разманенное","4261":"разманенными","4262":"разряжен","4263":"разряженном","4264":"разряженным","4265":"разряженный","4266":"разряженного","4267":"разряженная","4268":"разряженной","4269":"разряженную","427":"осведомл","4270":"разряженною","4271":"разряженные","4272":"разряженных","4273":"разряженному","4274":"разряженное","4275":"разряженными","4276":"разрежен","4277":"разреженном","4278":"разреженным","4279":"разреженный","428":"посел","4280":"разреженного","4281":"разреженная","4282":"разреженной","4283":"разреженную","4284":"разреженною","4285":"разреженные","4286":"разреженных","4287":"разреженному","4288":"разреженное","4289":"разреженными","429":"мы","4290":"раздвоен","4291":"раздвоенном","4292":"раздвоенным","4293":"раздвоенный","4294":"раздвоенного","4295":"раздвоенная","4296":"раздвоенной","4297":"раздвоенную","4298":"раздвоенною","4299":"раздвоенные","43":"пр","430":"рен","4300":"раздвоенных","4301":"раздвоенному","4302":"раздвоенное","4303":"раздвоенными","4304":"разгромлен","4305":"разгромленном","4306":"разгромленным","4307":"разгромленный","4308":"разгромленного","4309":"разгромленная","431":"ха","4310":"разгромленной","4311":"разгромленную","4312":"разгромленною","4313":"разгромленные","4314":"разгромленных","4315":"разгромленному","4316":"разгромленное","4317":"разгромленными","4318":"допряден","4319":"допряденном","432":"дро","4320":"допряденным","4321":"допряденный","4322":"допряденного","4323":"допряденная","4324":"допряденной","4325":"допряденную","4326":"допряденною","4327":"допряденные","4328":"допряденных","4329":"допряденному","433":"дно","4330":"допряденное","4331":"допряденными","4332":"отгружен","4333":"отгруженном","4334":"отгруженным","4335":"отгруженный","4336":"отгруженного","4337":"отгруженная","4338":"отгруженной","4339":"отгруженную","434":"лек","4340":"отгруженною","4341":"отгруженные","4342":"отгруженных","4343":"отгруженному","4344":"отгруженное","4345":"отгруженными","4346":"отманен","4347":"отманенном","4348":"отманенным","4349":"отманенный","435":"той","4350":"отманенного","4351":"отманенная","4352":"отманенной","4353":"отманенную","4354":"отманенною","4355":"отманенные","4356":"отманенных","4357":"отманенному","4358":"отманенное","4359":"отманенными","436":"присел","4360":"отпряден","4361":"отпряденном","4362":"отпряденным","4363":"отпряденный","4364":"отпряденного","4365":"отпряденная","4366":"отпряденной","4367":"отпряденную","4368":"отпряденною","4369":"отпряденные","437":"тепл","4370":"отпряденных","4371":"отпряденному","4372":"отпряденное","4373":"отпряденными","4374":"отуплен","4375":"отупленном","4376":"отупленным","4377":"отупленный","4378":"отупленного","4379":"отупленная","438":"сос","4380":"отупленной","4381":"отупленную","4382":"отупленною","4383":"отупленные","4384":"отупленных","4385":"отупленному","4386":"отупленное","4387":"отупленными","4388":"обрамлен","4389":"обрамленном","439":"сач","4390":"обрамленным","4391":"обрамленный","4392":"обрамленного","4393":"обрамленная","4394":"обрамленной","4395":"обрамленную","4396":"обрамленною","4397":"обрамленные","4398":"обрамленных","4399":"обрамленному","44":"ст","440":"полн","4400":"обрамленное","4401":"обрамленными","4402":"облокочен","4403":"облокоченном","4404":"облокоченным","4405":"облокоченный","4406":"облокоченного","4407":"облокоченная","4408":"облокоченной","4409":"облокоченную","441":"багрян","4410":"облокоченною","4411":"облокоченные","4412":"облокоченных","4413":"облокоченному","4414":"облокоченное","4415":"облокоченными","4416":"подгружен","4417":"подгруженном","4418":"подгруженным","4419":"подгруженный","442":"усугубл","4420":"подгруженного","4421":"подгруженная","4422":"подгруженной","4423":"подгруженную","4424":"подгруженною","4425":"подгруженные","4426":"подгруженных","4427":"подгруженному","4428":"подгруженное","4429":"подгруженными","443":"мар","4430":"подманен","4431":"подманенном","4432":"подманенным","4433":"подманенный","4434":"подманенного","4435":"подманенная","4436":"подманенной","4437":"подманенную","4438":"подманенною","4439":"подманенные","444":"ша","4440":"подманенных","4441":"подманенному","4442":"подманенное","4443":"подманенными","4444":"подарен","4445":"подаренном","4446":"подаренным","4447":"подаренный","4448":"подаренного","4449":"подаренная","445":"новорожд","4450":"подаренной","4451":"подаренную","4452":"подаренною","4453":"подаренные","4454":"подаренных","4455":"подаренному","4456":"подаренное","4457":"подаренными","4458":"подклинен","4459":"подклиненном","446":"лт","4460":"подклиненным","4461":"подклиненный","4462":"подклиненного","4463":"подклиненная","4464":"подклиненной","4465":"подклиненную","4466":"подклиненною","4467":"подклиненные","4468":"подклиненных","4469":"подклиненному","447":"ту","4470":"подклиненное","4471":"подклиненными","4472":"подрежен","4473":"подреженном","4474":"подреженным","4475":"подреженный","4476":"подреженного","4477":"подреженная","4478":"подреженной","4479":"подреженную","448":"шо","4480":"подреженною","4481":"подреженные","4482":"подреженных","4483":"подреженному","4484":"подреженное","4485":"подреженными","4486":"подволочен","4487":"подволоченном","4488":"подволоченным","4489":"подволоченный","449":"цев","4490":"подволоченного","4491":"подволоченная","4492":"подволоченной","4493":"подволоченную","4494":"подволоченною","4495":"подволоченные","4496":"подволоченных","4497":"подволоченному","4498":"подволоченное","4499":"подволоченными","45":"за","450":"ста","4500":"испряден","4501":"испряденном","4502":"испряденным","4503":"испряденный","4504":"испряденного","4505":"испряденная","4506":"испряденной","4507":"испряденную","4508":"испряденною","4509":"испряденные","451":"ная","4510":"испряденных","4511":"испряденному","4512":"испряденное","4513":"испряденными","4514":"искошен","4515":"искошенном","4516":"искошенным","4517":"искошенный","4518":"искошенного","4519":"искошенная","452":"багр","4520":"искошенной","4521":"искошенную","4522":"искошенною","4523":"искошенные","4524":"искошенных","4525":"искошенному","4526":"искошенное","4527":"искошенными","4528":"иссушен","4529":"иссушенном","453":"сла","4530":"иссушенным","4531":"иссушенный","4532":"иссушенного","4533":"иссушенная","4534":"иссушенной","4535":"иссушенную","4536":"иссушенною","4537":"иссушенные","4538":"иссушенных","4539":"иссушенному","454":"бы","4540":"иссушенное","4541":"иссушенными","4542":"сострунен","4543":"соструненном","4544":"соструненным","4545":"соструненный","4546":"соструненного","4547":"соструненная","4548":"соструненной","4549":"соструненную","455":"ей","4550":"соструненною","4551":"соструненные","4552":"соструненных","4553":"соструненному","4554":"соструненное","4555":"соструненными","4556":"прогружен","4557":"прогруженном","4558":"прогруженным","4559":"прогруженный","456":"жа","4560":"прогруженного","4561":"прогруженная","4562":"прогруженной","4563":"прогруженную","4564":"прогруженною","4565":"прогруженные","4566":"прогруженных","4567":"прогруженному","4568":"прогруженное","4569":"прогруженными","457":"пле","4570":"пропряден","4571":"пропряденном","4572":"пропряденным","4573":"пропряденный","4574":"пропряденного","4575":"пропряденная","4576":"пропряденной","4577":"пропряденную","4578":"пропряденною","4579":"пропряденные","458":"венно","4580":"пропряденных","4581":"пропряденному","4582":"пропряденное","4583":"пропряденными","4584":"прорежен","4585":"прореженном","4586":"прореженным","4587":"прореженный","4588":"прореженного","4589":"прореженная","459":"чу","4590":"прореженной","4591":"прореженную","4592":"прореженною","4593":"прореженные","4594":"прореженных","4595":"прореженному","4596":"прореженное","4597":"прореженными","4598":"взманен","4599":"взманенном","46":"ка","460":"чев","4600":"взманенным","4601":"взманенный","4602":"взманенного","4603":"взманенная","4604":"взманенной","4605":"взманенную","4606":"взманенною","4607":"взманенные","4608":"взманенных","4609":"взманенному","461":"уг","4610":"взманенное","4611":"взманенными","4612":"вздвоен","4613":"вздвоенном","4614":"вздвоенным","4615":"вздвоенный","4616":"вздвоенного","4617":"вздвоенная","4618":"вздвоенной","4619":"вздвоенную","462":"дрен","4620":"вздвоенною","4621":"вздвоенные","4622":"вздвоенных","4623":"вздвоенному","4624":"вздвоенное","4625":"вздвоенными","4626":"расклинен","4627":"расклиненном","4628":"расклиненным","4629":"расклиненный","463":"элек","4630":"расклиненного","4631":"расклиненная","4632":"расклиненной","4633":"расклиненную","4634":"расклиненною","4635":"расклиненные","4636":"расклиненных","4637":"расклиненному","4638":"расклиненное","4639":"расклиненными","464":"ственно","4640":"раскошен","4641":"раскошенном","4642":"раскошенным","4643":"раскошенный","4644":"раскошенного","4645":"раскошенная","4646":"раскошенной","4647":"раскошенную","4648":"раскошенною","4649":"раскошенные","465":"обос","4650":"раскошенных","4651":"раскошенному","4652":"раскошенное","4653":"раскошенными","4654":"преуменьшен","4655":"преуменьшенном","4656":"преуменьшенным","4657":"преуменьшенный","4658":"преуменьшенного","4659":"преуменьшенная","466":"стой","4660":"преуменьшенной","4661":"преуменьшенную","4662":"преуменьшенною","4663":"преуменьшенные","4664":"преуменьшенных","4665":"преуменьшенному","4666":"преуменьшенное","4667":"преуменьшенными","4668":"притворен","4669":"притворенном","467":"моло","4670":"притворенным","4671":"притворенный","4672":"притворенного","4673":"притворенная","4674":"притворенной","4675":"притворенную","4676":"притворенною","4677":"притворенные","4678":"притворенных","4679":"притворенному","468":"мудрен","4680":"притворенное","4681":"притворенными","4682":"изрешечен","4683":"изрешеченном","4684":"изрешеченным","4685":"изрешеченный","4686":"изрешеченного","4687":"изрешеченная","4688":"изрешеченной","4689":"изрешеченную","469":"сажен","4690":"изрешеченною","4691":"изрешеченные","4692":"изрешеченных","4693":"изрешеченному","4694":"изрешеченное","4695":"изрешеченными","4696":"затворен","4697":"затворенном","4698":"затворенным","4699":"затворенный","47":"уж","470":"знамен","4700":"затворенного","4701":"затворенная","4702":"затворенной","4703":"затворенную","4704":"затворенною","4705":"затворенные","4706":"затворенных","4707":"затворенному","4708":"затворенное","4709":"затворенными","471":"электро","4710":"затвержен","4711":"затверженном","4712":"затверженным","4713":"затверженный","4714":"затверженного","4715":"затверженная","4716":"затверженной","4717":"затверженную","4718":"затверженною","4719":"затверженные","472":"сле","4720":"затверженных","4721":"затверженному","4722":"затверженное","4723":"затверженными","4724":"опорожнен","4725":"опорожненном","4726":"опорожненным","4727":"опорожненный","4728":"опорожненного","4729":"опорожненная","473":"снут","4730":"опорожненной","4731":"опорожненную","4732":"опорожненною","4733":"опорожненные","4734":"опорожненных","4735":"опорожненному","4736":"опорожненное","4737":"опорожненными","4738":"заснежен","4739":"заснеженном","474":"гнут","4740":"заснеженным","4741":"заснеженный","4742":"заснеженного","4743":"заснеженная","4744":"заснеженной","4745":"заснеженную","4746":"заснеженною","4747":"заснеженные","4748":"заснеженных","4749":"заснеженному","475":"ня","4750":"заснеженное","4751":"заснеженными","4752":"закружен","4753":"закруженном","4754":"закруженным","4755":"закруженный","4756":"закруженного","4757":"закруженная","4758":"закруженной","4759":"закруженную","476":"ке","4760":"закруженною","4761":"закруженные","4762":"закруженных","4763":"закруженному","4764":"закруженное","4765":"закруженными","4766":"вскружен","4767":"вскруженном","4768":"вскруженным","4769":"вскруженный","477":"кре","4770":"вскруженного","4771":"вскруженная","4772":"вскруженной","4773":"вскруженную","4774":"вскруженною","4775":"вскруженные","4776":"вскруженных","4777":"вскруженному","4778":"вскруженное","4779":"вскруженными","478":"зу","4780":"вкраплен","4781":"вкрапленном","4782":"вкрапленным","4783":"вкрапленный","4784":"вкрапленного","4785":"вкрапленная","4786":"вкрапленной","4787":"вкрапленную","4788":"вкрапленною","4789":"вкрапленные","479":"ера","4790":"вкрапленных","4791":"вкрапленному","4792":"вкрапленное","4793":"вкрапленными","4794":"усугублен","4795":"захламощен","4796":"захламощенном","4797":"захламощенным","4798":"захламощенный","4799":"захламощенного","48":"ко","480":"черкай","4800":"захламощенная","4801":"захламощенной","4802":"захламощенную","4803":"захламощенною","4804":"захламощенные","4805":"захламощенных","4806":"захламощенному","4807":"захламощенное","4808":"захламощенными","4809":"взвихрен","481":"лей","4810":"взвихренном","4811":"взвихренным","4812":"взвихренный","4813":"взвихренного","4814":"взвихренная","4815":"взвихренной","4816":"взвихренную","4817":"взвихренною","4818":"взвихренные","4819":"взвихренных","482":"лив","4820":"взвихренному","4821":"взвихренное","4822":"взвихренными","4823":"осведомлен","4824":"осведомленном","4825":"осведомленным","4826":"осведомленный","4827":"осведомленного","4828":"осведомленная","4829":"осведомленной","483":"обоб","4830":"осведомленную","4831":"осведомленною","4832":"осведомленные","4833":"осведомленных","4834":"осведомленному","4835":"осведомленное","4836":"осведомленными","4837":"поселенном","4838":"поселенным","4839":"поселенного","484":"бечев","4840":"поселенная","4841":"поселенной","4842":"поселенную","4843":"поселенною","4844":"поселенные","4845":"поселенных","4846":"поселенному","4847":"поселенное","4848":"поселенными","4849":"мыт","485":"черкавш","4850":"мыло","4851":"мытый","4852":"мыков","4853":"мысл","4854":"мышей","4855":"хало","4856":"хамит","4857":"хамза","4858":"хауса","4859":"характер","486":"булт","4860":"дрогнуть","4861":"дробно","4862":"приселенном","4863":"приселенным","4864":"приселенный","4865":"приселенного","4866":"приселенная","4867":"приселенной","4868":"приселенную","4869":"приселенною","487":"хлест","4870":"приселенные","4871":"приселенных","4872":"приселенному","4873":"приселенное","4874":"приселенными","4875":"теплен","4876":"тепленном","4877":"тепленным","4878":"тепленный","4879":"тепленного","488":"сосен","4880":"тепленная","4881":"тепленной","4882":"тепленную","4883":"тепленною","4884":"тепленные","4885":"тепленных","4886":"тепленному","4887":"тепленное","4888":"сосланный","4889":"сачен","489":"плеснут","4890":"саченном","4891":"саченным","4892":"саченный","4893":"саченного","4894":"саченная","4895":"саченной","4896":"саченную","4897":"саченною","4898":"саченные","4899":"саченных","49":"ро","490":"обосну","4900":"саченному","4901":"саченное","4902":"полнен","4903":"полненном","4904":"полненным","4905":"полненный","4906":"полненного","4907":"полненная","4908":"полненной","4909":"полненную","491":"знаменщи","4910":"полненною","4911":"полненные","4912":"полненных","4913":"полненному","4914":"полненное","4915":"багрянен","4916":"багряненном","4917":"багряненным","4918":"багряненный","4919":"багряненного","492":"бечевни","4920":"багряненная","4921":"багряненной","4922":"багряненную","4923":"багряненною","4924":"багряненные","4925":"багряненных","4926":"багряненному","4927":"багряненное","4928":"усугубленном","4929":"усугубленным","493":"бултых","4930":"усугубленный","4931":"усугубленного","4932":"усугубленная","4933":"усугубленной","4934":"усугубленную","4935":"усугубленною","4936":"усугубленные","4937":"усугубленных","4938":"усугубленному","4939":"усугубленное","494":"ля","4940":"усугубленными","4941":"марий","4942":"марсель","4943":"марица","4944":"шаров","4945":"шабер","4946":"шахов","4947":"шарах","4948":"новорожденном","4949":"новорожденным","495":"пь","4950":"новорожденного","4951":"новорожденная","4952":"новорожденной","4953":"новорожденную","4954":"новорожденною","4955":"новорожденные","4956":"новорожденных","4957":"новорожденному","4958":"новорожденными","4959":"тук","496":"вший","4960":"тут","4961":"туз","4962":"туго","4963":"туша","4964":"тучно","4965":"турку","4966":"тускло","4967":"тупица","4968":"тупей","4969":"цевье","497":"чно","4970":"стает","4971":"стаем","4972":"стающий","4973":"стаешь","4974":"стаете","4975":"старое","4976":"стаккато","4977":"багренном","4978":"багренным","4979":"багренный","498":"чет","4980":"багренного","4981":"багренная","4982":"багренной","4983":"багренную","4984":"багренною","4985":"багренные","4986":"багренных","4987":"багренному","4988":"багренное","4989":"слабо","499":"дан","4990":"славец","4991":"бык","4992":"было","4993":"быстро","4994":"бывший","4995":"бытом","4996":"жара","4997":"жало","4998":"жатый","4999":"жарок","5":"а","50":"во","500":"пор","5000":"жалко","5001":"жающе","5002":"жалюзи","5003":"плечики","5004":"чуа","5005":"чуя","5006":"чудно","5007":"чудом","5008":"чугов","5009":"чудила","501":"сть","5010":"чучело","5011":"чухна","5012":"чусовой","5013":"углем","5014":"обоснов","5015":"стойка","5016":"стойко","5017":"стойком","5018":"молодо","5019":"молотый","502":"гор","5020":"молотило","5021":"молокан","5022":"молодая","5023":"мудрена","5024":"мудрены","5025":"мудреней","5026":"мудренее","5027":"саженен","5028":"саженка","5029":"саженку","503":"нее","5030":"саженки","5031":"саженке","5032":"саженкам","5033":"саженках","5034":"саженками","5035":"саженок","5036":"саженкой","5037":"саженкою","5038":"знаменен","5039":"электростартере","504":"нов","5040":"электросверла","5041":"слег","5042":"слез","5043":"слепо","5044":"слезо","5045":"слепой","5046":"слезы","5047":"следовать","5048":"кетой","5049":"кегля","505":"вах","5050":"кечуа","5051":"крести","5052":"крешендо","5053":"крещендо","5054":"крестный","5055":"зуев","5056":"зуля","5057":"зубец","5058":"зубов","5059":"лейте","506":"шоф","5060":"лейший","5061":"хлестка","5062":"хлестко","5063":"сосенка","5064":"сосенку","5065":"сосенки","5066":"сосенке","5067":"сосенкам","5068":"сосенках","5069":"сосенками","507":"электростартер","5070":"сосенок","5071":"сосенкой","5072":"сосенкою","5073":"обоснует","5074":"обоснуете","5075":"обоснуется","5076":"обоснуетесь","5077":"знаменщик","5078":"знаменщика","5079":"знаменщику","508":"лы","5080":"знаменщиков","5081":"знаменщиком","5082":"знаменщики","5083":"знаменщике","5084":"знаменщикам","5085":"знаменщиках","5086":"знаменщиками","5087":"бечевник","5088":"бечевника","5089":"бечевнику","509":"пло","5090":"бечевников","5091":"бечевником","5092":"бечевники","5093":"бечевнике","5094":"бечевникам","5095":"бечевниках","5096":"бечевниками","5097":"бултыхнете","5098":"бултыхнемте","5099":"бултыхнетесь","51":"ра","510":"ом","5100":"четка","5101":"четко","5102":"четки","5103":"данил","5104":"порно","5105":"порту","5106":"порты","5107":"поршни","5108":"гордо","5109":"горбина","511":"од","5110":"вахней","5111":"вахтере","5112":"шофере","5113":"электростартера","5114":"электростартеры","5115":"электростартеру","5116":"электростартеров","5117":"электростартером","5118":"электростартерами","5119":"электростартерам","512":"тре","5120":"электростартерах","5121":"плохо","5122":"плоско","5123":"плотно","5124":"одер","5125":"однако","5126":"трем","5127":"трех","5128":"трезво","5129":"трепало","513":"ды","5130":"трепан","5131":"тремолан","5132":"трепещущий","5133":"трезубец","5134":"воронов","5135":"воронцев","5136":"воронец","5137":"воротила","5138":"воробьев","5139":"ветров","514":"ром","5140":"ветлы","5141":"инкогни","5142":"индинка","5143":"фок","5144":"фоторужье","5145":"гладко","5146":"гладь","5147":"глаголь","5148":"глазков","5149":"юрта","515":"воро","5150":"тяжущий","5151":"тяжко","5152":"тяжело","5153":"тянущий","5154":"тянутый","5155":"вяз","5156":"вяло","5157":"вяжущий","5158":"варя","5159":"варга","516":"вей","5160":"варена","5161":"право","5162":"правый","5163":"правящий","5164":"протертый","5165":"протрусить","5166":"кажется","5167":"кажущийся","5168":"недосыпать","5169":"недовернут","517":"вее","5170":"недобро","5171":"недолго","5172":"недолга","5173":"недорого","5174":"недостающий","5175":"черкаемой","5176":"черкаемом","5177":"черкаемое","5178":"черкаемою","5179":"черкаемого","518":"вет","5180":"черкаемому","5181":"утонченности","5182":"утонченность","5183":"утонченностью","5184":"утонченностей","5185":"утонченностям","5186":"утонченностях","5187":"утонченностями","5188":"раздробленности","5189":"раздробленность","519":"сев","5190":"раздробленностью","5191":"раздробленностей","5192":"раздробленностям","5193":"раздробленностях","5194":"раздробленностями","5195":"далеко","5196":"далеки","5197":"пассиона","5198":"маркере","5199":"маркера","52":"на","520":"сить","5200":"смуро","5201":"скуп","5202":"скупо","5203":"скудно","5204":"грета","5205":"гребла","5206":"грешно","5207":"гребен","5208":"гретто","5209":"мяло","521":"стегнут","5210":"мята","5211":"мягко","5212":"благо","5213":"блаженно","5214":"блаженная","5215":"зонка","5216":"зозуля","5217":"ириса","5218":"урему","5219":"урема","522":"хлестнут","5220":"уреме","5221":"уремы","5222":"уремой","5223":"уремою","5224":"удало","5225":"удальцов","5226":"дрему","5227":"дрема","5228":"дреме","5229":"дремы","523":"вно","5230":"дремой","5231":"дремою","5232":"полог","5233":"полон","5234":"полом","5235":"полоз","5236":"полоть","5237":"пологи","5238":"стынно","5239":"зачеркал","524":"ин","5240":"зачеркало","5241":"зачеркали","5242":"зачеркала","5243":"зачеркать","5244":"зачеркает","5245":"зачеркавшей","5246":"зачеркавшем","5247":"зачеркавшее","5248":"зачеркавшею","5249":"зачеркавшего","525":"фо","5250":"зачеркавшему","5251":"калмыков","5252":"воевода","5253":"начеркал","5254":"начеркало","5255":"начеркали","5256":"начеркала","5257":"начеркать","5258":"начеркает","5259":"начеркавшей","526":"гла","5260":"начеркавшем","5261":"начеркавшее","5262":"начеркавшею","5263":"начеркавшего","5264":"начеркавшему","5265":"перечеркал","5266":"перечеркало","5267":"перечеркали","5268":"перечеркала","5269":"перечеркать","527":"нч","5270":"перечеркает","5271":"перечеркавшей","5272":"перечеркавшем","5273":"перечеркавшее","5274":"перечеркавшею","5275":"перечеркавшего","5276":"перечеркавшему","5277":"исчеркал","5278":"исчеркало","5279":"исчеркали","528":"нь","5280":"исчеркала","5281":"исчеркать","5282":"исчеркает","5283":"исчеркавшей","5284":"исчеркавшем","5285":"исчеркавшее","5286":"исчеркавшею","5287":"исчеркавшего","5288":"исчеркавшему","5289":"бухнем","529":"нный","5290":"бухнет","5291":"бухнешь","5292":"бухнете","5293":"бухнемте","5294":"холеной","5295":"холеное","5296":"холеною","5297":"холеного","5298":"холеному","5299":"повезшей","53":"енном","530":"йно","5300":"повезшем","5301":"повезшее","5302":"повезшею","5303":"повезшего","5304":"повезшему","5305":"запершемся","5306":"запершееся","5307":"запершейся","5308":"запершеюся","5309":"запершегося","531":"кнут","5310":"запершемуся","5311":"темно","5312":"темник","5313":"света","5314":"светило","5315":"свежо","5316":"свекров","5317":"огорченней","5318":"огорченнее","5319":"огорченно","532":"мый","5320":"красный","5321":"красная","5322":"красное","5323":"красиво","5324":"красных","5325":"бремен","5326":"бреда","5327":"бреющий","5328":"бревна","5329":"брызжущий","533":"юр","5330":"брызгало","5331":"трут","5332":"трудно","5333":"трудящийся","5334":"пусто","5335":"путем","5336":"пугало","5337":"пустельга","5338":"пустынно","5339":"зило","534":"тя","5340":"убежденно","5341":"убежденней","5342":"убежденнее","5343":"-томе","5344":"порос","5345":"порой","5346":"порою","5347":"порочно","5348":"стволина","5349":"страшила","535":"вя","5350":"зачеркавшим","5351":"зачеркавшие","5352":"зачеркавших","5353":"зачеркавшими","5354":"королек","5355":"корольков","5356":"вольно","5357":"вольта","5358":"вольная","5359":"вольтов","536":"вар","5360":"вольница","5361":"начеркавшим","5362":"начеркавшие","5363":"начеркавших","5364":"начеркавшими","5365":"перечеркавшим","5366":"перечеркавшие","5367":"перечеркавших","5368":"перечеркавшими","5369":"толк","537":"дко","5370":"толсто","5371":"толкучий","5372":"домный","5373":"обреченней","5374":"обреченнее","5375":"обреченно","5376":"селена","5377":"исчеркавшим","5378":"исчеркавшие","5379":"исчеркавших","538":"це","5380":"исчеркавшими","5381":"искаженно","5382":"искаженней","5383":"искаженнее","5384":"планерным","5385":"планерные","5386":"планерных","5387":"планерными","5388":"медков","5389":"медсестры","539":"пра","5390":"медвежий","5391":"окуневом","5392":"окуневою","5393":"окуневого","5394":"окуневому","5395":"окуневым","5396":"окуневые","5397":"окуневых","5398":"окуневыми","5399":"тополевом","54":"енным","540":"прот","5400":"тополевою","5401":"тополевого","5402":"тополевому","5403":"тополевым","5404":"тополевые","5405":"тополевых","5406":"тополевыми","5407":"полуведерным","5408":"полуведерные","5409":"полуведерных","541":"каж","5410":"полуведерными","5411":"голавлевом","5412":"голавлевою","5413":"голавлевого","5414":"голавлевому","5415":"голавлевым","5416":"голавлевые","5417":"голавлевых","5418":"голавлевыми","5419":"сорокаведерным","542":"недо","5420":"сорокаведерные","5421":"сорокаведерных","5422":"сорокаведерными","5423":"безвесельным","5424":"безвесельные","5425":"безвесельных","5426":"безвесельными","5427":"шелковом","5428":"шелковою","5429":"шелкового","543":"черкнут","5430":"шелковому","5431":"шелковым","5432":"шелковые","5433":"шелковых","5434":"шелковыми","5435":"утомленно","5436":"утомленней","5437":"утомленнее","5438":"угнетенно","5439":"угнетенней","544":"лет","5440":"угнетеннее","5441":"зубный","5442":"зубков","5443":"зубной","5444":"порскнем","5445":"порскнет","5446":"порскнешь","5447":"порскнете","5448":"порскнемте","5449":"вахтера","545":"раздро","5450":"вахтеры","5451":"вахтеру","5452":"вахтером","5453":"юркнем","5454":"юркнет","5455":"юркнешь","5456":"юркнете","5457":"юркнемте","5458":"смущенно","5459":"смущенней","546":"льный","5460":"смущеннее","5461":"удрученней","5462":"удрученнее","5463":"удрученно","5464":"изощренно","5465":"изощренней","5466":"изощреннее","5467":"дорого","5468":"дорога","5469":"дорогой","547":"черкаемо","5470":"мертвы","5471":"мертвый","5472":"мертвящий","5473":"маркеры","5474":"маркеру","5475":"маркером","5476":"ссандо","5477":"серка","5478":"серков","5479":"серож","548":"утонч","5480":"свернуть","5481":"сверхлегка","5482":"счета","5483":"счетами","5484":"счетам","5485":"счетах","5486":"октаво","5487":"оран","5488":"орало","5489":"оперло","549":"раздробл","5490":"оперли","5491":"оперла","5492":"оперлась","5493":"одаренней","5494":"одареннее","5495":"грай","5496":"граф","5497":"граве","5498":"грабарем","5499":"ганка","55":"руж","550":"удо","5500":"крюков","5501":"крой","5502":"кроха","5503":"кротко","5504":"круто","5505":"крутило","5506":"кругом","5507":"крупно","5508":"ксимиле","5509":"берца","551":"дале","5510":"берце","5511":"берцу","5512":"жутко","5513":"жураву","5514":"жуковский","5515":"пенье","5516":"пеньем","5517":"пеностекла","5518":"плавно","5519":"плавной","552":"пас","5520":"плачущий","5521":"врожденней","5522":"врожденнее","5523":"звонок","5524":"звонко","5525":"шуба","5526":"шустро","5527":"шутя","5528":"шуринов","5529":"ярок","553":"марк","5530":"яровой","5531":"ярослава","5532":"ярославец","5533":"дьяков","5534":"фасо","5535":"факти","5536":"факсимиле","5537":"закаленней","5538":"закаленнее","5539":"колотый","554":"сму","5540":"колотье","5541":"колотило","5542":"колотьем","5543":"ломтем","5544":"нокий","5545":"перемерло","5546":"перемерли","5547":"перемерла","5548":"велик","5549":"великое","555":"ску","5550":"величественно","5551":"прирожденней","5552":"прирожденнее","5553":"добром","5554":"обнаженней","5555":"обнаженнее","5556":"бельков","5557":"бельбей","5558":"бельцы","5559":"сокол","556":"гре","5560":"соколов","5561":"валим","5562":"валима","5563":"валах","5564":"малое","5565":"маловато","5566":"ленатый","5567":"черкающая","5568":"черкающую","5569":"черкающим","557":"ами","5570":"черкающие","5571":"черкающих","5572":"черкающими","5573":"черкающей","5574":"черкающее","5575":"черкающею","5576":"черкающего","5577":"шелковая","5578":"шелковую","5579":"шелковый","558":"нка","5580":"холеным","5581":"холеные","5582":"холеными","5583":"пекло","5584":"пеклев","5585":"повезшим","5586":"повезшие","5587":"повезших","5588":"повезшими","5589":"черкаемым","559":"ыв","5590":"черкаемые","5591":"черкаемыми","5592":"запершимся","5593":"запершиеся","5594":"запершимис","5595":"запершихся","5596":"берестам","5597":"берестах","5598":"берестами","5599":"углубленней","56":"го","560":"мя","5600":"углубленнее","5601":"крепко","5602":"крепки","5603":"обобьете","5604":"обобьетесь","5605":"обобьемте","5606":"обобьемся","5607":"обобьемтесь","5608":"обоснуемте","5609":"обоснуемся","561":"бла","5610":"обоснуемтесь","5611":"шоферу","5612":"шоферов","5613":"шофером","5614":"шоферам","5615":"шоферах","5616":"шоферами","5617":"форте","5618":"фортиссимо","5619":"удаленней","562":"ее","5620":"удаленнее","5621":"неудовлетворенней","5622":"неудовлетвореннее","5623":"немудрена","5624":"немудрены","5625":"недалека","5626":"недалеки","5627":"борзо","5628":"борзая","5629":"ин-квар","563":"ющий","5630":"ин-октаво","5631":"смирно","5632":"свита","5633":"свистящий","5634":"свирепо","5635":"смело","5636":"смела","5637":"смешно","5638":"сжато","5639":"святой","564":"тко","5640":"святая","5641":"священно","5642":"озера","5643":"озерца","5644":"гневно","5645":"гнезда","5646":"гнедков","5647":"грубо","5648":"грузно","5649":"грузило","565":"вый","5650":"глухо","5651":"агам","5652":"агами","5653":"кривой","5654":"кривая","5655":"кривошея","5656":"бледно","5657":"блесны","5658":"блестящий","5659":"едок","566":"зо","5660":"тыну","5661":"тысяч","5662":"тюк","5663":"жор","5664":"жарка","5665":"жарко","5666":"жаркое","5667":"пары","5668":"пари","5669":"петров","567":"ир","5670":"петлей","5671":"петлею","5672":"висла","5673":"висим","5674":"зыбь","5675":"знобко","5676":"шанцев","5677":"шанная","5678":"шантра","5679":"ярка","568":"ченней","5680":"что-то","5681":"дятлов","5682":"девятью","5683":"цветков","5684":"цветущий","5685":"почти","5686":"почтенный","5687":"покоящийся","5688":"стригущий","5689":"забытый","569":"ченнее","5690":"рококо","5691":"возгоре","5692":"воздавать","5693":"возможно","5694":"надсыпать","5695":"надвернут","5696":"надпил","5697":"городской","5698":"горев","5699":"горестно","57":"ан","570":"уре","5700":"нелепо","5701":"нелегко","5702":"нелегка","5703":"переорет","5704":"переорете","5705":"переорешь","5706":"левкой","5707":"отперлась","5708":"отперлось","5709":"отперлись","571":"уда","5710":"искренно","5711":"беленной","5712":"белых","5713":"проорет","5714":"проорете","5715":"проорешь","5716":"полночью","5717":"решетца","5718":"решетце","5719":"решетцу","572":"ьем","5720":"майя","5721":"майна","5722":"максим","5723":"максима","5724":"максимов","5725":"более","5726":"болезненно","5727":"больше","5728":"больной","5729":"больная","573":"дре","5730":"буртов","5731":"буркина","5732":"неровно","5733":"неровней","5734":"неровнею","5735":"чего-то","5736":"делимый","5737":"делимое","5738":"запершаяся","5739":"запершуюся","574":"цов","5740":"запершись","5741":"любимый","5742":"бултыхнемся","5743":"бултыхнемтесь","5744":"целить","5745":"целиков","5746":"целиком","5747":"противно","5748":"противостоящий","5749":"обопьет","575":"поло","5750":"обопьем","5751":"обопьемте","5752":"слышь","5753":"алегретто","5754":"всего","5755":"художественно","5756":"равноотстоящий","5757":"сметанный","5758":"сметана","5759":"спеть","576":"сты","5760":"спешить","5761":"свернутый","5762":"светло","5763":"светлейший","5764":"сфорцандо","5765":"сфорцато","5766":"опала","5767":"опахало","5768":"одиноко","5769":"одинокий","577":"зачерка","5770":"островина","5771":"глупо","5772":"генри","5773":"глинка","5774":"глиссандо","5775":"гнусь","5776":"гнильца","5777":"гришков","5778":"гришанцев","5779":"гнетущий","578":"зачеркавше","5780":"айке","5781":"абак","5782":"адажио","5783":"алым","5784":"агидель","5785":"нужно","5786":"квело","5787":"квела","5788":"ктор","5789":"крыто","579":"кал","5790":"крытый","5791":"кшатрий","5792":"клейка","5793":"квартировать","5794":"мужественно","5795":"баян","5796":"баянный","5797":"близко","5798":"ближний","5799":"тена","58":"ло","580":"кать","5800":"травести","5801":"танцую","5802":"твердо","5803":"тверды","5804":"венера","5805":"верея","5806":"веретена","5807":"временами","5808":"зелены","5809":"зрело","581":"вое","5810":"зреть","5811":"шлем","5812":"шлеп","5813":"чаны","5814":"убого","5815":"убогий","5816":"хрома","5817":"хромой","5818":"хрип","5819":"хрипло","582":"начерка","5820":"хныкала","5821":"хмельно","5822":"хмельни","5823":"хромая","5824":"дение","5825":"дряхло","5826":"дрябло","5827":"джио","5828":"дмитрия","5829":"дмитриев","583":"начеркавше","5830":"францев","5831":"франц","5832":"федора","5833":"федоров","5834":"энге","5835":"эстолько","5836":"почивший","5837":"починок","5838":"посаженней","5839":"посаженнее","584":"ного","5840":"попланерней","5841":"попланернее","5842":"поуниженней","5843":"поуниженнее","5844":"пообыденней","5845":"пообыденнее","5846":"помешанный","5847":"помешанная","5848":"понастороженней","5849":"понастороженнее","585":"перечерка","5850":"поокуневей","5851":"поокуневее","5852":"потополевей","5853":"потополевее","5854":"похоленей","5855":"похоленее","5856":"пополуведерней","5857":"пополуведернее","5858":"поголавлевей","5859":"поголавлевее","586":"перечеркавше","5860":"посорокаведерней","5861":"посорокаведернее","5862":"познаменней","5863":"познаменнее","5864":"побезвесельней","5865":"побезвесельнее","5866":"попредубежденней","5867":"попредубежденнее","5868":"пошелковей","5869":"пошелковее","587":"тов","5870":"помудреней","5871":"помудренее","5872":"понятой","5873":"понятно","5874":"поогорченней","5875":"поогорченнее","5876":"поубежденней","5877":"поубежденнее","5878":"пообреченней","5879":"пообреченнее","588":"плыв","5880":"поискаженней","5881":"поискаженнее","5882":"поутомленней","5883":"поутомленнее","5884":"поугнетенней","5885":"поугнетеннее","5886":"посмущенней","5887":"посмущеннее","5888":"поудрученней","5889":"поудрученнее","589":"исчерка","5890":"поизощренней","5891":"поизощреннее","5892":"поодаренней","5893":"поодареннее","5894":"поврожденней","5895":"поврожденнее","5896":"позакаленней","5897":"позакаленнее","5898":"поприрожденней","5899":"поприрожденнее","59":"ере","590":"исчеркавше","5900":"пообнаженней","5901":"пообнаженнее","5902":"поуглубленней","5903":"поуглубленнее","5904":"поудаленней","5905":"поудаленнее","5906":"понеудовлетворенней","5907":"понеудовлетвореннее","5908":"прямая","5909":"стул","591":"тесь","5910":"занятый","5911":"занятой","5912":"кантаби","5913":"казан","5914":"казаков","5915":"косая","5916":"корма","5917":"кормило","5918":"кошев","5919":"кошевой","592":"етый","5920":"косой","5921":"родимый","5922":"нарвать","5923":"нарвал","5924":"напевши","5925":"голосина","5926":"головня","5927":"ановить","5928":"анданте","5929":"андантино","593":"волок","5930":"лопаться","5931":"нечисто","5932":"нечистый","5933":"неплохо","5934":"неплотно","5935":"носок","5936":"носовой","5937":"веселы","5938":"легкое","5939":"ларго","594":"енности","5940":"ларгет","5941":"домина","5942":"домино","5943":"обиженно","5944":"арпеджо","5945":"арпеджио","5946":"безобразно","5947":"бездомный","5948":"бессмысл","5949":"бесспорно","595":"енность","5950":"мордашка","5951":"рубин","5952":"рубило","5953":"мирон","5954":"миронов","5955":"самоа","5956":"самовозгоре","5957":"сахара","5958":"сахаров","5959":"шипящий","596":"енностью","5960":"винил","5961":"видимо","5962":"видимый","5963":"давило","5964":"давила","5965":"существенно","5966":"существо","5967":"валер","5968":"холодина","5969":"холодов","597":"енностей","5970":"бойко","5971":"богато","5972":"богатый","5973":"божественно","5974":"божество","5975":"гуртов","5976":"гуртом","5977":"гуськов","5978":"гуськом","5979":"межзубный","598":"бух","5980":"пиццикато","5981":"так-то","5982":"пешней","5983":"пешнею","5984":"животина","5985":"человечи","5986":"декрешендо","5987":"декрещендо","5988":"рысью","5989":"повезшая","599":"ровать","5990":"повезшую","5991":"немножко","5992":"немножечко","5993":"сложено","5994":"жестко","5995":"жестки","5996":"желоба","5997":"жесток","5998":"жестоко","5999":"нетвердо","6":"б","60":"не","600":"холено","6000":"нетверды","6001":"любя","6002":"любящий","6003":"сосланная","6004":"марья","6005":"марьям","6006":"сладкое","6007":"бытие","6008":"бытием","6009":"слепая","601":"рыз","6010":"слепнем","6011":"обобьет","6012":"обобьется","6013":"обоснуешься","6014":"бултыхнется","6015":"бултыхнешься","6016":"пьяно","6017":"пьяный","6018":"горько","6019":"горький","602":"повезше","6020":"протекший","6021":"короткошея","6022":"обопьете","6023":"обопьешь","6024":"зубрило","6025":"зубрила","6026":"черкающему","6027":"обобьешься","6028":"слыхать","6029":"смиренно","603":"енностям","6030":"смирна","6031":"нисколько","6032":"нисколечко","6033":"любимая","6034":"альпака","6035":"альпага","6036":"размазней","6037":"размазня","6038":"семеновский","6039":"сдержанный","604":"енностях","6040":"сени","6041":"своем","6042":"сан-томе","6043":"слизнуть","6044":"собственно","6045":"сменяемый","6046":"сшив","6047":"смачно","6048":"служащий","6049":"спертый","605":"енностями","6050":"счетов","6051":"счастли","6052":"случайно","6053":"слюни","6054":"смычный","6055":"сбыт","6056":"сбрехнут","6057":"сморщенный","6058":"сходни","6059":"орлов","606":"орем","6060":"очки","6061":"ошеломл","6062":"оползать","6063":"ощипанный","6064":"очевидно","6065":"оглашенный","6066":"окороков","6067":"острие","6068":"грядущий","6069":"грызло","607":"заперше","6070":"лганье","6071":"абдулха","6072":"атласо","6073":"аппассиона","6074":"алице","6075":"амазонка","6076":"апикальный","6077":"аллегро","6078":"клепало","6079":"кисло","608":"молот","6080":"брюхан","6081":"бандар-сер","6082":"бобров","6083":"бритый","6084":"блекло","6085":"единственно","6086":"естественно","6087":"ртуть","6088":"тархан","6089":"тридцатью","609":"шно","6090":"жены","6091":"жернова","6092":"жнивье","6093":"жемчугов","6094":"жгут","6095":"писклей","6096":"пчелы","6097":"пьющий","6098":"второе","6099":"властно","61":"но","610":"тем","6100":"вьющийся","6101":"впрямь","6102":"втэк","6103":"зерна","6104":"звитый","6105":"змей","6106":"здесь","6107":"звяк","6108":"звучно","6109":"звенящий","611":"сно","6110":"шпорец","6111":"шарье","6112":"штафир","6113":"истекший","6114":"иванов","6115":"чужое","6116":"чередом","6117":"улья","6118":"умерший","6119":"учащийся","612":"све","6120":"увулярный","6121":"угольник","6122":"храбро","6123":"хаяла","6124":"хотя","6125":"хруп","6126":"хмуро","6127":"хватать","6128":"хлюп","6129":"длинно","613":"ощ","6130":"дядьев","6131":"детище","6132":"движущий","6133":"двадцатью","6134":"дрянно","6135":"днями","6136":"цвета","6137":"фитюлька","6138":"эрзя","6139":"ершом","614":"огор","6140":"постановить","6141":"поперек","6142":"потолок","6143":"пооттертый","6144":"посол","6145":"поваров","6146":"попадать","6147":"похлеще","6148":"потрохов","6149":"пожалуй","615":"ги","6150":"покрепче","6151":"постриг","6152":"стретто","6153":"стрежевой","6154":"закосить","6155":"зарею","6156":"заходить","6157":"запить","6158":"закрапать","6159":"зачумленный","616":"ам","6160":"заворотный","6161":"застывший","6162":"застил","6163":"заплаканный","6164":"заозерный","6165":"заводской","6166":"загнанный","6167":"замолчать","6168":"завмаг","6169":"каково","617":"ах","6170":"канаш","6171":"калевала","6172":"карим","6173":"катанка","6174":"конек","6175":"колеса","6176":"котельный","6177":"косых","6178":"колющий","6179":"коняга","618":"йка","6180":"кожухов","6181":"козел","6182":"кондуктор","6183":"коптев","6184":"ростов","6185":"вопиющий","6186":"вонючка","6187":"радиозвезды","6188":"рахиль","6189":"наперечет","619":"крас","6190":"насесть","6191":"наподдавать","6192":"насакирали","6193":"наволоки","6194":"насыщенный","6195":"начало","6196":"наболевший","6197":"напротив","6198":"гораздо","6199":"горячо","62":"чер","620":"бре","6200":"годами","6201":"голуба","6202":"ломами","6203":"лощило","6204":"лоскутов","6205":"лопарь","6206":"нетопырем","6207":"непрочно","6208":"неверный","6209":"невиданно","621":"бнут","6210":"необычайно","6211":"нежить","6212":"неброско","6213":"несколько","6214":"несомненно","6215":"невредно","6216":"неслыханно","6217":"неожиданно","6218":"чернушка","6219":"ремесла","622":"брыз","6220":"перепеленатый","6221":"переупорядочи","6222":"перевозиться","6223":"весною","6224":"лесото","6225":"легато","6226":"леденящий","6227":"приевшийся","6228":"привидение","6229":"приставала","623":"ек","6230":"пристращать","6231":"пристяжь","6232":"принсипи","6233":"прилипала","6234":"лабиальный","6235":"лазим","6236":"лапонька","6237":"раздражающе","6238":"дольче","6239":"достойно","624":"ешь","6240":"донья","6241":"достигнутый","6242":"докликаться","6243":"дорсальный","6244":"отрубной","6245":"отпето","6246":"отживший","6247":"отбив","6248":"отчаянно","6249":"шептала","625":"рно","6250":"обжитой","6251":"подвиг","6252":"подметала","6253":"подданная","6254":"ископаемое","6255":"арташа","6256":"артюш","6257":"теткин","6258":"безусловно","6259":"сомали","626":"тру","6260":"соловьев","6261":"созданьице","6262":"соответственно","6263":"мороженный","6264":"мостина","6265":"модерато","6266":"промахать","6267":"прослойка","6268":"прохладец","6269":"простыней","627":"пу","6270":"просвещенный","6271":"рукомесла","6272":"руслам","6273":"русская","6274":"михайлов","6275":"низок","6276":"ничтожество","6277":"нипочем","6278":"никольский","6279":"бабуши","628":"пев","6280":"бабайцев","6281":"сабля","6282":"самария","6283":"верхами","6284":"вертолетчик","6285":"мультимедиа","6286":"кувшинов","6287":"вырожденный","6288":"выметаться","6289":"выгреб","629":"вать","6290":"выцветший","6291":"выглядеть","6292":"вынужденно","6293":"выходной","6294":"вырезаться","6295":"взрывной","6296":"взмыв","6297":"взимать","6298":"виваче","6299":"видное","63":"ре","630":"зи","6300":"виктория","6301":"вибрато","6302":"расстегай","6303":"султан","6304":"валуев","6305":"маэстозо","6306":"масленка","6307":"матвеев","6308":"мальчонок","6309":"боливар","631":"зко","6310":"бутил","6311":"бузила","6312":"дубровник","6313":"душенька","6314":"скрип","6315":"скирд","6316":"издалека","6317":"изобильный","6318":"изодранный","6319":"изысканный","632":"уд","6320":"изжеванный","6321":"галанцев","6322":"гавански","6323":"гаврил","6324":"диффундировать","6325":"диминуэндо","6326":"ритенуто","6327":"месячник","6328":"блюдемся","6329":"переразвитый","633":"убежд","6330":"окуньков","6331":"сельтерская","6332":"химволокно","6333":"дармовщинка","6334":"стелющийся","6335":"песчанка","6336":"пехтерем","6337":"жиганов","6338":"действительно","6339":"вездесущие","634":"-то","6340":"предусмотренный","6341":"немчура","6342":"чайковский","6343":"луговской","6344":"бронислава","6345":"тростянка","6346":"желты","6347":"сковорода","6348":"скородит","6349":"характерно","635":"ъем","6350":"шаховской","6351":"обоснованный","6352":"слезоточащий","6353":"тремоландо","6354":"инкогнито","6355":"тяжущийся","6356":"гребенка","6357":"журавушка","6358":"фактически","6359":"пеклеванный","636":"ертый","6360":"запершимися","6361":"ин-кварто","6362":"тысячная","6363":"шантрапа","6364":"воздаваться","6365":"нелегкая","6366":"гришковцев","6367":"танцующий","6368":"хмельницкий","6369":"франция","637":"пой","6370":"энгельс","6371":"кантабиле","6372":"ларгетто","6373":"бессмысленно","6374":"самовозгоревшийся","6375":"человечишка","6376":"счастливо","6377":"ошеломляюще","6378":"абдулхах","6379":"атласов","638":"поро","6380":"аппассионато","6381":"брюханов","6382":"бандар-сери","6383":"штафирка","6384":"переупорядочившийся","639":"сти","64":"пере","640":"ство","641":"стра","642":"зачеркавши","643":"кам","644":"ках","645":"ками","646":"коро","647":"воль","648":"начеркавши","649":"нешь","65":"черка","650":"ное","651":"рем","652":"перечеркавши","653":"тол","654":"том","655":"дом","656":"обо","657":"обре","658":"селен","659":"исчеркавши","66":"груж","660":"искаж","661":"нуть","662":"тек","663":"льцов","664":"кликать","665":"черкавший","666":"пал","667":"изощ","668":"планерны","669":"метнут","67":"ве","670":"мед","671":"пил","672":"черкают","673":"окунево","674":"окуневы","675":"стек","676":"тополево","677":"тополевы","678":"полуведерны","679":"голавлево","68":"ле","680":"голавлевы","681":"сорокаведерны","682":"безвесельны","683":"хлебнут","684":"черкаете","685":"черкаешь","686":"шелково","687":"шелковы","688":"утомл","689":"угнет","69":"ая","690":"зуб","691":"черкайте","692":"черкавшая","693":"черкавшую","694":"порск","695":"вахтер","696":"юрк","697":"смущ","698":"удру","699":"изощр","7":"в","70":"то","700":"тно","701":"рей","702":"доро","703":"сем","704":"мерт","705":"маркер","706":"сс","707":"сер","708":"свер","709":"счет","71":"ли","710":"ок","711":"ора","712":"опер","713":"одар","714":"гко","715":"гра","716":"ган","717":"лан","718":"ную","719":"кр","72":"ую","720":"кро","721":"кру","722":"кси","723":"бер","724":"тере","725":"твор","726":"жу","727":"жно","728":"жущий","729":"пен","73":"при","730":"пка","731":"пла","732":"вая","733":"врожд","734":"зво","735":"шу","736":"шка","737":"яро","738":"чь","739":"чко","74":"енный","740":"ьев","741":"дь","742":"фа","743":"ендо","744":"енна","745":"стно","746":"стры","747":"закал","748":"кой","749":"коло","75":"ла","750":"наж","751":"гов","752":"лом","753":"нею","754":"нете","755":"неудо","756":"нок","757":"ном","758":"ною","759":"ному","76":"ть","760":"перемер","761":"вели","762":"прирожд","763":"тье","764":"добро","765":"обнаж","766":"стоящий","767":"лько","768":"льно","769":"бель","77":"раз","770":"соко","771":"мой","772":"мов","773":"мит","774":"ник","775":"щийся","776":"шиб","777":"сыпь","778":"вали","779":"вала","78":"до","780":"хов","781":"мало","782":"лена","783":"ский","784":"тертый","785":"влетвор","786":"черкающ","787":"черкающи","788":"черкающе","789":"шелков","79":"ман","790":"холены","791":"пек","792":"тило","793":"дел","794":"повезши","795":"немте","796":"черкаемы","797":"черкаемте","798":"битый","799":"лубл","8":"г","80":"енного","800":"заперши","801":"ской","802":"береста","803":"углубл","804":"креп","805":"обобье","806":"обобьем","807":"обоснуем","808":"шофер","809":"шофера","81":"от","810":"одетый","811":"фор","812":"летать","813":"удал","814":"неудовлетвор","815":"немудрен","816":"недале","817":"верно","818":"бор","819":"ин-","82":"енная","820":"сл","821":"ска","822":"сми","823":"сви","824":"сны","825":"сме","826":"сжа","827":"свя","828":"оз","829":"гне","83":"енной","830":"гать","831":"гру","832":"глу","833":"лый","834":"ага","835":"нно","836":"нис","837":"нцев","838":"йков","839":"кри","84":"ше","840":"бле","841":"едо","842":"ете","843":"рный","844":"ты","845":"тю","846":"жо","847":"женный","848":"жар","849":"пар","85":"енную","850":"пет","851":"пье","852":"ву","853":"вую","854":"вис","855":"вящий","856":"зы","857":"зка","858":"зно","859":"зды","86":"енною","860":"шан","861":"ям","862":"яр","863":"ил","864":"ица","865":"ченно","866":"чка","867":"что","868":"хан","869":"дя","87":"енные","870":"дев","871":"данный","872":"щенный","873":"цвет","874":"поч","875":"поко","876":"стя","877":"стри","878":"стертый","879":"зать","88":"енных","880":"забы","881":"капать","882":"кою","883":"рок","884":"роко","885":"воз","886":"вод","887":"над","888":"гой","889":"гом","89":"енному","890":"горо","891":"горе","892":"неле","893":"переоре","894":"лев","895":"лечко","896":"тое","897":"лих","898":"литой","899":"лась","9":"д","90":"енное","900":"отпер","901":"сестры","902":"исси","903":"искр","904":"льцев","905":"бел","906":"сом","907":"мое","908":"можд","909":"прооре","91":"ый","910":"русить","911":"мило","912":"ется","913":"шитый","914":"громожд","915":"вить","916":"чик","917":"чило","918":"полно","919":"решет","92":"об","920":"давать","921":"май","922":"макси","923":"боле","924":"боль","925":"пасть","926":"сим","927":"сина","928":"бур","929":"звезды","93":"енными","930":"питой","931":"неров","932":"житое","933":"чего","934":"дели","935":"бина","936":"заперш","937":"люби","938":"бултыхнем","939":"данно","94":"се","940":"цели","941":"проти","942":"мятый","943":"ирлих","944":"оремте","945":"брызгать","946":"обопь","947":"стекла","948":"иссимо","949":"громожденного","95":"яд","950":"слы","951":"але","952":"все","953":"хло","954":"худо","955":"поем","956":"равно","957":"просто","958":"точно","959":"дировать","96":"под","960":"сный","961":"смет","962":"спе","963":"свернут","964":"сплеснут","965":"свет","966":"сфор","967":"споко","968":"опа","969":"оди","97":"пряд","970":"остро","971":"гл","972":"ген","973":"гка","974":"гна","975":"гли","976":"гну","977":"гни","978":"гри","979":"гнет","98":"пл","980":"ленно","981":"лко","982":"лго","983":"ленный","984":"ай","985":"ала","986":"аль","987":"аба","988":"ащий","989":"ада","99":"ис","990":"алы","991":"авар","992":"аги","993":"ненно","994":"нуж","995":"нко","996":"нда","997":"кве","998":"кто","999":"кий"},"merges":[["е","н"],["ен","н"],["енн","о"],["е","р"],["енн","ы"],["п","о"],["п","р"],["с","т"],["з","а"],["к","а"],["у","ж"],["к","о"],["р","о"],["в","о"],["р","а"],["н","а"],["енно","м"],["енны","м"],["р","уж"],["г","о"],["а","н"],["л","о"],["ер","е"],["н","е"],["н","о"],["ч","ер"],["р","е"],["п","ере"],["чер","ка"],["г","руж"],["в","е"],["л","е"],["а","я"],["т","о"],["л","и"],["у","ю"],["пр","и"],["енны","й"],["л","а"],["т","ь"],["ра","з"],["д","о"],["м","ан"],["енно","го"],["о","т"],["енн","ая"],["енно","й"],["ш","е"],["енн","ую"],["енно","ю"],["енны","е"],["енны","х"],["енном","у"],["енно","е"],["ы","й"],["о","б"],["енным","и"],["с","е"],["я","д"],["по","д"],["пр","яд"],["п","л"],["и","с"],["и","й"],["енн","е"],["а","р"],["ст","о"],["н","у"],["во","р"],["т","е"],["л","ь"],["а","ть"],["б","е"],["с","о"],["м","л"],["р","я"],["к","ли"],["м","о"],["пр","о"],["черка","в"],["р","у"],["кли","н"],["ко","ш"],["м","и"],["ро","ж"],["н","и"],["б","а"],["ну","т"],["м","ен"],["е","т"],["с","а"],["с","я"],["е","м"],["в","ер"],["м","у"],["щ","ий"],["пр","уж"],["ря","ж"],["ш","и"],["г","ро"],["н","ый"],["к","у"],["ве","д"],["в","ы"],["во","ло"],["е","в"],["в","з"],["с","ы"],["в","и"],["ч","и"],["енне","й"],["енне","е"],["по","л"],["ре","ше"],["ре","ж"],["д","а"],["у","мен"],["ра","с"],["с","у"],["в","а"],["ь","ш"],["д","во"],["енно","ст"],["ст","ру"],["гро","мл"],["вед","ер"],["воло","ч"],["умен","ьш"],["х","о"],["реше","ч"],["стру","н"],["м","а"],["п","ать"],["пр","е"],["л","ен"],["т","ый"],["б","о"],["п","а"],["при","т"],["с","и"],["б","у"],["у","пл"],["д","у"],["сы","пать"],["с","к"],["ко","в"],["са","ж"],["з","на"],["и","з"],["то","ч"],["пл","ан"],["се","л"],["г","а"],["л","уж"],["т","ер"],["за","т"],["ко","м"],["черкав","ше"],["ни","ж"],["план","ер"],["г","у"],["чи","н"],["у","ниж"],["д","и"],["об","ы"],["р","и"],["т","руж"],["д","раз"],["ст","вор"],["за","ряж"],["до","груж"],["от","вор"],["се","ч"],["сто","ч"],["сто","рож"],["драз","н"],["обы","д"],["н","ы"],["м","ет"],["ст","ро"],["ба","г"],["к","и"],["ро","в"],["м","е"],["б","л"],["ж","д"],["п","ер"],["о","с"],["в","ле"],["на","сторож"],["черкав","ши"],["з","ве"],["пол","у"],["п","и"],["н","ер"],["т","а"],["ш","ий"],["ст","ар"],["черка","ю"],["ше","л"],["бе","жд"],["о","ку"],["о","в"],["ш","ь"],["по","ле"],["ро","ка"],["го","ла"],["се","ль"],["со","рока"],["ба","й"],["х","и"],["рож","д"],["оку","не"],["д","ар"],["ст","е"],["то","поле"],["бе","зве"],["хо","лен"],["прит","упл"],["полу","ведер"],["гола","вле"],["сорока","ведер"],["п","е"],["т","и"],["ж","и"],["я","щий"],["ч","е"],["зна","м"],["ком","бай"],["безве","сель"],["с","ло"],["д","е"],["ве","з"],["пре","ду"],["комбай","нер"],["м","ер"],["с","ь"],["к","ра"],["р","ы"],["х","ле"],["щ","и"],["по","вез"],["не","м"],["черка","ем"],["енност","я"],["стар","тер"],["преду","бежд"],["у","по"],["б","и"],["ч","а"],["черка","е"],["вер","нут"],["шел","ко"],["сло","ж"],["о","ре"],["л","у"],["б","ро"],["т","ро"],["ж","е"],["х","ла"],["щ","е"],["во","й"],["ло","в"],["ве","до"],["о","по"],["ы","х"],["х","р"],["за","с"],["за","к"],["за","пер"],["на","по"],["не","й"],["не","т"],["не","ж"],["но","й"],["му","ч"],["су","ш"],["с","хи"],["во","схи"],["но","во"],["восхи","щ"],["с","ко"],["с","груж"],["с","ман"],["с","дво"],["л","ю"],["б","ере"],["в","пряд"],["в","клин"],["в","ск"],["в","кра"],["и","сточ"],["у","то"],["у","ман"],["у","щий"],["у","су"],["ь","е"],["ь","ю"],["ц","а"],["по","груж"],["по","ман"],["по","кош"],["по","громл"],["за","груж"],["за","клин"],["за","пруж"],["за","решеч"],["за","точ"],["за","луж"],["за","сеч"],["за","дразн"],["за","хла"],["ко","ч"],["ра","мл"],["ра","створ"],["ра","сточ"],["на","груж"],["на","пряд"],["на","пруж"],["на","ряж"],["на","волоч"],["на","чин"],["на","труж"],["ан","ный"],["ло","коч"],["не","догруж"],["пере","груж"],["пере","ман"],["пере","пряд"],["пере","клин"],["пере","кош"],["пере","пруж"],["пере","заряж"],["пере","дразн"],["при","ман"],["при","пряд"],["при","уменьш"],["при","струн"],["при","отвор"],["раз","груж"],["раз","ман"],["раз","ряж"],["раз","реж"],["раз","дво"],["раз","громл"],["до","пряд"],["от","груж"],["от","ман"],["от","пряд"],["от","упл"],["об","рамл"],["об","локоч"],["под","груж"],["под","ман"],["под","ар"],["под","клин"],["под","реж"],["под","волоч"],["ис","пряд"],["ис","кош"],["ис","суш"],["со","струн"],["ря","н"],["мо","щ"],["про","груж"],["про","пряд"],["про","реж"],["рож","н"],["вер","ж"],["вз","ман"],["вз","ви"],["вз","дво"],["рас","клин"],["рас","кош"],["пре","уменьш"],["прит","вор"],["сыпать","ся"],["из","решеч"],["зат","вор"],["зат","верж"],["мет","ать"],["ос","ведо"],["опо","рожн"],["зас","неж"],["зак","руж"],["вск","руж"],["вкра","пл"],["усу","гу"],["захла","мощ"],["взви","хр"],["осведо","мл"],["по","сел"],["м","ы"],["р","ен"],["х","а"],["д","ро"],["д","но"],["ле","к"],["то","й"],["при","сел"],["те","пл"],["со","с"],["са","ч"],["пол","н"],["баг","рян"],["усугу","бл"],["м","ар"],["ш","а"],["ново","рожд"],["л","т"],["т","у"],["ш","о"],["ц","ев"],["ст","а"],["на","я"],["баг","р"],["с","ла"],["б","ы"],["е","й"],["ж","а"],["п","ле"],["в","енно"],["ч","у"],["ч","ев"],["у","г"],["д","рен"],["э","лек"],["ст","венно"],["об","ос"],["сто","й"],["мо","ло"],["му","дрен"],["саж","ен"],["зна","мен"],["элек","тро"],["с","ле"],["с","нут"],["г","нут"],["н","я"],["к","е"],["к","ре"],["з","у"],["ер","а"],["черка","й"],["ле","й"],["ли","в"],["об","об"],["бе","чев"],["черкав","ш"],["бу","лт"],["хле","ст"],["сос","ен"],["пле","снут"],["обос","ну"],["знамен","щи"],["бечев","ни"],["булт","ых"],["л","я"],["п","ь"],["в","ший"],["ч","но"],["ч","ет"],["д","ан"],["по","р"],["ст","ь"],["го","р"],["не","е"],["но","в"],["ва","х"],["шо","ф"],["электро","стартер"],["л","ы"],["п","ло"],["о","м"],["о","д"],["т","ре"],["д","ы"],["ро","м"],["во","ро"],["ве","й"],["ве","е"],["ве","т"],["се","в"],["си","ть"],["сте","гнут"],["хлест","нут"],["в","но"],["и","н"],["ф","о"],["г","ла"],["н","ч"],["н","ь"],["н","ный"],["й","но"],["к","нут"],["м","ый"],["ю","р"],["т","я"],["в","я"],["в","ар"],["д","ко"],["ц","е"],["пр","а"],["пр","от"],["ка","ж"],["не","до"],["чер","кнут"],["ле","т"],["раз","дро"],["ль","ный"],["черкае","мо"],["уто","нч"],["раздро","бл"],["у","до"],["да","ле"],["па","с"],["мар","к"],["с","му"],["с","ку"],["г","ре"],["а","ми"],["н","ка"],["ы","в"],["м","я"],["б","ла"],["е","е"],["ю","щий"],["т","ко"],["в","ый"],["з","о"],["и","р"],["ч","енней"],["ч","еннее"],["у","ре"],["у","да"],["ь","ем"],["д","ре"],["ц","ов"],["по","ло"],["ст","ы"],["за","черка"],["за","черкавше"],["ка","л"],["ка","ть"],["во","е"],["на","черка"],["на","черкавше"],["но","го"],["пере","черка"],["пере","черкавше"],["то","в"],["пл","ыв"],["ис","черка"],["ис","черкавше"],["те","сь"],["ет","ый"],["воло","к"],["енност","и"],["енност","ь"],["енност","ью"],["енност","ей"],["бу","х"],["ров","ать"],["холен","о"],["ры","з"],["повез","ше"],["енностя","м"],["енностя","х"],["енностя","ми"],["оре","м"],["запер","ше"],["моло","т"],["ш","но"],["те","м"],["с","но"],["с","ве"],["о","щ"],["о","гор"],["г","и"],["а","м"],["а","х"],["й","ка"],["к","рас"],["б","ре"],["б","нут"],["б","рыз"],["е","к"],["е","шь"],["р","но"],["т","ру"],["п","у"],["п","ев"],["в","ать"],["з","и"],["з","ко"],["у","д"],["у","бежд"],["-","то"],["ъ","ем"],["ер","тый"],["по","й"],["по","ро"],["ст","и"],["ст","во"],["ст","ра"],["за","черкавши"],["ка","м"],["ка","х"],["ка","ми"],["ко","ро"],["во","ль"],["на","черкавши"],["не","шь"],["но","е"],["ре","м"],["пере","черкавши"],["то","л"],["то","м"],["до","м"],["об","о"],["об","ре"],["се","лен"],["ис","черкавши"],["ис","каж"],["ну","ть"],["те","к"],["ль","цов"],["кли","кать"],["черкав","ший"],["па","л"],["из","ощ"],["планер","ны"],["мет","нут"],["ме","д"],["пи","л"],["черкаю","т"],["окуне","во"],["окуне","вы"],["сте","к"],["тополе","во"],["тополе","вы"],["полуведер","ны"],["голавле","во"],["голавле","вы"],["сорокаведер","ны"],["безвесель","ны"],["хле","бнут"],["черкае","те"],["черкае","шь"],["шелко","во"],["шелко","вы"],["уто","мл"],["уг","нет"],["зу","б"],["черкай","те"],["черкавш","ая"],["черкавш","ую"],["пор","ск"],["вах","тер"],["юр","к"],["сму","щ"],["уд","ру"],["изощ","р"],["т","но"],["ре","й"],["до","ро"],["се","м"],["мер","т"],["марк","ер"],["с","с"],["с","ер"],["с","вер"],["с","чет"],["о","к"],["о","ра"],["о","пер"],["о","дар"],["г","ко"],["г","ра"],["г","ан"],["л","ан"],["н","ую"],["к","р"],["к","ро"],["к","ру"],["к","си"],["б","ер"],["т","ере"],["т","вор"],["ж","у"],["ж","но"],["ж","ущий"],["п","ен"],["п","ка"],["п","ла"],["в","ая"],["в","рожд"],["з","во"],["ш","у"],["ш","ка"],["я","ро"],["ч","ь"],["ч","ко"],["ь","ев"],["д","ь"],["ф","а"],["ен","до"],["енн","а"],["ст","но"],["ст","ры"],["за","кал"],["ко","й"],["ко","ло"],["на","ж"],["го","в"],["ло","м"],["не","ю"],["не","те"],["не","удо"],["но","к"],["но","м"],["но","ю"],["но","му"],["пере","мер"],["ве","ли"],["при","рожд"],["ть","е"],["до","бро"],["об","наж"],["сто","ящий"],["ль","ко"],["ль","но"],["бе","ль"],["со","ко"],["мо","й"],["мо","в"],["ми","т"],["ни","к"],["щий","ся"],["ши","б"],["сы","пь"],["ва","ли"],["ва","ла"],["хо","в"],["ма","ло"],["лен","а"],["ск","ий"],["тер","тый"],["вле","твор"],["черкаю","щ"],["черкаю","щи"],["черкаю","ще"],["шел","ков"],["холен","ы"],["пе","к"],["ти","ло"],["де","л"],["повез","ши"],["нем","те"],["черкаем","ы"],["черкаем","те"],["би","тый"],["лу","бл"],["запер","ши"],["ско","й"],["бере","ста"],["уг","лубл"],["кре","п"],["обоб","ье"],["обоб","ьем"],["обосну","ем"],["шоф","ер"],["шоф","ера"],["од","етый"],["фо","р"],["лет","ать"],["уда","л"],["неудо","влетвор"],["не","мудрен"],["не","дале"],["вер","но"],["бо","р"],["ин","-"],["с","л"],["с","ка"],["с","ми"],["с","ви"],["с","ны"],["с","ме"],["с","жа"],["с","вя"],["о","з"],["г","не"],["г","ать"],["г","ру"],["г","лу"],["л","ый"],["а","га"],["н","но"],["н","ис"],["н","цев"],["й","ков"],["к","ри"],["б","ле"],["е","до"],["е","те"],["р","ный"],["т","ы"],["т","ю"],["ж","о"],["ж","енный"],["ж","ар"],["п","ар"],["п","ет"],["п","ье"],["в","у"],["в","ую"],["в","ис"],["в","ящий"],["з","ы"],["з","ка"],["з","но"],["з","ды"],["ш","ан"],["я","м"],["я","р"],["и","л"],["и","ца"],["ч","енно"],["ч","ка"],["ч","то"],["х","ан"],["д","я"],["д","ев"],["д","анный"],["щ","енный"],["ц","вет"],["по","ч"],["по","ко"],["ст","я"],["ст","ри"],["ст","ертый"],["за","ть"],["за","бы"],["ка","пать"],["ко","ю"],["ро","к"],["ро","ко"],["во","з"],["во","д"],["на","д"],["го","й"],["го","м"],["го","ро"],["го","ре"],["не","ле"],["пере","оре"],["ле","в"],["ле","чко"],["то","е"],["ли","х"],["ли","той"],["ла","сь"],["от","пер"],["се","стры"],["ис","си"],["ис","кр"],["ль","цев"],["бе","л"],["со","м"],["мо","е"],["мо","жд"],["про","оре"],["ру","сить"],["ми","ло"],["ет","ся"],["ши","тый"],["гро","можд"],["ви","ть"],["чи","к"],["чи","ло"],["пол","но"],["реше","т"],["да","вать"],["ма","й"],["ма","кси"],["бо","ле"],["бо","ль"],["па","сть"],["си","м"],["си","на"],["бу","р"],["зве","зды"],["пи","той"],["нер","ов"],["жи","тое"],["че","го"],["де","ли"],["би","на"],["запер","ш"],["лю","би"],["бултых","нем"],["дан","но"],["це","ли"],["прот","и"],["мя","тый"],["ир","лих"],["орем","те"],["брыз","гать"],["обо","пь"],["стек","ла"],["исси","мо"],["громожд","енного"],["с","лы"],["а","ле"],["в","се"],["х","ло"],["х","удо"],["по","ем"],["ра","вно"],["про","сто"],["точ","но"],["ди","ровать"],["с","ный"],["с","мет"],["с","пе"],["с","вернут"],["с","плеснут"],["с","вет"],["с","фор"],["с","поко"],["о","па"],["о","ди"],["о","стро"],["г","л"],["г","ен"],["г","ка"],["г","на"],["г","ли"],["г","ну"],["г","ни"],["г","ри"],["г","нет"],["л","енно"],["л","ко"],["л","го"],["л","енный"],["а","й"],["а","ла"],["а","ль"],["а","ба"],["а","щий"],["а","да"],["а","лы"],["а","вар"],["а","ги"],["н","енно"],["н","уж"],["н","ко"],["н","да"],["к","ве"],["к","то"],["к","ий"],["к","ры"],["к","ша"],["к","лей"],["к","вар"],["м","уж"],["м","ко"],["м","но"],["м","ся"],["б","ен"],["б","ра"],["б","ая"],["б","ли"],["б","ной"],["е","ся"],["ю","ще"],["т","ен"],["т","ра"],["т","ан"],["т","то"],["т","вер"],["т","ный"],["т","лов"],["ж","енно"],["ж","ко"],["п","анный"],["в","ен"],["в","ан"],["в","ере"],["в","ре"],["в","ку"],["в","да"],["в","ной"],["з","е"],["з","ре"],["з","ов"],["з","ящий"],["ш","ле"],["ш","ендо"],["ш","ленный"],["и","м"],["и","я"],["ч","о"],["ч","ан"],["ч","ью"],["у","вер"],["у","бо"],["у","мно"],["х","ро"],["х","ри"],["х","ны"],["х","ме"],["х","ром"],["х","нуть"],["д","ц"],["д","ен"],["д","ра"],["д","ать"],["д","ря"],["д","жи"],["д","мит"],["щ","ущий"],["щ","ендо"],["ц","у"],["ф","ра"],["ф","едо"],["э","н"],["э","сто"],["ер","ца"],["по","чи"],["по","саж"],["по","планер"],["по","униж"],["по","обыд"],["по","ме"],["по","насторож"],["по","окуне"],["по","тополе"],["по","холен"],["по","полуведер"],["по","голавле"],["по","сорокаведер"],["по","знам"],["по","безвесель"],["по","предубежд"],["по","шелко"],["по","мудрен"],["по","ня"],["по","огор"],["по","убежд"],["по","обре"],["по","искаж"],["по","утомл"],["по","угнет"],["по","смущ"],["по","удру"],["по","изощр"],["по","одар"],["по","врожд"],["по","закал"],["по","прирожд"],["по","обнаж"],["по","углубл"],["по","удал"],["по","неудовлетвор"],["пр","ям"],["ст","у"],["ст","ер"],["ст","ящий"],["ст","ью"],["за","сыпать"],["за","ня"],["ка","н"],["ка","за"],["ка","то"],["ко","с"],["ко","е"],["ко","р"],["ко","ше"],["ко","со"],["ро","е"],["ро","ди"],["ро","шо"],["во","ды"],["ра","нь"],["ра","женный"],["на","р"],["на","пев"],["руж","ье"],["го","ло"],["го","ль"],["го","лов"],["го","льцов"],["ан","о"],["ан","до"],["ан","дан"],["ло","к"],["ло","пать"],["ере","г"],["не","ц"],["не","чи"],["не","пло"],["но","со"],["ре","ц"],["ве","се"],["ве","сел"],["ле","гко"],["ли","ла"],["ла","р"],["ла","да"],["ть","ю"],["раз","ма"],["раз","битый"],["до","к"],["до","ми"],["ше","я"],["об","и"],["се","мен"],["ий","ный"],["ар","пе"],["ль","ка"],["ль","ков"],["ать","ю"],["бе","й"],["бе","з"],["бе","сс"],["ря","к"],["мо","л"],["мо","р"],["мо","ю"],["мо","чь"],["ру","би"],["ми","ро"],["ми","ла"],["ми","лый"],["ни","ров"],["ни","мый"],["ба","рем"],["са","мо"],["са","ха"],["ся","ч"],["ем","ый"],["ем","те"],["ем","ся"],["вер","сты"],["му","дро"],["ши","п"],["ши","роко"],["гро","мко"],["ку","щий"],["вы","соко"],["сы","пка"],["ви","ни"],["ви","ди"],["чи","ла"],["да","ли"],["да","ви"],["су","щий"],["су","ще"],["ва","л"],["ва","жно"],["хо","д"],["хо","ло"],["хо","рошо"],["бо","й"],["бо","ко"],["бо","га"],["бо","же"],["па","ло"],["па","вший"],["си","ла"],["ду","рно"],["ск","и"],["ск","ром"],["га","й"],["га","ло"],["га","ев"],["гу","р"],["гу","сь"],["ди","м"],["ди","на"],["ди","ла"],["ди","ть"],["ри","я"],["стро","йно"],["ме","ж"],["пи","ц"],["та","к"],["ший","ся"],["стар","тере"],["хи","тро"],["пе","ш"],["пе","ль"],["ти","на"],["ти","ла"],["ти","ровать"],["жи","во"],["ящий","ся"],["че","ло"],["че","сть"],["че","стно"],["де","кре"],["ры","сь"],["повез","ш"],["нем","но"],["ча","йно"],["слож","ен"],["слож","но"],["бро","ниров"],["же","ст"],["же","ло"],["же","сто"],["лов","ко"],["нет","вер"],["муч","енный"],["лю","б"],["бере","г"],["мы","шленный"],["ха","й"],["сос","лан"],["мар","ь"],["сла","ва"],["сла","дко"],["бы","ти"],["сле","п"],["гнут","ый"],["обоб","ь"],["обосну","ешь"],["бултых","нет"],["бултых","нешь"],["ля","тый"],["ля","рный"],["пь","я"],["вший","ся"],["гор","ь"],["од","ра"],["ин","ственно"],["гла","сный"],["пра","вить"],["пра","вда"],["прот","ек"],["ску","чно"],["тру","сить"],["стра","шно"],["коро","тко"],["тол","ки"],["обо","пье"],["мед","ленно"],["зуб","ри"],["сем","ью"],["свер","ла"],["ора","ть"],["вали","ть"],["черкающ","ем"],["обобье","шь"],["сл","ых"],["сми","р"],["сжа","тый"],["глу","боко"],["нис","ко"],["яр","ко"],["забы","тье"],["горо","док"],["искр","енне"],["люби","м"],["споко","йно"],["аль","па"],["авар","ийный"],["нда","рем"],["вку","сно"],["увер","енно"],["дц","атью"],["весе","ло"],["разма","з"],["семен","ов"],["скром","но"],["брониров","анный"],["о","я"],["з","доро"],["ч","ем"],["ц","ирлих"],["-","ман"],["ко","ми"],["ли","о"],["ли","хо"],["те","ша"],["те","пло"],["вер","оя"],["ниж","е"],["униж","енно"],["обыд","енно"],["стро","ев"],["ки","ровать"],["ров","но"],["пи","кировать"],["окуне","в"],["пе","стро"],["упо","енный"],["восхищ","енный"],["посел","енный"],["новорожд","енный"],["мудрен","о"],["фо","лио"],["рей","дировать"],["мерт","во"],["немудрен","о"],["недале","ко"],["бор","до"],["ин-","фолио"],["слы","шно"],["хло","п"],["здоро","во"],["цирлих","-ман"],["вероя","тно"],["цирлих-ман","ирлих"],["с","м"],["с","д"],["с","ен"],["с","во"],["с","на"],["с","ан"],["с","ли"],["с","об"],["с","мен"],["с","ши"],["с","ма"],["с","лен"],["с","сыпать"],["с","луж"],["с","пер"],["с","че"],["с","ча"],["с","лу"],["с","ной"],["с","лю"],["с","сыпаться"],["с","метать"],["с","мы"],["с","бы"],["с","лив"],["с","хлестнут"],["с","пас"],["с","кал"],["с","вое"],["с","бре"],["с","ъем"],["с","пой"],["с","поро"],["с","кликать"],["с","пил"],["с","хлебнут"],["с","питой"],["с","чан"],["с","ерег"],["с","мор"],["с","ход"],["о","е"],["о","р"],["о","ж"],["о","ч"],["о","ка"],["о","на"],["о","ше"],["о","со"],["о","пол"],["о","сыпать"],["о","сел"],["о","жи"],["о","щи"],["о","сыпаться"],["о","чев"],["о","ке"],["о","плеснут"],["о","гла"],["о","черкнут"],["о","плыв"],["о","коро"],["о","пал"],["о","сыпь"],["о","стри"],["о","звезды"],["о","стекла"],["о","стер"],["о","гольцов"],["г","е"],["г","р"],["г","ий"],["г","ет"],["г","да"],["г","умен"],["г","ей"],["г","ля"],["г","рыз"],["г","нуть"],["г","ерца"],["л","к"],["л","ле"],["л","ая"],["л","то"],["л","га"],["л","гу"],["л","ны"],["л","ящий"],["л","анный"],["л","ха"],["л","ган"],["л","жно"],["л","бина"],["а","б"],["а","т"],["а","п"],["а","и"],["а","на"],["а","ло"],["а","ли"],["а","ма"],["а","ду"],["а","гу"],["а","пи"],["а","лей"],["а","вно"],["а","льный"],["а","лом"],["а","гой"],["а","лле"],["н","ю"],["н","ц"],["н","ере"],["н","ий"],["н","си"],["н","ду"],["н","га"],["н","ди"],["н","ная"],["н","ственно"],["н","тов"],["н","дировать"],["ы","кать"],["ы","рем"],["ы","ска"],["й","ст"],["й","ся"],["й","ком"],["й","цев"],["к","с"],["к","г"],["к","ле"],["к","ис"],["к","тер"],["к","ров"],["к","ти"],["к","като"],["к","ряк"],["к","лятый"],["м","м"],["м","за"],["м","ис"],["м","га"],["м","гу"],["м","ного"],["м","волок"],["м","лада"],["м","нимый"],["б","р"],["б","ь"],["б","ка"],["б","ко"],["б","ан"],["б","ло"],["б","но"],["б","от"],["б","об"],["б","ар"],["б","ный"],["б","лен"],["б","ри"],["б","ров"],["б","лек"],["б","нов"],["б","ьев"],["б","ряк"],["е","ть"],["е","ди"],["е","сте"],["е","вой"],["е","сла"],["е","ственно"],["е","сть"],["е","дко"],["е","тесь"],["е","льцов"],["е","мое"],["р","з"],["р","ь"],["р","енный"],["р","ис"],["р","ий"],["р","са"],["р","ку"],["р","ту"],["р","ган"],["р","гом"],["ю","с"],["ю","к"],["ю","д"],["ю","ра"],["ю","ся"],["ю","ков"],["ю","хан"],["ю","рок"],["т","э"],["т","ка"],["т","ве"],["т","ая"],["т","енный"],["т","ий"],["т","ар"],["т","ать"],["т","ри"],["т","ки"],["т","упо"],["т","лей"],["т","лы"],["т","иссимо"],["т","рий"],["ж","ь"],["ж","ен"],["ж","ер"],["ж","енная"],["ж","ий"],["ж","ни"],["ж","ет"],["ж","ем"],["ж","ев"],["ж","ков"],["ж","гу"],["ж","анный"],["ж","женный"],["ж","дина"],["ж","ний"],["п","ко"],["п","ан"],["п","но"],["п","ис"],["п","те"],["п","та"],["п","че"],["п","ью"],["п","етый"],["п","сина"],["п","ырем"],["в","ка"],["в","на"],["в","то"],["в","ла"],["в","ши"],["в","ма"],["в","сыпать"],["в","ри"],["в","ров"],["в","вернут"],["в","лов"],["в","ье"],["в","ью"],["в","метать"],["в","плеснут"],["в","метнут"],["в","сем"],["в","ьев"],["в","сплеснут"],["в","прям"],["в","тэ"],["з","ер"],["з","ло"],["з","ря"],["з","ви"],["з","да"],["з","ков"],["з","ме"],["з","де"],["з","лов"],["з","дан"],["з","вя"],["з","ги"],["з","нуть"],["з","ву"],["з","ненно"],["з","вен"],["ш","ен"],["ш","по"],["ш","ло"],["ш","енный"],["ш","ар"],["ш","ни"],["ш","ков"],["ш","та"],["ш","ущий"],["ш","анный"],["ш","вах"],["ш","пиц"],["я","мо"],["я","ков"],["я","ров"],["я","сно"],["я","юще"],["я","зов"],["я","тью"],["я","емый"],["и","е"],["и","во"],["и","на"],["и","ло"],["и","ла"],["и","ма"],["и","ти"],["и","ще"],["и","дно"],["и","це"],["и","стек"],["и","тю"],["и","стертый"],["и","ван"],["и","щущий"],["и","като"],["ч","уж"],["ч","ере"],["ч","ая"],["ч","енный"],["ч","ше"],["ч","ий"],["ч","ать"],["ч","ный"],["ч","ком"],["ч","ущий"],["ч","ьем"],["у","ль"],["у","са"],["у","сыпать"],["у","мер"],["у","ча"],["у","вернут"],["у","сыпаться"],["у","метать"],["у","ха"],["у","стой"],["у","хлестнут"],["у","зко"],["у","хлебнут"],["у","шиб"],["у","хов"],["у","ву"],["у","зы"],["у","рок"],["у","голь"],["у","павший"],["у","дила"],["у","мышленный"],["у","ндировать"],["ь","ка"],["ь","ице"],["х","ра"],["х","на"],["х","ая"],["х","от"],["х","ать"],["х","ру"],["х","нут"],["х","ся"],["х","му"],["х","ва"],["х","ров"],["х","лов"],["х","лю"],["х","воро"],["х","тере"],["д","енно"],["д","ая"],["д","ли"],["д","ла"],["д","яд"],["д","ет"],["д","ный"],["д","ви"],["д","ва"],["д","ков"],["д","нем"],["д","рян"],["д","ня"],["д","ера"],["д","ля"],["д","етый"],["д","стоящий"],["д","ской"],["д","жо"],["д","ящийся"],["щ","о"],["щ","енно"],["щ","ать"],["ц","о"],["ц","ы"],["ц","ве"],["ц","ую"],["ц","кий"],["ц","андо"],["ц","икато"],["ф","е"],["ф","ф"],["ф","ри"],["ф","ир"],["ф","рей"],["ф","итю"],["э","то"],["э","нный"],["э","рз"],["-","сер"],["ен","а"],["ен","ица"],["ер","ы"],["ер","нут"],["ер","ный"],["ер","шо"],["ер","жанный"],["по","в"],["по","ст"],["по","ка"],["по","ра"],["по","пере"],["по","то"],["по","ла"],["по","от"],["по","ль"],["по","со"],["по","ва"],["по","па"],["по","сыпать"],["по","ри"],["по","хле"],["по","вернут"],["по","тро"],["по","вой"],["по","ной"],["по","сыпаться"],["по","жа"],["по","стой"],["по","сле"],["по","лив"],["по","нь"],["по","ешь"],["по","том"],["по","селен"],["по","тек"],["по","пка"],["по","тертый"],["по","креп"],["по","стри"],["по","капать"],["по","вод"],["по","мятый"],["по","брызгать"],["по","мочь"],["по","честь"],["по","править"],["по","трусить"],["по","валить"],["по","шло"],["пр","ет"],["пр","уг"],["пр","ямо"],["ст","ен"],["ст","ре"],["ст","ая"],["ст","ли"],["ст","ый"],["ст","ный"],["ст","вы"],["ст","реж"],["ст","ной"],["ст","иссимо"],["за","я"],["за","ко"],["за","на"],["за","ре"],["за","черкав"],["за","ем"],["за","ви"],["за","хо"],["за","пи"],["за","черкаю"],["за","мер"],["за","кра"],["за","черкаем"],["за","вернут"],["за","сыпаться"],["за","метать"],["за","чу"],["за","черкай"],["за","лив"],["за","плеснут"],["за","воро"],["за","сев"],["за","стегнут"],["за","хлестнут"],["за","черкнут"],["за","льный"],["за","пас"],["за","сты"],["за","плыв"],["за","пев"],["за","пой"],["за","сти"],["за","тек"],["за","кликать"],["за","черкавший"],["за","пал"],["за","черкают"],["за","хлебнут"],["за","черкаете"],["за","черкаешь"],["за","черкайте"],["за","черкавшая"],["за","черкавшую"],["за","рей"],["за","пла"],["за","дел"],["за","черкаемте"],["за","оз"],["за","данный"],["за","капать"],["за","вод"],["за","житое"],["за","брызгать"],["за","громожденного"],["за","поем"],["за","гна"],["за","мол"],["за","сыпка"],["за","берег"],["за","ндарем"],["за","бронированный"],["за","йцев"],["за","вма"],["за","прет"],["ка","й"],["ка","к"],["ка","п"],["ка","я"],["ка","ко"],["ка","на"],["ка","ре"],["ка","ле"],["ка","ла"],["ка","ри"],["ка","хи"],["ка","нов"],["ка","нный"],["ка","тя"],["ка","льный"],["ка","чка"],["ка","зать"],["ка","тан"],["ка","пель"],["уж","е"],["ко","не"],["ко","ле"],["ко","ли"],["ко","ла"],["ко","те"],["ко","ль"],["ко","сы"],["ко","ма"],["ко","па"],["ко","лов"],["ко","лю"],["ко","ня"],["ко","ля"],["ко","сть"],["ко","лет"],["ко","стра"],["ко","жу"],["ко","пен"],["ко","нцев"],["ко","пье"],["ко","стя"],["ко","сим"],["ко","гни"],["ко","тлов"],["ко","зе"],["ко","рец"],["ко","гда"],["ко","нду"],["ко","тлы"],["ко","пте"],["ко","злов"],["ро","й"],["ро","го"],["ро","ман"],["ро","сто"],["ро","мен"],["ро","вой"],["ро","ды"],["ро","дом"],["ро","дя"],["ро","городок"],["во","в"],["во","да"],["во","лен"],["во","стро"],["во","пи"],["во","льный"],["во","зи"],["во","стоящий"],["во","шея"],["во","инственно"],["во","семью"],["во","ню"],["ра","м"],["ра","х"],["ра","ли"],["ра","да"],["ра","ди"],["ра","хи"],["ра","йков"],["ра","ву"],["ра","нимый"],["ра","йком"],["ра","ктер"],["ра","вьев"],["на","ко"],["на","пере"],["на","се"],["на","под"],["на","черкав"],["на","са"],["на","ем"],["на","воло"],["на","сы"],["на","сыпать"],["на","черкаю"],["на","черкаем"],["на","ча"],["на","вернут"],["на","сыпаться"],["на","метать"],["на","стой"],["на","черкай"],["на","лив"],["на","хлестнут"],["на","плыв"],["на","волок"],["на","молот"],["на","тек"],["на","кликать"],["на","черкавший"],["на","черкают"],["на","черкаете"],["на","черкаешь"],["на","черкайте"],["на","черкавшая"],["на","черкавшую"],["на","сыпь"],["на","дел"],["на","черкаемте"],["на","летать"],["на","литой"],["на","боле"],["на","пасть"],["на","житое"],["на","проти"],["на","громожденного"],["на","зальный"],["го","раз"],["го","ря"],["го","ся"],["го","да"],["го","ри"],["го","лу"],["го","ги"],["ан","но"],["ан","иссимо"],["ло","мл"],["ло","ма"],["ло","сь"],["ло","щи"],["ло","ску"],["ло","чь"],["ло","мов"],["ло","пар"],["не","то"],["не","мо"],["не","про"],["не","вер"],["не","ви"],["не","обы"],["не","жи"],["не","бро"],["не","ско"],["не","тесь"],["не","мой"],["не","мало"],["не","верно"],["не","сом"],["не","полно"],["не","стекла"],["не","просто"],["не","точно"],["не","вре"],["не","умно"],["не","милый"],["не","мудро"],["не","широко"],["не","громко"],["не","высоко"],["не","сущий"],["не","важно"],["не","хорошо"],["не","дурно"],["не","стройно"],["не","хитро"],["не","честно"],["не","сложно"],["не","ловко"],["не","страшно"],["не","медленно"],["не","слых"],["не","глубоко"],["не","ярко"],["не","искренне"],["не","вкусно"],["не","уверенно"],["не","весело"],["не","скромно"],["не","споро"],["не","ожи"],["не","бный"],["не","ясно"],["но","ко"],["но","ва"],["но","сить"],["но","ющий"],["но","ска"],["но","рный"],["но","звезды"],["но","чью"],["чер","но"],["чер","ну"],["чер","ный"],["чер","вы"],["чер","та"],["чер","ство"],["чер","ствы"],["ре","я"],["ре","по"],["ре","ме"],["ре","дко"],["ре","бла"],["ре","зко"],["ре","зво"],["ре","зка"],["ре","зать"],["ре","бра"],["ре","зов"],["ре","зана"],["пере","д"],["пере","черкав"],["пере","ем"],["пере","да"],["пере","ду"],["пере","сыпать"],["пере","черкаю"],["пере","пе"],["пере","черкаем"],["пере","упо"],["пере","вернут"],["пере","сыпаться"],["пере","метать"],["пере","стой"],["пере","черкай"],["пере","плеснут"],["пере","сев"],["пере","стегнут"],["пере","хлестнут"],["пере","черкнут"],["пере","волок"],["пере","орем"],["пере","молот"],["пере","пев"],["пере","пой"],["пере","дом"],["пере","черкавший"],["пере","метнут"],["пере","черкают"],["пере","черкаете"],["пере","черкаешь"],["пере","черкайте"],["пере","черкавшая"],["пере","черкавшую"],["пере","шиб"],["пере","сыпь"],["пере","черкаемте"],["пере","одетый"],["пере","давать"],["пере","житое"],["пере","оремте"],["пере","толки"],["пере","орать"],["пере","вози"],["черка","л"],["черка","я"],["черка","ло"],["черка","ли"],["черка","ла"],["черка","ть"],["черка","ет"],["груж","ен"],["груж","енном"],["груж","енным"],["груж","енный"],["груж","енного"],["груж","енная"],["груж","енной"],["груж","енную"],["груж","енною"],["груж","енные"],["груж","енных"],["груж","енному"],["груж","енное"],["груж","енными"],["ве","к"],["ве","ц"],["ве","ла"],["ве","те"],["ве","сы"],["ве","чи"],["ве","сь"],["ве","сла"],["ве","сть"],["ве","сно"],["ве","сти"],["ве","сны"],["ве","сила"],["ве","лярный"],["ве","сной"],["ве","жий"],["ле","м"],["ле","ю"],["ле","х"],["ле","со"],["ле","га"],["ле","вой"],["ле","вый"],["ле","том"],["ле","зка"],["ле","сом"],["ле","ден"],["ле","ченный"],["ая","ся"],["то","го"],["то","ни"],["то","же"],["то","лет"],["то","-то"],["то","чило"],["то","нко"],["то","ружье"],["то","нга"],["то","ргом"],["то","поль"],["то","кай"],["ли","на"],["ли","ли"],["ли","тый"],["ли","па"],["ли","тер"],["ли","та"],["ли","сь"],["ли","ца"],["ли","нный"],["ли","тий"],["ли","цо"],["ли","фе"],["ую","ся"],["при","ев"],["при","ви"],["при","сыпать"],["при","мер"],["при","вернут"],["при","метать"],["при","ста"],["при","сев"],["при","стегнут"],["при","пас"],["при","плыв"],["при","стра"],["при","селен"],["при","хлебнут"],["при","шиб"],["при","одетый"],["при","стя"],["при","нси"],["при","липа"],["ла","й"],["ла","на"],["ла","со"],["ла","ви"],["ла","ва"],["ла","би"],["ла","дно"],["ла","ющий"],["ла","зи"],["ла","дь"],["ла","зящий"],["ла","вров"],["ла","понь"],["ть","ся"],["ть","ем"],["раз","но"],["раз","ящий"],["раз","вернут"],["раз","метать"],["раз","лив"],["раз","ъем"],["раз","дел"],["раз","одетый"],["раз","литой"],["раз","дра"],["раз","има"],["раз","детый"],["до","н"],["до","в"],["до","ле"],["до","ль"],["до","мен"],["до","чи"],["до","ма"],["до","сыпать"],["до","вернут"],["до","лу"],["до","сыпаться"],["до","метать"],["до","стой"],["до","плеснут"],["до","нь"],["до","вать"],["до","сти"],["до","кликать"],["до","метнут"],["до","мит"],["до","лго"],["до","хнуть"],["до","нец"],["до","лжно"],["до","рса"],["до","ждина"],["до","носить"],["ман","я"],["ман","ящий"],["ман","ила"],["от","ру"],["от","сыпать"],["от","пе"],["от","жи"],["от","би"],["от","вернут"],["от","сыпаться"],["от","метать"],["от","стой"],["от","лив"],["от","плеснут"],["от","вет"],["от","сев"],["от","стегнут"],["от","черкнут"],["от","цов"],["от","ек"],["от","ъем"],["от","тек"],["от","хлебнут"],["от","стоящий"],["от","шиб"],["от","летать"],["от","чего"],["от","раженный"],["от","ренный"],["от","петый"],["от","чая"],["от","казать"],["ше","й"],["ше","к"],["ше","во"],["ше","стью"],["ше","пта"],["ше","стая"],["об","сыпать"],["об","жи"],["об","мер"],["об","вернут"],["об","сыпаться"],["об","метать"],["об","сев"],["об","молот"],["об","ъем"],["об","летать"],["об","ерег"],["об","ухов"],["об","що"],["об","ернут"],["об","леченный"],["об","разно"],["се","к"],["се","ла"],["се","бе"],["се","да"],["се","ма"],["се","кущий"],["се","дла"],["яд","ущий"],["яд","еть"],["под","ло"],["под","ви"],["под","сыпать"],["под","мет"],["под","вернут"],["под","вой"],["под","сыпаться"],["под","метать"],["под","лив"],["под","плеснут"],["под","дан"],["под","сев"],["под","стегнут"],["под","хлестнут"],["под","черкнут"],["под","волок"],["под","ъем"],["под","тек"],["под","пал"],["под","метнут"],["под","пил"],["под","лом"],["под","дев"],["под","данный"],["под","разбитый"],["под","сыпка"],["под","сжатый"],["под","резов"],["пл","я"],["пл","юс"],["ис","а"],["ис","ь"],["ис","черкав"],["ис","черкаю"],["ис","черкаем"],["ис","черкай"],["ис","черкавший"],["ис","черкают"],["ис","черкаете"],["ис","черкаешь"],["ис","черкайте"],["ис","черкавшая"],["ис","черкавшую"],["ис","черкаемте"],["ис","питой"],["ис","копа"],["ар","ко"],["ар","та"],["ар","тю"],["сто","ю"],["сто","п"],["сто","я"],["сто","гов"],["сто","лько"],["сто","лечко"],["сто","лочь"],["ну","щий"],["ну","дь"],["ну","эн"],["ну","дить"],["те","л"],["те","сла"],["те","сно"],["те","чь"],["те","льно"],["те","кущий"],["те","тки"],["ль","с"],["ль","ни"],["ль","га"],["ль","ти"],["ль","ца"],["ль","зящий"],["ль","чо"],["ль","вов"],["бе","ц"],["бе","ли"],["бе","ла"],["бе","лен"],["бе","дно"],["бе","зу"],["бе","гов"],["бе","лена"],["бе","гом"],["бе","дра"],["бе","лила"],["бе","спокойно"],["бе","дный"],["бе","столочь"],["со","ло"],["со","ма"],["со","вой"],["со","лов"],["со","ня"],["со","чно"],["со","стегнут"],["со","фа"],["со","сущий"],["со","гласный"],["со","здан"],["со","норный"],["со","литер"],["со","домит"],["со","ответ"],["со","пля"],["мл","енный"],["ря","дочи"],["мо","рож"],["мо","ем"],["мо","ча"],["мо","дно"],["мо","ющий"],["мо","сти"],["мо","лан"],["мо","кро"],["мо","жно"],["мо","чило"],["мо","жет"],["мо","зги"],["мо","дера"],["про","ем"],["про","ма"],["про","сыпать"],["про","сло"],["про","вернут"],["про","хла"],["про","сыпаться"],["про","метать"],["про","стой"],["про","лив"],["про","сев"],["про","черкнут"],["про","сты"],["про","плыв"],["про","орем"],["про","све"],["про","пой"],["про","пил"],["про","дел"],["про","стертый"],["про","пасть"],["про","питой"],["про","оремте"],["про","воды"],["про","орать"],["про","клятый"],["про","жженный"],["ру","да"],["ру","ком"],["ру","дно"],["ру","сла"],["ру","сс"],["ру","нди"],["ру","чьем"],["кош","ен"],["кош","енном"],["кош","енным"],["кош","енный"],["кош","енного"],["кош","енная"],["кош","енной"],["кош","енную"],["кош","енною"],["кош","енные"],["кош","енных"],["кош","енному"],["кош","енное"],["кош","енными"],["ми","ле"],["ми","рен"],["ми","рно"],["ми","хай"],["ми","лая"],["ми","лица"],["ми","нуэн"],["рож","ков"],["рож","нов"],["ни","ца"],["ни","зо"],["ни","зко"],["ни","зка"],["ни","что"],["ни","поч"],["ни","чего"],["ни","коль"],["ба","х"],["ба","ев"],["ба","бу"],["ба","бай"],["ба","сим"],["ба","бка"],["ба","канов"],["нут","ый"],["мен","ами"],["мен","ее"],["ет","сестры"],["са","ше"],["са","ми"],["са","бл"],["са","мар"],["са","йка"],["са","мое"],["са","зандарем"],["ся","к"],["ся","щий"],["ся","нка"],["ся","тью"],["вер","г"],["вер","х"],["вер","на"],["вер","хи"],["вер","ха"],["вер","нее"],["вер","тко"],["вер","тка"],["вер","толет"],["вер","тел"],["му","ся"],["му","тировать"],["му","равьев"],["му","льти"],["пруж","ен"],["пруж","енном"],["пруж","енным"],["пруж","енный"],["пруж","енного"],["пруж","енная"],["пруж","енной"],["пруж","енную"],["пруж","енною"],["пруж","енные"],["пруж","енных"],["пруж","енному"],["пруж","енное"],["пруж","енными"],["ши","ш"],["ши","ло"],["ши","ре"],["ши","ла"],["ши","ть"],["ши","рь"],["ши","пов"],["гро","в"],["гро","мов"],["гро","зно"],["гро","бина"],["гро","мила"],["ку","ба"],["ку","да"],["ку","ма"],["ку","чно"],["ку","сина"],["ку","пель"],["ку","тила"],["ку","рган"],["ку","вши"],["ку","чий"],["вед","и"],["вед","ро"],["вед","ра"],["вед","ре"],["вед","ру"],["вед","ущий"],["вед","ром"],["вед","емся"],["вы","ть"],["вы","ше"],["вы","ем"],["вы","сыпать"],["вы","рожд"],["вы","сыпаться"],["вы","метать"],["вы","пас"],["вы","гре"],["вы","плыв"],["вы","молот"],["вы","кликать"],["вы","пал"],["вы","тертый"],["вы","пек"],["вы","цвет"],["вы","шитый"],["вы","гл"],["вы","нуж"],["вы","раженный"],["вы","ход"],["вы","мышленный"],["вы","резать"],["вы","литый"],["вз","ры"],["вз","мы"],["вз","волок"],["вз","метнут"],["вз","громожденного"],["вз","им"],["сы","р"],["сы","ро"],["сы","нов"],["ви","т"],["ви","в"],["ви","на"],["ви","ли"],["ви","ва"],["ви","та"],["ви","дно"],["ви","той"],["ви","кто"],["ви","бра"],["ви","дать"],["ви","хров"],["ви","зави"],["ви","тельно"],["чи","х"],["чи","сто"],["чи","ки"],["пол","я"],["пол","ка"],["пол","еница"],["реше","та"],["реж","ущий"],["да","на"],["да","ль"],["да","шка"],["да","вящий"],["рас","сыпать"],["рас","сте"],["рас","сыпаться"],["рас","плеснут"],["рас","стегнут"],["рас","хлестнут"],["рас","черкнут"],["рас","пев"],["рас","пил"],["рас","шитый"],["су","ка"],["су","ть"],["су","хо"],["су","щи"],["су","лт"],["су","пруг"],["су","концев"],["су","шило"],["су","гробина"],["ва","ле"],["ва","то"],["ва","лен"],["ва","лу"],["ва","лов"],["ва","лей"],["ва","лом"],["ва","лена"],["стру","сить"],["громл","ен"],["громл","енном"],["громл","енным"],["громл","енный"],["громл","енного"],["громл","енная"],["громл","енной"],["громл","енную"],["громл","енною"],["громл","енные"],["громл","енных"],["громл","енному"],["громл","енное"],["громл","енными"],["волоч","ен"],["волоч","енном"],["волоч","енным"],["волоч","енный"],["волоч","енного"],["волоч","енная"],["волоч","енной"],["волоч","енную"],["волоч","енною"],["волоч","енные"],["волоч","енных"],["волоч","енному"],["волоч","енное"],["волоч","енными"],["уменьш","ен"],["уменьш","енном"],["уменьш","енным"],["уменьш","енный"],["уменьш","енного"],["уменьш","енная"],["уменьш","енной"],["уменьш","енную"],["уменьш","енною"],["уменьш","енные"],["уменьш","енных"],["уменьш","енному"],["уменьш","енное"],["уменьш","енными"],["хо","м"],["хо","ром"],["хо","хлов"],["решеч","ен"],["решеч","енном"],["решеч","енным"],["решеч","енный"],["решеч","енного"],["решеч","енная"],["решеч","енной"],["решеч","енную"],["решеч","енною"],["решеч","енные"],["решеч","енных"],["решеч","енному"],["решеч","енное"],["струн","ен"],["струн","енном"],["струн","енным"],["струн","енный"],["струн","енного"],["струн","енная"],["струн","енной"],["струн","енную"],["струн","енною"],["струн","енные"],["струн","енных"],["струн","енному"],["струн","енное"],["ма","ки"],["ма","лей"],["ма","лый"],["ма","льцев"],["ма","эсто"],["ма","льков"],["ма","слен"],["ма","кс"],["ма","тве"],["ма","лави"],["ма","льчо"],["пре","сто"],["пре","добро"],["пре","мило"],["пре","данно"],["пре","скучно"],["пре","дстоящий"],["пре","стиссимо"],["лен","ы"],["лен","то"],["бо","в"],["бо","ев"],["бо","ков"],["бо","ком"],["бо","ров"],["бо","дро"],["бо","лив"],["бо","ек"],["бо","льно"],["бо","йков"],["бо","чка"],["бо","ндарем"],["бо","лящий"],["бо","чком"],["бо","ровой"],["па","ра"],["па","ли"],["па","ша"],["па","ром"],["па","йка"],["па","хан"],["па","льцев"],["па","хнуть"],["па","влов"],["па","кость"],["па","хом"],["прит","ертый"],["прит","русить"],["си","п"],["си","ро"],["си","ва"],["си","лен"],["си","пло"],["си","нь"],["си","льно"],["си","дя"],["си","тный"],["си","она"],["си","вка"],["бу","й"],["бу","ра"],["бу","ев"],["бу","ти"],["бу","ча"],["бу","йно"],["бу","рно"],["бу","зи"],["бу","чило"],["бу","бен"],["бу","гаев"],["бу","нтов"],["бу","бнов"],["бу","шек"],["бу","рунди"],["бу","гров"],["ду","ло"],["ду","то"],["ду","тый"],["ду","ша"],["ду","щийся"],["ду","льцев"],["ду","лха"],["ду","бров"],["ду","шен"],["ск","ло"],["ск","ри"],["ск","ир"],["ск","верно"],["ск","ребла"],["ск","верна"],["ков","ров"],["ков","ский"],["саж","а"],["саж","и"],["саж","енно"],["саж","енны"],["саж","енном"],["саж","енным"],["саж","енный"],["саж","енного"],["саж","енная"],["саж","енной"],["саж","енную"],["саж","енною"],["саж","енные"],["саж","енных"],["саж","енному"],["саж","енное"],["саж","енными"],["саж","енней"],["саж","еннее"],["саж","енна"],["зна","ть"],["из","дале"],["из","молот"],["из","битый"],["из","летать"],["из","мятый"],["из","оби"],["из","дали"],["из","мученный"],["из","одра"],["из","ыска"],["из","жев"],["из","верг"],["из","вив"],["точ","ен"],["точ","енном"],["точ","енным"],["точ","енный"],["точ","енного"],["точ","енная"],["точ","енной"],["точ","енную"],["точ","енною"],["точ","енные"],["точ","енных"],["точ","енному"],["точ","енное"],["точ","енными"],["точ","ащий"],["план","ере"],["га","с"],["га","дко"],["га","лан"],["га","ван"],["га","джи"],["га","дим"],["га","ври"],["га","ити"],["га","лифе"],["луж","ен"],["луж","енном"],["луж","енным"],["луж","енный"],["луж","енного"],["луж","енная"],["луж","енной"],["луж","енную"],["луж","енною"],["луж","енные"],["луж","енных"],["луж","енному"],["луж","енное"],["луж","енными"],["луж","ков"],["тер","ска"],["зат","русить"],["зат","ыкать"],["ком","мутировать"],["черкавше","й"],["черкавше","м"],["черкавше","е"],["черкавше","ю"],["черкавше","го"],["черкавше","му"],["планер","а"],["планер","ы"],["планер","у"],["планер","ен"],["планер","на"],["планер","но"],["планер","ный"],["планер","ов"],["планер","ней"],["планер","ной"],["планер","ная"],["планер","нее"],["планер","ом"],["планер","ами"],["планер","ного"],["планер","ам"],["планер","ах"],["планер","ное"],["планер","ную"],["планер","ном"],["планер","ною"],["планер","ному"],["гу","сто"],["гу","щий"],["гу","ля"],["гу","дев"],["гу","бной"],["гу","лька"],["гу","сек"],["чин","ен"],["чин","енном"],["чин","енным"],["чин","но"],["чин","енный"],["чин","енного"],["чин","енная"],["чин","енной"],["чин","енную"],["чин","енною"],["чин","енные"],["чин","енных"],["чин","енному"],["чин","енное"],["чин","енными"],["униж","ен"],["униж","енны"],["униж","енном"],["униж","енным"],["униж","енный"],["униж","енного"],["униж","енная"],["униж","енной"],["униж","енную"],["униж","енною"],["униж","енные"],["униж","енных"],["униж","енному"],["униж","енное"],["униж","енными"],["униж","енней"],["униж","еннее"],["униж","енности"],["униж","енность"],["униж","енностью"],["униж","енностей"],["униж","енностям"],["униж","енностях"],["униж","енностями"],["униж","енна"],["ди","а"],["ди","к"],["ди","ко"],["ди","ди"],["ди","нка"],["ди","фф"],["ди","минуэн"],["ди","етсестры"],["ри","ть"],["ри","ев"],["ри","нов"],["ри","кша"],["ри","тен"],["труж","ен"],["труж","енном"],["труж","енным"],["труж","енный"],["труж","енного"],["труж","енная"],["труж","енной"],["труж","енную"],["труж","енною"],["труж","енные"],["труж","енных"],["труж","енному"],["труж","енное"],["труж","енными"],["створ","ен"],["створ","енном"],["створ","енным"],["створ","енный"],["створ","енного"],["створ","енная"],["створ","енной"],["створ","енную"],["створ","енною"],["створ","енные"],["створ","енных"],["створ","енному"],["створ","енное"],["створ","енными"],["заряж","ен"],["заряж","енном"],["заряж","енным"],["заряж","енный"],["заряж","енного"],["заряж","енная"],["заряж","енной"],["заряж","енную"],["заряж","енною"],["заряж","енные"],["заряж","енных"],["заряж","енному"],["заряж","енное"],["заряж","енными"],["догруж","ен"],["догруж","енном"],["догруж","енным"],["догруж","енный"],["догруж","енного"],["догруж","енная"],["догруж","енной"],["догруж","енную"],["догруж","енною"],["догруж","енные"],["догруж","енных"],["догруж","енному"],["догруж","енное"],["догруж","енными"],["отвор","ен"],["отвор","енном"],["отвор","енным"],["отвор","енный"],["отвор","енного"],["отвор","енная"],["отвор","енной"],["отвор","енную"],["отвор","енною"],["отвор","енные"],["отвор","енных"],["отвор","енному"],["отвор","енное"],["отвор","енными"],["сеч","ен"],["сеч","енном"],["сеч","енным"],["сеч","енный"],["сеч","енного"],["сеч","енная"],["сеч","енной"],["сеч","енную"],["сеч","енною"],["сеч","енные"],["сеч","енных"],["сеч","енному"],["сеч","енное"],["сеч","енными"],["сторож","а"],["сторож","ка"],["сторож","ко"],["обыд","енны"],["обыд","енном"],["обыд","енным"],["обыд","енный"],["обыд","енного"],["обыд","енная"],["обыд","енной"],["обыд","енную"],["обыд","енною"],["обыд","енные"],["обыд","енных"],["обыд","енному"],["обыд","енное"],["обыд","енными"],["обыд","енней"],["обыд","еннее"],["обыд","енности"],["обыд","енность"],["обыд","енностью"],["обыд","енностей"],["обыд","енностям"],["обыд","енностях"],["обыд","енностями"],["обыд","енна"],["ны","х"],["мет","ан"],["мет","лы"],["мет","ил"],["мет","чик"],["мет","рогородок"],["стро","п"],["стро","ен"],["стро","енном"],["стро","енным"],["стро","го"],["стро","енный"],["стро","енного"],["стро","енная"],["стро","енной"],["стро","енную"],["стро","енною"],["стро","енные"],["стро","енных"],["стро","енному"],["стро","енное"],["стро","енными"],["стро","чила"],["баг","рен"],["баг","рам"],["ки","л"],["ки","я"],["ки","на"],["ки","ем"],["ки","ев"],["ки","рали"],["ки","нозвезды"],["ров","ней"],["ров","нею"],["ме","л"],["ме","ду"],["ме","хи"],["ме","лко"],["ме","лок"],["ме","сяч"],["ме","диа"],["бл","юд"],["пер","т"],["пер","у"],["пер","ера"],["насторож","ен"],["насторож","енном"],["насторож","енным"],["насторож","енный"],["насторож","енного"],["насторож","енная"],["насторож","енной"],["насторож","енную"],["насторож","енною"],["насторож","енные"],["насторож","енных"],["насторож","енному"],["насторож","енное"],["насторож","енными"],["насторож","енней"],["насторож","еннее"],["насторож","енности"],["насторож","енность"],["насторож","енностью"],["насторож","енностей"],["насторож","енностям"],["насторож","енностях"],["насторож","енностями"],["черкавши","м"],["черкавши","е"],["черкавши","х"],["черкавши","ми"],["полу","засыпать"],["полу","версты"],["полу","забытье"],["пи","м"],["пи","ла"],["пи","ца"],["пи","мы"],["пи","тье"],["пи","ано"],["пи","шущий"],["пи","аниссимо"],["нер","авно"],["та","м"],["та","во"],["та","би"],["та","бель"],["та","рань"],["та","инственно"],["стар","ший"],["стар","ица"],["стар","ина"],["черкаю","щий"],["шел","ка"],["шел","ку"],["оку","нь"],["ов","сянка"],["поле","т"],["гола","м"],["сель","терска"],["хи","мволок"],["окуне","ва"],["окуне","вой"],["окуне","вей"],["окуне","вее"],["окуне","вый"],["окуне","вое"],["окуне","вая"],["окуне","вую"],["дар","и"],["дар","ен"],["дар","енном"],["дар","енным"],["дар","енный"],["дар","енного"],["дар","енная"],["дар","енной"],["дар","енную"],["дар","енною"],["дар","енные"],["дар","енных"],["дар","енному"],["дар","енное"],["дар","енными"],["дар","мов"],["дар","-сер"],["сте","п"],["сте","лю"],["сте","бла"],["сте","гна"],["сте","льга"],["тополе","в"],["тополе","ва"],["тополе","вой"],["тополе","вей"],["тополе","вее"],["тополе","вый"],["тополе","вое"],["тополе","вая"],["тополе","вую"],["безве","селен"],["холен","а"],["холен","ая"],["холен","ую"],["холен","ый"],["холен","ых"],["холен","ей"],["холен","ом"],["холен","ее"],["притупл","ен"],["притупл","енном"],["притупл","енным"],["притупл","енный"],["притупл","енного"],["притупл","енная"],["притупл","енной"],["притупл","енную"],["притупл","енною"],["притупл","енные"],["притупл","енных"],["притупл","енному"],["притупл","енное"],["притупл","енными"],["притупл","енности"],["притупл","енность"],["притупл","енностью"],["притупл","енностей"],["притупл","енностям"],["притупл","енностях"],["притупл","енностями"],["полуведер","ен"],["полуведер","на"],["полуведер","но"],["полуведер","ный"],["полуведер","ней"],["полуведер","ной"],["полуведер","ная"],["полуведер","нее"],["полуведер","ного"],["полуведер","ное"],["полуведер","ную"],["полуведер","ном"],["полуведер","ною"],["полуведер","ному"],["голавле","в"],["голавле","ва"],["голавле","вой"],["голавле","вей"],["голавле","вее"],["голавле","вый"],["голавле","вое"],["голавле","вая"],["голавле","вую"],["сорокаведер","ен"],["сорокаведер","на"],["сорокаведер","но"],["сорокаведер","ный"],["сорокаведер","ней"],["сорокаведер","ной"],["сорокаведер","ная"],["сорокаведер","нее"],["сорокаведер","ного"],["сорокаведер","ное"],["сорокаведер","ную"],["сорокаведер","ном"],["сорокаведер","ною"],["сорокаведер","ному"],["пе","й"],["пе","стры"],["пе","щущий"],["пе","счан"],["пе","хтере"],["ти","м"],["ти","но"],["ти","хо"],["жи","о"],["жи","ла"],["жи","ров"],["жи","вой"],["жи","дко"],["жи","льцов"],["жи","ган"],["жи","вете"],["че","ла"],["че","ша"],["че","ственно"],["че","ски"],["че","лны"],["че","стной"],["знам","енно"],["знам","енны"],["знам","енном"],["знам","енным"],["знам","енный"],["знам","енного"],["знам","енная"],["знам","енной"],["знам","енную"],["знам","енною"],["знам","енные"],["знам","енных"],["знам","енному"],["знам","енное"],["знам","енными"],["знам","енней"],["знам","еннее"],["знам","енна"],["комбай","нере"],["безвесель","на"],["безвесель","но"],["безвесель","ный"],["безвесель","ней"],["безвесель","ной"],["безвесель","ная"],["безвесель","нее"],["безвесель","ного"],["безвесель","ное"],["безвесель","ную"],["безвесель","ном"],["безвесель","ною"],["безвесель","ному"],["сло","вно"],["де","ц"],["де","ль"],["де","жи"],["де","сны"],["де","сна"],["де","йст"],["де","шево"],["де","сятью"],["де","сущи"],["вез","десущи"],["преду","см"],["комбайнер","а"],["комбайнер","ы"],["комбайнер","у"],["комбайнер","ка"],["комбайнер","ку"],["комбайнер","ки"],["комбайнер","ов"],["комбайнер","ке"],["комбайнер","ом"],["комбайнер","ами"],["комбайнер","ам"],["комбайнер","ах"],["комбайнер","кам"],["комбайнер","ках"],["комбайнер","ками"],["комбайнер","ок"],["комбайнер","кой"],["комбайнер","кою"],["мер","я"],["мер","ла"],["мер","си"],["мер","зко"],["мер","ил"],["мер","ило"],["кра","тко"],["кра","сящий"],["кра","дущийся"],["ры","ло"],["ры","тый"],["ры","барем"],["хле","гка"],["хле","бушек"],["щи","нка"],["повез","ем"],["повез","ший"],["повез","ешь"],["повез","ете"],["повез","емте"],["нем","ая"],["нем","чу"],["нем","ного"],["черкаем","а"],["черкаем","ая"],["черкаем","ую"],["черкаем","ый"],["черкаем","ых"],["стартер","а"],["стартер","ы"],["стартер","у"],["стартер","ов"],["стартер","ом"],["стартер","ами"],["стартер","ам"],["стартер","ах"],["предубежд","ен"],["предубежд","енном"],["предубежд","енным"],["предубежд","енный"],["предубежд","енного"],["предубежд","енная"],["предубежд","енной"],["предубежд","енную"],["предубежд","енною"],["предубежд","енные"],["предубежд","енных"],["предубежд","енному"],["предубежд","енное"],["предубежд","енными"],["предубежд","енней"],["предубежд","еннее"],["упо","ен"],["упо","енном"],["упо","енным"],["упо","енного"],["упо","енная"],["упо","енной"],["упо","енную"],["упо","енною"],["упо","енные"],["упо","енных"],["упо","енному"],["упо","енное"],["упо","енными"],["би","т"],["би","та"],["ча","д"],["ча","сто"],["ча","сы"],["ча","йка"],["ча","ек"],["ча","йков"],["ча","сом"],["ча","стью"],["ча","емый"],["ча","сами"],["шелко","ва"],["шелко","вой"],["шелко","вей"],["шелко","вее"],["шелко","вое"],["слож","енном"],["слож","енным"],["слож","енный"],["слож","енного"],["слож","енная"],["слож","енной"],["слож","енную"],["слож","енною"],["слож","енные"],["слож","енных"],["слож","енному"],["слож","енное"],["слож","енными"],["оре","л"],["оре","т"],["оре","те"],["оре","шь"],["лу","й"],["лу","ка"],["лу","га"],["лу","гов"],["лу","чше"],["бро","ней"],["бро","ня"],["бро","нь"],["бро","нею"],["бро","нис"],["бро","нная"],["бро","нестекла"],["тро","п"],["тро","стя"],["же","лт"],["же","ственно"],["же","ство"],["же","чко"],["же","лто"],["же","вела"],["же","лезка"],["хла","дно"],["ще","ку"],["ще","ки"],["ще","дро"],["ще","лк"],["ще","левой"],["ще","линный"],["лов","чила"],["ведо","мо"],["ведо","мый"],["опо","йка"],["хр","юк"],["зас","панный"],["зак","лятый"],["запер","лась"],["запер","шийся"],["напо","й"],["напо","ен"],["напо","енном"],["напо","енным"],["напо","енный"],["напо","енного"],["напо","енная"],["напо","енной"],["напо","енную"],["напо","енною"],["напо","енные"],["напо","енных"],["напо","енному"],["напо","енное"],["напо","енными"],["нет","рудно"],["неж","арко"],["муч","ен"],["муч","енном"],["муч","енным"],["муч","енного"],["муч","енная"],["муч","енной"],["муч","енную"],["муч","енною"],["муч","енные"],["муч","енных"],["муч","енному"],["муч","енное"],["муч","енными"],["суш","а"],["ново","е"],["восхищ","ен"],["восхищ","енном"],["восхищ","енным"],["восхищ","енного"],["восхищ","енная"],["восхищ","енной"],["восхищ","енную"],["восхищ","енною"],["восхищ","енные"],["восхищ","енных"],["восхищ","енному"],["восхищ","енное"],["восхищ","енными"],["ско","ро"],["ско","ра"],["ско","воро"],["ско","лечко"],["ско","роди"],["ско","тина"],["ско","льзящий"],["сгруж","ен"],["сгруж","енном"],["сгруж","енным"],["сгруж","енный"],["сгруж","енного"],["сгруж","енная"],["сгруж","енной"],["сгруж","енную"],["сгруж","енною"],["сгруж","енные"],["сгруж","енных"],["сгруж","енному"],["сгруж","енное"],["сгруж","енными"],["сман","ен"],["сман","енном"],["сман","енным"],["сман","енный"],["сман","енного"],["сман","енная"],["сман","енной"],["сман","енную"],["сман","енною"],["сман","енные"],["сман","енных"],["сман","енному"],["сман","енное"],["сман","енными"],["сдво","ен"],["сдво","енном"],["сдво","енным"],["сдво","енный"],["сдво","енного"],["сдво","енная"],["сдво","енной"],["сдво","енную"],["сдво","енною"],["сдво","енные"],["сдво","енных"],["сдво","енному"],["сдво","енное"],["сдво","енными"],["лю","то"],["лю","ба"],["лю","бо"],["лю","дно"],["лю","зи"],["бере","т"],["бере","ст"],["бере","сте"],["бере","стой"],["бере","сты"],["бере","сту"],["бере","жков"],["бере","стою"],["впряд","ен"],["впряд","енном"],["впряд","енным"],["впряд","енный"],["впряд","енного"],["впряд","енная"],["впряд","енной"],["впряд","енную"],["впряд","енною"],["впряд","енные"],["впряд","енных"],["впряд","енному"],["впряд","енное"],["впряд","енными"],["вклин","ен"],["вклин","енном"],["вклин","енным"],["вклин","енный"],["вклин","енного"],["вклин","енная"],["вклин","енной"],["вклин","енную"],["вклин","енною"],["вклин","енные"],["вклин","енных"],["вклин","енному"],["вклин","енное"],["вклин","енными"],["источ","ен"],["источ","енном"],["источ","енным"],["источ","енный"],["источ","енного"],["источ","енная"],["источ","енной"],["источ","енную"],["источ","енною"],["источ","енные"],["источ","енных"],["источ","енному"],["источ","енное"],["источ","енными"],["уто","рить"],["уман","ен"],["уман","енном"],["уман","енным"],["уман","енный"],["уман","енного"],["уман","енная"],["уман","енной"],["уман","енную"],["уман","енною"],["уман","енные"],["уман","енных"],["уман","енному"],["уман","енное"],["уман","енными"],["ущий","ся"],["ца","то"],["ца","пка"],["ца","пко"],["погруж","ен"],["погруж","енном"],["погруж","енным"],["погруж","енный"],["погруж","енного"],["погруж","енная"],["погруж","енной"],["погруж","енную"],["погруж","енною"],["погруж","енные"],["погруж","енных"],["погруж","енному"],["погруж","енное"],["погруж","енными"],["поман","ен"],["поман","енном"],["поман","енным"],["поман","енный"],["поман","енного"],["поман","енная"],["поман","енной"],["поман","енную"],["поман","енною"],["поман","енные"],["поман","енных"],["поман","енному"],["поман","енное"],["поман","енными"],["покош","ен"],["покош","енном"],["покош","енным"],["покош","енный"],["покош","енного"],["покош","енная"],["покош","енной"],["покош","енную"],["покош","енною"],["покош","енные"],["покош","енных"],["покош","енному"],["покош","енное"],["покош","енными"],["погромл","ен"],["погромл","енном"],["погромл","енным"],["погромл","енный"],["погромл","енного"],["погромл","енная"],["погромл","енной"],["погромл","енную"],["погромл","енною"],["погромл","енные"],["погромл","енных"],["погромл","енному"],["погромл","енное"],["погромл","енными"],["загруж","ен"],["загруж","енном"],["загруж","енным"],["загруж","енный"],["загруж","енного"],["загруж","енная"],["загруж","енной"],["загруж","енную"],["загруж","енною"],["загруж","енные"],["загруж","енных"],["загруж","енному"],["загруж","енное"],["загруж","енными"],["заклин","ен"],["заклин","енном"],["заклин","енным"],["заклин","енный"],["заклин","енного"],["заклин","енная"],["заклин","енной"],["заклин","енную"],["заклин","енною"],["заклин","енные"],["заклин","енных"],["заклин","енному"],["заклин","енное"],["заклин","енными"],["запруж","ен"],["запруж","енном"],["запруж","енным"],["запруж","енный"],["запруж","енного"],["запруж","енная"],["запруж","енной"],["запруж","енную"],["запруж","енною"],["запруж","енные"],["запруж","енных"],["запруж","енному"],["запруж","енное"],["запруж","енными"],["зарешеч","ен"],["зарешеч","енном"],["зарешеч","енным"],["зарешеч","енный"],["зарешеч","енного"],["зарешеч","енная"],["зарешеч","енной"],["зарешеч","енную"],["зарешеч","енною"],["зарешеч","енные"],["зарешеч","енных"],["зарешеч","енному"],["зарешеч","енное"],["зарешеч","енными"],["заточ","ен"],["заточ","енном"],["заточ","енным"],["заточ","енный"],["заточ","енного"],["заточ","енная"],["заточ","енной"],["заточ","енную"],["заточ","енною"],["заточ","енные"],["заточ","енных"],["заточ","енному"],["заточ","енное"],["заточ","енными"],["залуж","ен"],["залуж","енном"],["залуж","енным"],["залуж","енный"],["залуж","енного"],["залуж","енная"],["залуж","енной"],["залуж","енную"],["залуж","енною"],["залуж","енные"],["залуж","енных"],["залуж","енному"],["залуж","енное"],["залуж","енными"],["засеч","ен"],["засеч","енном"],["засеч","енным"],["засеч","енный"],["засеч","енного"],["засеч","енная"],["засеч","енной"],["засеч","енную"],["засеч","енною"],["засеч","енные"],["засеч","енных"],["засеч","енному"],["засеч","енное"],["засеч","енными"],["задразн","ен"],["задразн","енном"],["задразн","енным"],["задразн","енный"],["задразн","енного"],["задразн","енная"],["задразн","енной"],["задразн","енную"],["задразн","енною"],["задразн","енные"],["задразн","енных"],["задразн","енному"],["задразн","енное"],["задразн","енными"],["раствор","ен"],["раствор","енном"],["раствор","енным"],["раствор","енный"],["раствор","енного"],["раствор","енная"],["раствор","енной"],["раствор","енную"],["раствор","енною"],["раствор","енные"],["раствор","енных"],["раствор","енному"],["раствор","енное"],["раствор","енными"],["расточ","ен"],["расточ","енном"],["расточ","енным"],["расточ","енный"],["расточ","енного"],["расточ","енная"],["расточ","енной"],["расточ","енную"],["расточ","енною"],["расточ","енные"],["расточ","енных"],["расточ","енному"],["расточ","енное"],["расточ","енными"],["нагруж","ен"],["нагруж","енном"],["нагруж","енным"],["нагруж","енный"],["нагруж","енного"],["нагруж","енная"],["нагруж","енной"],["нагруж","енную"],["нагруж","енною"],["нагруж","енные"],["нагруж","енных"],["нагруж","енному"],["нагруж","енное"],["нагруж","енными"],["напряд","ен"],["напряд","енном"],["напряд","енным"],["напряд","енный"],["напряд","енного"],["напряд","енная"],["напряд","енной"],["напряд","енную"],["напряд","енною"],["напряд","енные"],["напряд","енных"],["напряд","енному"],["напряд","енное"],["напряд","енными"],["напруж","ен"],["напруж","енном"],["напруж","енным"],["напруж","енный"],["напруж","енного"],["напруж","енная"],["напруж","енной"],["напруж","енную"],["напруж","енною"],["напруж","енные"],["напруж","енных"],["напруж","енному"],["напруж","енное"],["напруж","енными"],["наряж","ен"],["наряж","енном"],["наряж","енным"],["наряж","енный"],["наряж","енного"],["наряж","енная"],["наряж","енной"],["наряж","енную"],["наряж","енною"],["наряж","енные"],["наряж","енных"],["наряж","енному"],["наряж","енное"],["наряж","енными"],["наволоч","ен"],["наволоч","енном"],["наволоч","енным"],["наволоч","енный"],["наволоч","енного"],["наволоч","енная"],["наволоч","енной"],["наволоч","енную"],["наволоч","енною"],["наволоч","енные"],["наволоч","енных"],["наволоч","енному"],["наволоч","енное"],["наволоч","енными"],["начин","ен"],["начин","енном"],["начин","енным"],["начин","енный"],["начин","енного"],["начин","енная"],["начин","енной"],["начин","енную"],["начин","енною"],["начин","енные"],["начин","енных"],["начин","енному"],["начин","енное"],["начин","енными"],["натруж","ен"],["натруж","енном"],["натруж","енным"],["натруж","енный"],["натруж","енного"],["натруж","енная"],["натруж","енной"],["натруж","енную"],["натруж","енною"],["натруж","енные"],["натруж","енных"],["натруж","енному"],["натруж","енное"],["натруж","енными"],["недогруж","ен"],["недогруж","енном"],["недогруж","енным"],["недогруж","енный"],["недогруж","енного"],["недогруж","енная"],["недогруж","енной"],["недогруж","енную"],["недогруж","енною"],["недогруж","енные"],["недогруж","енных"],["недогруж","енному"],["недогруж","енное"],["недогруж","енными"],["перегруж","ен"],["перегруж","енном"],["перегруж","енным"],["перегруж","енный"],["перегруж","енного"],["перегруж","енная"],["перегруж","енной"],["перегруж","енную"],["перегруж","енною"],["перегруж","енные"],["перегруж","енных"],["перегруж","енному"],["перегруж","енное"],["перегруж","енными"],["переман","ен"],["переман","енном"],["переман","енным"],["переман","енный"],["переман","енного"],["переман","енная"],["переман","енной"],["переман","енную"],["переман","енною"],["переман","енные"],["переман","енных"],["переман","енному"],["переман","енное"],["переман","енными"],["перепряд","ен"],["перепряд","енном"],["перепряд","енным"],["перепряд","енный"],["перепряд","енного"],["перепряд","енная"],["перепряд","енной"],["перепряд","енную"],["перепряд","енною"],["перепряд","енные"],["перепряд","енных"],["перепряд","енному"],["перепряд","енное"],["перепряд","енными"],["переклин","ен"],["переклин","енном"],["переклин","енным"],["переклин","енный"],["переклин","енного"],["переклин","енная"],["переклин","енной"],["переклин","енную"],["переклин","енною"],["переклин","енные"],["переклин","енных"],["переклин","енному"],["переклин","енное"],["переклин","енными"],["перекош","ен"],["перекош","енном"],["перекош","енным"],["перекош","енный"],["перекош","енного"],["перекош","енная"],["перекош","енной"],["перекош","енную"],["перекош","енною"],["перекош","енные"],["перекош","енных"],["перекош","енному"],["перекош","енное"],["перекош","енными"],["перепруж","ен"],["перепруж","енном"],["перепруж","енным"],["перепруж","енный"],["перепруж","енного"],["перепруж","енная"],["перепруж","енной"],["перепруж","енную"],["перепруж","енною"],["перепруж","енные"],["перепруж","енных"],["перепруж","енному"],["перепруж","енное"],["перепруж","енными"],["перезаряж","ен"],["перезаряж","енном"],["перезаряж","енным"],["перезаряж","енный"],["перезаряж","енного"],["перезаряж","енная"],["перезаряж","енной"],["перезаряж","енную"],["перезаряж","енною"],["перезаряж","енные"],["перезаряж","енных"],["перезаряж","енному"],["перезаряж","енное"],["перезаряж","енными"],["передразн","ен"],["передразн","енном"],["передразн","енным"],["передразн","енный"],["передразн","енного"],["передразн","енная"],["передразн","енной"],["передразн","енную"],["передразн","енною"],["передразн","енные"],["передразн","енных"],["передразн","енному"],["передразн","енное"],["передразн","енными"],["приман","ен"],["приман","енном"],["приман","енным"],["приман","енный"],["приман","енного"],["приман","енная"],["приман","енной"],["приман","енную"],["приман","енною"],["приман","енные"],["приман","енных"],["приман","енному"],["приман","енное"],["приман","енными"],["припряд","ен"],["припряд","енном"],["припряд","енным"],["припряд","енный"],["припряд","енного"],["припряд","енная"],["припряд","енной"],["припряд","енную"],["припряд","енною"],["припряд","енные"],["припряд","енных"],["припряд","енному"],["припряд","енное"],["припряд","енными"],["приуменьш","ен"],["приуменьш","енном"],["приуменьш","енным"],["приуменьш","енный"],["приуменьш","енного"],["приуменьш","енная"],["приуменьш","енной"],["приуменьш","енную"],["приуменьш","енною"],["приуменьш","енные"],["приуменьш","енных"],["приуменьш","енному"],["приуменьш","енное"],["приуменьш","енными"],["приструн","ен"],["приструн","енном"],["приструн","енным"],["приструн","енный"],["приструн","енного"],["приструн","енная"],["приструн","енной"],["приструн","енную"],["приструн","енною"],["приструн","енные"],["приструн","енных"],["приструн","енному"],["приструн","енное"],["приструн","енными"],["приотвор","ен"],["приотвор","енном"],["приотвор","енным"],["приотвор","енный"],["приотвор","енного"],["приотвор","енная"],["приотвор","енной"],["приотвор","енную"],["приотвор","енною"],["приотвор","енные"],["приотвор","енных"],["приотвор","енному"],["приотвор","енное"],["приотвор","енными"],["разгруж","ен"],["разгруж","енном"],["разгруж","енным"],["разгруж","енный"],["разгруж","енного"],["разгруж","енная"],["разгруж","енной"],["разгруж","енную"],["разгруж","енною"],["разгруж","енные"],["разгруж","енных"],["разгруж","енному"],["разгруж","енное"],["разгруж","енными"],["разман","ен"],["разман","енном"],["разман","енным"],["разман","енный"],["разман","енного"],["разман","енная"],["разман","енной"],["разман","енную"],["разман","енною"],["разман","енные"],["разман","енных"],["разман","енному"],["разман","енное"],["разман","енными"],["разряж","ен"],["разряж","енном"],["разряж","енным"],["разряж","енный"],["разряж","енного"],["разряж","енная"],["разряж","енной"],["разряж","енную"],["разряж","енною"],["разряж","енные"],["разряж","енных"],["разряж","енному"],["разряж","енное"],["разряж","енными"],["разреж","ен"],["разреж","енном"],["разреж","енным"],["разреж","енный"],["разреж","енного"],["разреж","енная"],["разреж","енной"],["разреж","енную"],["разреж","енною"],["разреж","енные"],["разреж","енных"],["разреж","енному"],["разреж","енное"],["разреж","енными"],["раздво","ен"],["раздво","енном"],["раздво","енным"],["раздво","енный"],["раздво","енного"],["раздво","енная"],["раздво","енной"],["раздво","енную"],["раздво","енною"],["раздво","енные"],["раздво","енных"],["раздво","енному"],["раздво","енное"],["раздво","енными"],["разгромл","ен"],["разгромл","енном"],["разгромл","енным"],["разгромл","енный"],["разгромл","енного"],["разгромл","енная"],["разгромл","енной"],["разгромл","енную"],["разгромл","енною"],["разгромл","енные"],["разгромл","енных"],["разгромл","енному"],["разгромл","енное"],["разгромл","енными"],["допряд","ен"],["допряд","енном"],["допряд","енным"],["допряд","енный"],["допряд","енного"],["допряд","енная"],["допряд","енной"],["допряд","енную"],["допряд","енною"],["допряд","енные"],["допряд","енных"],["допряд","енному"],["допряд","енное"],["допряд","енными"],["отгруж","ен"],["отгруж","енном"],["отгруж","енным"],["отгруж","енный"],["отгруж","енного"],["отгруж","енная"],["отгруж","енной"],["отгруж","енную"],["отгруж","енною"],["отгруж","енные"],["отгруж","енных"],["отгруж","енному"],["отгруж","енное"],["отгруж","енными"],["отман","ен"],["отман","енном"],["отман","енным"],["отман","енный"],["отман","енного"],["отман","енная"],["отман","енной"],["отман","енную"],["отман","енною"],["отман","енные"],["отман","енных"],["отман","енному"],["отман","енное"],["отман","енными"],["отпряд","ен"],["отпряд","енном"],["отпряд","енным"],["отпряд","енный"],["отпряд","енного"],["отпряд","енная"],["отпряд","енной"],["отпряд","енную"],["отпряд","енною"],["отпряд","енные"],["отпряд","енных"],["отпряд","енному"],["отпряд","енное"],["отпряд","енными"],["отупл","ен"],["отупл","енном"],["отупл","енным"],["отупл","енный"],["отупл","енного"],["отупл","енная"],["отупл","енной"],["отупл","енную"],["отупл","енною"],["отупл","енные"],["отупл","енных"],["отупл","енному"],["отупл","енное"],["отупл","енными"],["обрамл","ен"],["обрамл","енном"],["обрамл","енным"],["обрамл","енный"],["обрамл","енного"],["обрамл","енная"],["обрамл","енной"],["обрамл","енную"],["обрамл","енною"],["обрамл","енные"],["обрамл","енных"],["обрамл","енному"],["обрамл","енное"],["обрамл","енными"],["облокоч","ен"],["облокоч","енном"],["облокоч","енным"],["облокоч","енный"],["облокоч","енного"],["облокоч","енная"],["облокоч","енной"],["облокоч","енную"],["облокоч","енною"],["облокоч","енные"],["облокоч","енных"],["облокоч","енному"],["облокоч","енное"],["облокоч","енными"],["подгруж","ен"],["подгруж","енном"],["подгруж","енным"],["подгруж","енный"],["подгруж","енного"],["подгруж","енная"],["подгруж","енной"],["подгруж","енную"],["подгруж","енною"],["подгруж","енные"],["подгруж","енных"],["подгруж","енному"],["подгруж","енное"],["подгруж","енными"],["подман","ен"],["подман","енном"],["подман","енным"],["подман","енный"],["подман","енного"],["подман","енная"],["подман","енной"],["подман","енную"],["подман","енною"],["подман","енные"],["подман","енных"],["подман","енному"],["подман","енное"],["подман","енными"],["подар","ен"],["подар","енном"],["подар","енным"],["подар","енный"],["подар","енного"],["подар","енная"],["подар","енной"],["подар","енную"],["подар","енною"],["подар","енные"],["подар","енных"],["подар","енному"],["подар","енное"],["подар","енными"],["подклин","ен"],["подклин","енном"],["подклин","енным"],["подклин","енный"],["подклин","енного"],["подклин","енная"],["подклин","енной"],["подклин","енную"],["подклин","енною"],["подклин","енные"],["подклин","енных"],["подклин","енному"],["подклин","енное"],["подклин","енными"],["подреж","ен"],["подреж","енном"],["подреж","енным"],["подреж","енный"],["подреж","енного"],["подреж","енная"],["подреж","енной"],["подреж","енную"],["подреж","енною"],["подреж","енные"],["подреж","енных"],["подреж","енному"],["подреж","енное"],["подреж","енными"],["подволоч","ен"],["подволоч","енном"],["подволоч","енным"],["подволоч","енный"],["подволоч","енного"],["подволоч","енная"],["подволоч","енной"],["подволоч","енную"],["подволоч","енною"],["подволоч","енные"],["подволоч","енных"],["подволоч","енному"],["подволоч","енное"],["подволоч","енными"],["испряд","ен"],["испряд","енном"],["испряд","енным"],["испряд","енный"],["испряд","енного"],["испряд","енная"],["испряд","енной"],["испряд","енную"],["испряд","енною"],["испряд","енные"],["испряд","енных"],["испряд","енному"],["испряд","енное"],["испряд","енными"],["искош","ен"],["искош","енном"],["искош","енным"],["искош","енный"],["искош","енного"],["искош","енная"],["искош","енной"],["искош","енную"],["искош","енною"],["искош","енные"],["искош","енных"],["искош","енному"],["искош","енное"],["искош","енными"],["иссуш","ен"],["иссуш","енном"],["иссуш","енным"],["иссуш","енный"],["иссуш","енного"],["иссуш","енная"],["иссуш","енной"],["иссуш","енную"],["иссуш","енною"],["иссуш","енные"],["иссуш","енных"],["иссуш","енному"],["иссуш","енное"],["иссуш","енными"],["сострун","ен"],["сострун","енном"],["сострун","енным"],["сострун","енный"],["сострун","енного"],["сострун","енная"],["сострун","енной"],["сострун","енную"],["сострун","енною"],["сострун","енные"],["сострун","енных"],["сострун","енному"],["сострун","енное"],["сострун","енными"],["прогруж","ен"],["прогруж","енном"],["прогруж","енным"],["прогруж","енный"],["прогруж","енного"],["прогруж","енная"],["прогруж","енной"],["прогруж","енную"],["прогруж","енною"],["прогруж","енные"],["прогруж","енных"],["прогруж","енному"],["прогруж","енное"],["прогруж","енными"],["пропряд","ен"],["пропряд","енном"],["пропряд","енным"],["пропряд","енный"],["пропряд","енного"],["пропряд","енная"],["пропряд","енной"],["пропряд","енную"],["пропряд","енною"],["пропряд","енные"],["пропряд","енных"],["пропряд","енному"],["пропряд","енное"],["пропряд","енными"],["прореж","ен"],["прореж","енном"],["прореж","енным"],["прореж","енный"],["прореж","енного"],["прореж","енная"],["прореж","енной"],["прореж","енную"],["прореж","енною"],["прореж","енные"],["прореж","енных"],["прореж","енному"],["прореж","енное"],["прореж","енными"],["взман","ен"],["взман","енном"],["взман","енным"],["взман","енный"],["взман","енного"],["взман","енная"],["взман","енной"],["взман","енную"],["взман","енною"],["взман","енные"],["взман","енных"],["взман","енному"],["взман","енное"],["взман","енными"],["вздво","ен"],["вздво","енном"],["вздво","енным"],["вздво","енный"],["вздво","енного"],["вздво","енная"],["вздво","енной"],["вздво","енную"],["вздво","енною"],["вздво","енные"],["вздво","енных"],["вздво","енному"],["вздво","енное"],["вздво","енными"],["расклин","ен"],["расклин","енном"],["расклин","енным"],["расклин","енный"],["расклин","енного"],["расклин","енная"],["расклин","енной"],["расклин","енную"],["расклин","енною"],["расклин","енные"],["расклин","енных"],["расклин","енному"],["расклин","енное"],["расклин","енными"],["раскош","ен"],["раскош","енном"],["раскош","енным"],["раскош","енный"],["раскош","енного"],["раскош","енная"],["раскош","енной"],["раскош","енную"],["раскош","енною"],["раскош","енные"],["раскош","енных"],["раскош","енному"],["раскош","енное"],["раскош","енными"],["преуменьш","ен"],["преуменьш","енном"],["преуменьш","енным"],["преуменьш","енный"],["преуменьш","енного"],["преуменьш","енная"],["преуменьш","енной"],["преуменьш","енную"],["преуменьш","енною"],["преуменьш","енные"],["преуменьш","енных"],["преуменьш","енному"],["преуменьш","енное"],["преуменьш","енными"],["притвор","ен"],["притвор","енном"],["притвор","енным"],["притвор","енный"],["притвор","енного"],["притвор","енная"],["притвор","енной"],["притвор","енную"],["притвор","енною"],["притвор","енные"],["притвор","енных"],["притвор","енному"],["притвор","енное"],["притвор","енными"],["изрешеч","ен"],["изрешеч","енном"],["изрешеч","енным"],["изрешеч","енный"],["изрешеч","енного"],["изрешеч","енная"],["изрешеч","енной"],["изрешеч","енную"],["изрешеч","енною"],["изрешеч","енные"],["изрешеч","енных"],["изрешеч","енному"],["изрешеч","енное"],["изрешеч","енными"],["затвор","ен"],["затвор","енном"],["затвор","енным"],["затвор","енный"],["затвор","енного"],["затвор","енная"],["затвор","енной"],["затвор","енную"],["затвор","енною"],["затвор","енные"],["затвор","енных"],["затвор","енному"],["затвор","енное"],["затвор","енными"],["затверж","ен"],["затверж","енном"],["затверж","енным"],["затверж","енный"],["затверж","енного"],["затверж","енная"],["затверж","енной"],["затверж","енную"],["затверж","енною"],["затверж","енные"],["затверж","енных"],["затверж","енному"],["затверж","енное"],["затверж","енными"],["опорожн","ен"],["опорожн","енном"],["опорожн","енным"],["опорожн","енный"],["опорожн","енного"],["опорожн","енная"],["опорожн","енной"],["опорожн","енную"],["опорожн","енною"],["опорожн","енные"],["опорожн","енных"],["опорожн","енному"],["опорожн","енное"],["опорожн","енными"],["заснеж","ен"],["заснеж","енном"],["заснеж","енным"],["заснеж","енный"],["заснеж","енного"],["заснеж","енная"],["заснеж","енной"],["заснеж","енную"],["заснеж","енною"],["заснеж","енные"],["заснеж","енных"],["заснеж","енному"],["заснеж","енное"],["заснеж","енными"],["закруж","ен"],["закруж","енном"],["закруж","енным"],["закруж","енный"],["закруж","енного"],["закруж","енная"],["закруж","енной"],["закруж","енную"],["закруж","енною"],["закруж","енные"],["закруж","енных"],["закруж","енному"],["закруж","енное"],["закруж","енными"],["вскруж","ен"],["вскруж","енном"],["вскруж","енным"],["вскруж","енный"],["вскруж","енного"],["вскруж","енная"],["вскруж","енной"],["вскруж","енную"],["вскруж","енною"],["вскруж","енные"],["вскруж","енных"],["вскруж","енному"],["вскруж","енное"],["вскруж","енными"],["вкрапл","ен"],["вкрапл","енном"],["вкрапл","енным"],["вкрапл","енный"],["вкрапл","енного"],["вкрапл","енная"],["вкрапл","енной"],["вкрапл","енную"],["вкрапл","енною"],["вкрапл","енные"],["вкрапл","енных"],["вкрапл","енному"],["вкрапл","енное"],["вкрапл","енными"],["усугу","блен"],["захламощ","ен"],["захламощ","енном"],["захламощ","енным"],["захламощ","енный"],["захламощ","енного"],["захламощ","енная"],["захламощ","енной"],["захламощ","енную"],["захламощ","енною"],["захламощ","енные"],["захламощ","енных"],["захламощ","енному"],["захламощ","енное"],["захламощ","енными"],["взвихр","ен"],["взвихр","енном"],["взвихр","енным"],["взвихр","енный"],["взвихр","енного"],["взвихр","енная"],["взвихр","енной"],["взвихр","енную"],["взвихр","енною"],["взвихр","енные"],["взвихр","енных"],["взвихр","енному"],["взвихр","енное"],["взвихр","енными"],["осведомл","ен"],["осведомл","енном"],["осведомл","енным"],["осведомл","енный"],["осведомл","енного"],["осведомл","енная"],["осведомл","енной"],["осведомл","енную"],["осведомл","енною"],["осведомл","енные"],["осведомл","енных"],["осведомл","енному"],["осведомл","енное"],["осведомл","енными"],["посел","енном"],["посел","енным"],["посел","енного"],["посел","енная"],["посел","енной"],["посел","енную"],["посел","енною"],["посел","енные"],["посел","енных"],["посел","енному"],["посел","енное"],["посел","енными"],["мы","т"],["мы","ло"],["мы","тый"],["мы","ков"],["мы","сл"],["мы","шей"],["ха","ло"],["ха","мит"],["ха","мза"],["ха","уса"],["ха","рактер"],["дро","гнуть"],["дро","бно"],["присел","енном"],["присел","енным"],["присел","енный"],["присел","енного"],["присел","енная"],["присел","енной"],["присел","енную"],["присел","енною"],["присел","енные"],["присел","енных"],["присел","енному"],["присел","енное"],["присел","енными"],["тепл","ен"],["тепл","енном"],["тепл","енным"],["тепл","енный"],["тепл","енного"],["тепл","енная"],["тепл","енной"],["тепл","енную"],["тепл","енною"],["тепл","енные"],["тепл","енных"],["тепл","енному"],["тепл","енное"],["сос","ланный"],["сач","ен"],["сач","енном"],["сач","енным"],["сач","енный"],["сач","енного"],["сач","енная"],["сач","енной"],["сач","енную"],["сач","енною"],["сач","енные"],["сач","енных"],["сач","енному"],["сач","енное"],["полн","ен"],["полн","енном"],["полн","енным"],["полн","енный"],["полн","енного"],["полн","енная"],["полн","енной"],["полн","енную"],["полн","енною"],["полн","енные"],["полн","енных"],["полн","енному"],["полн","енное"],["багрян","ен"],["багрян","енном"],["багрян","енным"],["багрян","енный"],["багрян","енного"],["багрян","енная"],["багрян","енной"],["багрян","енную"],["багрян","енною"],["багрян","енные"],["багрян","енных"],["багрян","енному"],["багрян","енное"],["усугубл","енном"],["усугубл","енным"],["усугубл","енный"],["усугубл","енного"],["усугубл","енная"],["усугубл","енной"],["усугубл","енную"],["усугубл","енною"],["усугубл","енные"],["усугубл","енных"],["усугубл","енному"],["усугубл","енное"],["усугубл","енными"],["мар","ий"],["мар","сель"],["мар","ица"],["ша","ров"],["ша","бер"],["ша","хов"],["ша","рах"],["новорожд","енном"],["новорожд","енным"],["новорожд","енного"],["новорожд","енная"],["новорожд","енной"],["новорожд","енную"],["новорожд","енною"],["новорожд","енные"],["новорожд","енных"],["новорожд","енному"],["новорожд","енными"],["ту","к"],["ту","т"],["ту","з"],["ту","го"],["ту","ша"],["ту","чно"],["ту","рку"],["ту","скло"],["ту","пица"],["ту","пей"],["цев","ье"],["ста","ет"],["ста","ем"],["ста","ющий"],["ста","ешь"],["ста","ете"],["ста","рое"],["ста","ккато"],["багр","енном"],["багр","енным"],["багр","енный"],["багр","енного"],["багр","енная"],["багр","енной"],["багр","енную"],["багр","енною"],["багр","енные"],["багр","енных"],["багр","енному"],["багр","енное"],["сла","бо"],["сла","вец"],["бы","к"],["бы","ло"],["бы","стро"],["бы","вший"],["бы","том"],["жа","ра"],["жа","ло"],["жа","тый"],["жа","рок"],["жа","лко"],["жа","юще"],["жа","люзи"],["пле","чики"],["чу","а"],["чу","я"],["чу","дно"],["чу","дом"],["чу","гов"],["чу","дила"],["чу","чело"],["чу","хна"],["чу","совой"],["уг","лем"],["обос","нов"],["стой","ка"],["стой","ко"],["стой","ком"],["моло","до"],["моло","тый"],["моло","тило"],["моло","кан"],["моло","дая"],["мудрен","а"],["мудрен","ы"],["мудрен","ей"],["мудрен","ее"],["сажен","ен"],["сажен","ка"],["сажен","ку"],["сажен","ки"],["сажен","ке"],["сажен","кам"],["сажен","ках"],["сажен","ками"],["сажен","ок"],["сажен","кой"],["сажен","кою"],["знамен","ен"],["электро","стартере"],["электро","сверла"],["сле","г"],["сле","з"],["сле","по"],["сле","зо"],["сле","пой"],["сле","зы"],["сле","довать"],["ке","той"],["ке","гля"],["ке","чуа"],["кре","сти"],["кре","шендо"],["кре","щендо"],["кре","стный"],["зу","ев"],["зу","ля"],["зу","бец"],["зу","бов"],["лей","те"],["лей","ший"],["хлест","ка"],["хлест","ко"],["сосен","ка"],["сосен","ку"],["сосен","ки"],["сосен","ке"],["сосен","кам"],["сосен","ках"],["сосен","ками"],["сосен","ок"],["сосен","кой"],["сосен","кою"],["обосну","ет"],["обосну","ете"],["обосну","ется"],["обосну","етесь"],["знаменщи","к"],["знаменщи","ка"],["знаменщи","ку"],["знаменщи","ков"],["знаменщи","ком"],["знаменщи","ки"],["знаменщи","ке"],["знаменщи","кам"],["знаменщи","ках"],["знаменщи","ками"],["бечевни","к"],["бечевни","ка"],["бечевни","ку"],["бечевни","ков"],["бечевни","ком"],["бечевни","ки"],["бечевни","ке"],["бечевни","кам"],["бечевни","ках"],["бечевни","ками"],["бултых","нете"],["бултых","немте"],["бултых","нетесь"],["чет","ка"],["чет","ко"],["чет","ки"],["дан","ил"],["пор","но"],["пор","ту"],["пор","ты"],["пор","шни"],["гор","до"],["гор","бина"],["вах","ней"],["вах","тере"],["шоф","ере"],["электростартер","а"],["электростартер","ы"],["электростартер","у"],["электростартер","ов"],["электростартер","ом"],["электростартер","ами"],["электростартер","ам"],["электростартер","ах"],["пло","хо"],["пло","ско"],["пло","тно"],["од","ер"],["од","нако"],["тре","м"],["тре","х"],["тре","зво"],["тре","пало"],["тре","пан"],["тре","молан"],["тре","пещущий"],["тре","зубец"],["воро","нов"],["воро","нцев"],["воро","нец"],["воро","тила"],["воро","бьев"],["вет","ров"],["вет","лы"],["ин","когни"],["ин","динка"],["фо","к"],["фо","торужье"],["гла","дко"],["гла","дь"],["гла","голь"],["гла","зков"],["юр","та"],["тя","жущий"],["тя","жко"],["тя","жело"],["тя","нущий"],["тя","нутый"],["вя","з"],["вя","ло"],["вя","жущий"],["вар","я"],["вар","га"],["вар","ена"],["пра","во"],["пра","вый"],["пра","вящий"],["прот","ертый"],["прот","русить"],["каж","ется"],["каж","ущийся"],["недо","сыпать"],["недо","вернут"],["недо","бро"],["недо","лго"],["недо","лга"],["недо","рого"],["недо","стающий"],["черкаемо","й"],["черкаемо","м"],["черкаемо","е"],["черкаемо","ю"],["черкаемо","го"],["черкаемо","му"],["утонч","енности"],["утонч","енность"],["утонч","енностью"],["утонч","енностей"],["утонч","енностям"],["утонч","енностях"],["утонч","енностями"],["раздробл","енности"],["раздробл","енность"],["раздробл","енностью"],["раздробл","енностей"],["раздробл","енностям"],["раздробл","енностях"],["раздробл","енностями"],["дале","ко"],["дале","ки"],["пас","сиона"],["марк","ере"],["марк","ера"],["сму","ро"],["ску","п"],["ску","по"],["ску","дно"],["гре","та"],["гре","бла"],["гре","шно"],["гре","бен"],["гре","тто"],["мя","ло"],["мя","та"],["мя","гко"],["бла","го"],["бла","женно"],["бла","женная"],["зо","нка"],["зо","зуля"],["ир","иса"],["уре","му"],["уре","ма"],["уре","ме"],["уре","мы"],["уре","мой"],["уре","мою"],["уда","ло"],["уда","льцов"],["дре","му"],["дре","ма"],["дре","ме"],["дре","мы"],["дре","мой"],["дре","мою"],["поло","г"],["поло","н"],["поло","м"],["поло","з"],["поло","ть"],["поло","ги"],["сты","нно"],["зачерка","л"],["зачерка","ло"],["зачерка","ли"],["зачерка","ла"],["зачерка","ть"],["зачерка","ет"],["зачеркавше","й"],["зачеркавше","м"],["зачеркавше","е"],["зачеркавше","ю"],["зачеркавше","го"],["зачеркавше","му"],["кал","мыков"],["вое","вода"],["начерка","л"],["начерка","ло"],["начерка","ли"],["начерка","ла"],["начерка","ть"],["начерка","ет"],["начеркавше","й"],["начеркавше","м"],["начеркавше","е"],["начеркавше","ю"],["начеркавше","го"],["начеркавше","му"],["перечерка","л"],["перечерка","ло"],["перечерка","ли"],["перечерка","ла"],["перечерка","ть"],["перечерка","ет"],["перечеркавше","й"],["перечеркавше","м"],["перечеркавше","е"],["перечеркавше","ю"],["перечеркавше","го"],["перечеркавше","му"],["исчерка","л"],["исчерка","ло"],["исчерка","ли"],["исчерка","ла"],["исчерка","ть"],["исчерка","ет"],["исчеркавше","й"],["исчеркавше","м"],["исчеркавше","е"],["исчеркавше","ю"],["исчеркавше","го"],["исчеркавше","му"],["бух","нем"],["бух","нет"],["бух","нешь"],["бух","нете"],["бух","немте"],["холено","й"],["холено","е"],["холено","ю"],["холено","го"],["холено","му"],["повезше","й"],["повезше","м"],["повезше","е"],["повезше","ю"],["повезше","го"],["повезше","му"],["заперше","мся"],["заперше","еся"],["заперше","йся"],["заперше","юся"],["заперше","гося"],["заперше","муся"],["тем","но"],["тем","ник"],["све","та"],["све","тило"],["све","жо"],["све","кров"],["огор","ченней"],["огор","ченнее"],["огор","ченно"],["крас","ный"],["крас","ная"],["крас","ное"],["крас","иво"],["крас","ных"],["бре","мен"],["бре","да"],["бре","ющий"],["бре","вна"],["брыз","жущий"],["брыз","гало"],["тру","т"],["тру","дно"],["тру","дящийся"],["пу","сто"],["пу","тем"],["пу","гало"],["пу","стельга"],["пу","стынно"],["зи","ло"],["убежд","енно"],["убежд","енней"],["убежд","еннее"],["-то","ме"],["поро","с"],["поро","й"],["поро","ю"],["поро","чно"],["ство","лина"],["стра","шила"],["зачеркавши","м"],["зачеркавши","е"],["зачеркавши","х"],["зачеркавши","ми"],["коро","лек"],["коро","льков"],["воль","но"],["воль","та"],["воль","ная"],["воль","тов"],["воль","ница"],["начеркавши","м"],["начеркавши","е"],["начеркавши","х"],["начеркавши","ми"],["перечеркавши","м"],["перечеркавши","е"],["перечеркавши","х"],["перечеркавши","ми"],["тол","к"],["тол","сто"],["тол","кучий"],["дом","ный"],["обре","ченней"],["обре","ченнее"],["обре","ченно"],["селен","а"],["исчеркавши","м"],["исчеркавши","е"],["исчеркавши","х"],["исчеркавши","ми"],["искаж","енно"],["искаж","енней"],["искаж","еннее"],["планерны","м"],["планерны","е"],["планерны","х"],["планерны","ми"],["мед","ков"],["мед","сестры"],["мед","вежий"],["окунево","м"],["окунево","ю"],["окунево","го"],["окунево","му"],["окуневы","м"],["окуневы","е"],["окуневы","х"],["окуневы","ми"],["тополево","м"],["тополево","ю"],["тополево","го"],["тополево","му"],["тополевы","м"],["тополевы","е"],["тополевы","х"],["тополевы","ми"],["полуведерны","м"],["полуведерны","е"],["полуведерны","х"],["полуведерны","ми"],["голавлево","м"],["голавлево","ю"],["голавлево","го"],["голавлево","му"],["голавлевы","м"],["голавлевы","е"],["голавлевы","х"],["голавлевы","ми"],["сорокаведерны","м"],["сорокаведерны","е"],["сорокаведерны","х"],["сорокаведерны","ми"],["безвесельны","м"],["безвесельны","е"],["безвесельны","х"],["безвесельны","ми"],["шелково","м"],["шелково","ю"],["шелково","го"],["шелково","му"],["шелковы","м"],["шелковы","е"],["шелковы","х"],["шелковы","ми"],["утомл","енно"],["утомл","енней"],["утомл","еннее"],["угнет","енно"],["угнет","енней"],["угнет","еннее"],["зуб","ный"],["зуб","ков"],["зуб","ной"],["порск","нем"],["порск","нет"],["порск","нешь"],["порск","нете"],["порск","немте"],["вахтер","а"],["вахтер","ы"],["вахтер","у"],["вахтер","ом"],["юрк","нем"],["юрк","нет"],["юрк","нешь"],["юрк","нете"],["юрк","немте"],["смущ","енно"],["смущ","енней"],["смущ","еннее"],["удру","ченней"],["удру","ченнее"],["удру","ченно"],["изощр","енно"],["изощр","енней"],["изощр","еннее"],["доро","го"],["доро","га"],["доро","гой"],["мерт","вы"],["мерт","вый"],["мерт","вящий"],["маркер","ы"],["маркер","у"],["маркер","ом"],["сс","андо"],["сер","ка"],["сер","ков"],["сер","ож"],["свер","нуть"],["свер","хлегка"],["счет","а"],["счет","ами"],["счет","ам"],["счет","ах"],["ок","таво"],["ора","н"],["ора","ло"],["опер","ло"],["опер","ли"],["опер","ла"],["опер","лась"],["одар","енней"],["одар","еннее"],["гра","й"],["гра","ф"],["гра","ве"],["гра","барем"],["ган","ка"],["кр","юков"],["кро","й"],["кро","ха"],["кро","тко"],["кру","то"],["кру","тило"],["кру","гом"],["кру","пно"],["кси","миле"],["бер","ца"],["бер","це"],["бер","цу"],["жу","тко"],["жу","раву"],["жу","ковский"],["пен","ье"],["пен","ьем"],["пен","остекла"],["пла","вно"],["пла","вной"],["пла","чущий"],["врожд","енней"],["врожд","еннее"],["зво","нок"],["зво","нко"],["шу","ба"],["шу","стро"],["шу","тя"],["шу","ринов"],["яро","к"],["яро","вой"],["яро","слава"],["яро","славец"],["дь","яков"],["фа","со"],["фа","кти"],["фа","ксимиле"],["закал","енней"],["закал","еннее"],["коло","тый"],["коло","тье"],["коло","тило"],["коло","тьем"],["лом","тем"],["нок","ий"],["перемер","ло"],["перемер","ли"],["перемер","ла"],["вели","к"],["вели","кое"],["вели","чественно"],["прирожд","енней"],["прирожд","еннее"],["добро","м"],["обнаж","енней"],["обнаж","еннее"],["бель","ков"],["бель","бей"],["бель","цы"],["соко","л"],["соко","лов"],["вали","м"],["вали","ма"],["вала","х"],["мало","е"],["мало","вато"],["лена","тый"],["черкающ","ая"],["черкающ","ую"],["черкающи","м"],["черкающи","е"],["черкающи","х"],["черкающи","ми"],["черкающе","й"],["черкающе","е"],["черкающе","ю"],["черкающе","го"],["шелков","ая"],["шелков","ую"],["шелков","ый"],["холены","м"],["холены","е"],["холены","ми"],["пек","ло"],["пек","лев"],["повезши","м"],["повезши","е"],["повезши","х"],["повезши","ми"],["черкаемы","м"],["черкаемы","е"],["черкаемы","ми"],["заперши","мся"],["заперши","еся"],["заперши","мис"],["заперши","хся"],["береста","м"],["береста","х"],["береста","ми"],["углубл","енней"],["углубл","еннее"],["креп","ко"],["креп","ки"],["обобье","те"],["обобье","тесь"],["обобьем","те"],["обобьем","ся"],["обобьем","тесь"],["обоснуем","те"],["обоснуем","ся"],["обоснуем","тесь"],["шофер","у"],["шофер","ов"],["шофер","ом"],["шофера","м"],["шофера","х"],["шофера","ми"],["фор","те"],["фор","тиссимо"],["удал","енней"],["удал","еннее"],["неудовлетвор","енней"],["неудовлетвор","еннее"],["немудрен","а"],["немудрен","ы"],["недале","ка"],["недале","ки"],["бор","зо"],["бор","зая"],["ин-","квар"],["ин-","октаво"],["сми","рно"],["сви","та"],["сви","стящий"],["сви","репо"],["сме","ло"],["сме","ла"],["сме","шно"],["сжа","то"],["свя","той"],["свя","тая"],["свя","щенно"],["оз","ера"],["оз","ерца"],["гне","вно"],["гне","зда"],["гне","дков"],["гру","бо"],["гру","зно"],["гру","зило"],["глу","хо"],["ага","м"],["ага","ми"],["кри","вой"],["кри","вая"],["кри","вошея"],["бле","дно"],["бле","сны"],["бле","стящий"],["едо","к"],["ты","ну"],["ты","сяч"],["тю","к"],["жо","р"],["жар","ка"],["жар","ко"],["жар","кое"],["пар","ы"],["пар","и"],["пет","ров"],["пет","лей"],["пет","лею"],["вис","ла"],["вис","им"],["зы","бь"],["зно","бко"],["шан","цев"],["шан","ная"],["шан","тра"],["яр","ка"],["что","-то"],["дя","тлов"],["дев","ятью"],["цвет","ков"],["цвет","ущий"],["поч","ти"],["поч","тенный"],["поко","ящийся"],["стри","гущий"],["забы","тый"],["роко","ко"],["воз","горе"],["воз","давать"],["воз","можно"],["над","сыпать"],["над","вернут"],["над","пил"],["горо","дской"],["горе","в"],["горе","стно"],["неле","по"],["неле","гко"],["неле","гка"],["переоре","т"],["переоре","те"],["переоре","шь"],["лев","кой"],["отпер","лась"],["отпер","лось"],["отпер","лись"],["искр","енно"],["бел","енной"],["бел","ых"],["прооре","т"],["прооре","те"],["прооре","шь"],["полно","чью"],["решет","ца"],["решет","це"],["решет","цу"],["май","я"],["май","на"],["макси","м"],["макси","ма"],["макси","мов"],["боле","е"],["боле","зненно"],["боль","ше"],["боль","ной"],["боль","ная"],["бур","тов"],["бур","кина"],["неров","но"],["неров","ней"],["неров","нею"],["чего","-то"],["дели","мый"],["дели","мое"],["заперш","аяся"],["заперш","уюся"],["заперш","ись"],["люби","мый"],["бултыхнем","ся"],["бултыхнем","тесь"],["цели","ть"],["цели","ков"],["цели","ком"],["проти","вно"],["проти","востоящий"],["обопь","ет"],["обопь","ем"],["обопь","емте"],["слы","шь"],["але","гретто"],["все","го"],["худо","жественно"],["равно","отстоящий"],["смет","анный"],["смет","ана"],["спе","ть"],["спе","шить"],["свернут","ый"],["свет","ло"],["свет","лейший"],["сфор","цандо"],["сфор","цато"],["опа","ла"],["опа","хало"],["оди","ноко"],["оди","нокий"],["остро","вина"],["гл","упо"],["ген","ри"],["гли","нка"],["гли","ссандо"],["гну","сь"],["гни","льца"],["гри","шков"],["гри","шанцев"],["гнет","ущий"],["ай","ке"],["аба","к"],["ада","жио"],["алы","м"],["аги","дель"],["нуж","но"],["кве","ло"],["кве","ла"],["кто","р"],["кры","то"],["кры","тый"],["кша","трий"],["клей","ка"],["квар","тировать"],["муж","ественно"],["бая","н"],["бая","нный"],["бли","зко"],["бли","жний"],["тен","а"],["тра","вести"],["тан","цую"],["твер","до"],["твер","ды"],["вен","ера"],["вере","я"],["вере","тена"],["вре","менами"],["зе","лены"],["зре","ло"],["зре","ть"],["шле","м"],["шле","п"],["чан","ы"],["убо","го"],["убо","гий"],["хро","ма"],["хро","мой"],["хри","п"],["хри","пло"],["хны","кала"],["хме","льно"],["хме","льни"],["хром","ая"],["ден","ие"],["дря","хло"],["дря","бло"],["джи","о"],["дмит","рия"],["дмит","риев"],["фра","нцев"],["фра","нц"],["федо","ра"],["федо","ров"],["эн","ге"],["эсто","лько"],["почи","вший"],["почи","нок"],["посаж","енней"],["посаж","еннее"],["попланер","ней"],["попланер","нее"],["поуниж","енней"],["поуниж","еннее"],["пообыд","енней"],["пообыд","еннее"],["поме","шанный"],["поме","шанная"],["понасторож","енней"],["понасторож","еннее"],["поокуне","вей"],["поокуне","вее"],["потополе","вей"],["потополе","вее"],["похолен","ей"],["похолен","ее"],["пополуведер","ней"],["пополуведер","нее"],["поголавле","вей"],["поголавле","вее"],["посорокаведер","ней"],["посорокаведер","нее"],["познам","енней"],["познам","еннее"],["побезвесель","ней"],["побезвесель","нее"],["попредубежд","енней"],["попредубежд","еннее"],["пошелко","вей"],["пошелко","вее"],["помудрен","ей"],["помудрен","ее"],["поня","той"],["поня","тно"],["поогор","ченней"],["поогор","ченнее"],["поубежд","енней"],["поубежд","еннее"],["пообре","ченней"],["пообре","ченнее"],["поискаж","енней"],["поискаж","еннее"],["поутомл","енней"],["поутомл","еннее"],["поугнет","енней"],["поугнет","еннее"],["посмущ","енней"],["посмущ","еннее"],["поудру","ченней"],["поудру","ченнее"],["поизощр","енней"],["поизощр","еннее"],["поодар","енней"],["поодар","еннее"],["поврожд","енней"],["поврожд","еннее"],["позакал",
[...]
